Ġ Ġ
Ġ t
Ġ a
i n
h e
r e
o n
e r
ĠĠ ĠĠ
Ġt he
a t
Ġ s
e n
Ġ o
Ġ w
Ġ c
i s
o r
i t
e s
a n
e d
a l
Ġ p
Ġ f
Ġ b
in g
o u
Ġa n
a r
Ġ m
Ġ d
Ġ Ċ
Ġo f
Ġ in
Ġt o
i on
i c
l e
a s
Ġan d
ä ¸
Ġ h
r o
Ġt h
ï ¼
en t
e t
ĠĠĠĠ ĠĠĠĠ
Ġ n
c t
e l
s t
Ġ re
o m
Ġ l
i l
ï¼ Į
â Ģ
Ġ e
i d
ã Ģ
ç ļ
u t
i m
çļ Ħ
o t
Ġ g
v e
Ġ I
ĠĠ Ġ
a m
i g
Ġ is
Ġ T
a c
s e
o l
a d
u r
ä º
l y
Ġb e
o w
Ġ S
Ġf or
Ġ u
Ġ on
at ion
Ġth at
a y
v er
Ġ A
Ġs t
Ġ y
Ġ (
\ \
Ġ C
c e
it h
u l
i f
ãĢ Ĥ
Ġ he
å ı
æ ľ
i r
c h
ä »
Ġw ith
o d
Ġ it
Ġa s
t er
Ġc on
a g
Ġy ou
at e
n d
r i
a b
Ġ M
å ħ
Ġa l
å ¤
Ġw h
p p
Ġ v
e m
Ġp ro
u m
q u
è ¿
Ġw e
es t
Ġd e
Ġ P
æ ĺ
Ġ =
r a
Ġw as
is t
ä ½
å ®
å Ī
p e
he r
Ġ B
u s
h t
Ġ \\
re s
o s
an d
å Ĳ
u n
l d
t h
Ġo r
ĠT he
k e
er s
es s
Ġc om
il l
ĠĠĠĠ ĠĠĠ
Ġa t
Ġe x
Ġ r
an t
Ġ H
ç Ķ
ä ¹
o re
Ġs e
å ľ
o c
æ Ī
Ġa re
ĠĠĠĠĠĠĠĠ ĠĠĠĠĠĠĠĠ
o p
a in
Ġ W
Ġ D
ro m
or t
n t
Ġ F
Ġh a
e w
Ġs u
Ġn ot
ä¸ Ģ
æĺ ¯
it y
m ent
i v
en d
Ġ L
ãĢ ģ
Ġb y
Ġ R
Ġ $
âĢ Ļ
p t
Ġ -
è ¯
Ġth is
ig ht
ar t
ct ion
ç »
å Ĭ
å °
i ve
' s
Ġ N
re d
Ġf rom
Ġs h
ou ld
t e
ou r
Ġha ve
Ġ G
p l
al l
Ġ E
æ ĸ
å Ń
u d
ä¸ į
i es
Ġc h
el l
u st
Ġ *
æ Ĺ
ac k
am e
i al
Ġ le
å Ľ
Ġ {
Ġ j
æľ ī
ou t
u e
âĢ ľ
o g
âĢ Ŀ
in e
Ġ \\
Ġ k
ar d
u re
g e
è ®
p er
ag e
e ct
äº Ĩ
Ġ O
æ Ŀ
å į
i z
f f
Ġc an
r ou
Ġn e
ä ¼
æ ī
u b
ic h
åľ ¨
Ġa b
om e
o st
as s
at ed
Ġm e
å ·
å ¹
Ġw he
c l
id e
ab le
in d
a p
Ġd o
as t
äº º
Ġ J
Ġt r
Ġc l
a k
Ġal l
Ġp l
é ĩ
o k
ic al
Ġh is
Ġu s
T he
ĉ ĉ
t o
ul t
i b
Ġb ut
im p
t her
an s
å ¾
å Ĩ
Ġw or
å ĩ
at h
å º
as e
ic e
å ¼
on e
Ġre s
a ct
å ¥
im e
Ġa d
or m
è Ģ
a re
on g
in t
i p
ĥ ½
å ¸
è ¡
Ġ if
Ġ U
Ġg o
Ġ en
Ġcom p
c on
ou s
æ Ģ
æĪ ĳ
Ġcon t
i le
Ġo ut
e ar
å ¯
Ġh as
æ ķ
c c
ig n
Ġw ill
a v
Ġwh ich
g h
è §
it ion
ur n
Ġwe re
i e
é Ģ
ac e
Ġ +
Ġh ad
Ġu n
ç Ľ
Ġa pp
æ ł
l ic
Ġs o
ar y
Ġ qu
Ġthe y
e p
Ġon e
Ġu p
x t
å Ĵ
ä¸ Ń
o se
a u
en s
ĠI n
al ly
an ce
Ġd is
ä¸ ª
å Į
) ;
b er
p h
ĠĠĠĠĠĠĠĠ ĠĠĠ
Ġyou r
Ġm y
i a
æ Ĭ
res s
or d
ä¸ º
Ġ }
r u
r y
en ce
ation s
¦ ģ
ĠT h
i re
e re
ä» ¥
è¿ Ļ
è ´
d u
Ġs a
Ġa r
å¤ §
å ¿
è ¦ģ
ç İ
s o
a ke
Ġhe r
Ġthe ir
Ġp er
an g
o ok
è µ
åĴ Į
g et
å İ
it e
ç §
or y
ver y
Ġm ore
t y
l l
é Ĺ
r ing
Ġe v
Ġ <
' t
ion s
ac h
Ġl i
æ Ń
el y
a il
æ °
ĠS t
Ġthe re
Ġ K
) .
æĹ ¶
ä¸ Ĭ
ç ī
Ġw ould
ent s
çĶ Ł
Ġm an
ou nt
æ ²
Ġs p
è ĩ
ow n
t he
Ġa g
f orm
c om
Ġwh o
åı ¯
Ġo ther
æ ³
ou nd
å ±
k s
Ġ [
Ġab out
Ġp art
Ġn o
çĶ ¨
ç ľ
n e
æ ŀ
Ġan y
æ ĥ
å ½
é Ŀ
Ġbe en
Ġn ew
re e
æ Ķ
el f
at a
il d
é Ļ
Ġ V
ç º
è ĥ½
Ġg et
Ġ '
f t
Ġk n
Ġwhe n
or s
å ĳ
Ġs c
er v
åŃ ¦
Ġp re
j ect
åĪ °
Ġt ime
if f
v el
t urn
ro w
e f
ĠĠĠĠ Ġ
æĿ ¥
o b
ä¼ ļ
I n
nd er
ay s
w e
Ġs ome
Ġof f
re at
Ġo ver
Ġs he
Ġ imp
o ve
æ İ
Ġthe m
Ġal so
od e
ä ¿
å° ±
Ġ Y
Ġth an
et h
Ġ âĢ
è ¾
l ow
Ġt e
in k
Ġit s
ol d
ä½ ľ
w o
æ Ħ
ic t
ĠI t
ç Ń
) 
æ ¯
e x
Ġwh at
er t
Ġsa id
Â ł
ir st
Ġ âĢľ
Ġli ke
é ¢
ic k
ub lic
å ¦
S t
f ter
h at
ä» ĸ
Ġin to
ing s
c k
åĩ º
ç Ĳ
y s
æ µ
o v
Ġ ro
å¯ ¹
Ġ &
Ġa m
è¡ Į
Ġd es
å· ¥
ä¸ ĭ
Ġp e
ver s
at es
ri b
* *
Ġo ur
he d
Ġde f
ä½ ł
er m
Ġ _
å¹ ´
is h
ï¼ ļ
ĠĠĠĠĠĠĠĠ ĠĠĠĠĠĠĠ
c es
ĠĠĠĠĠĠĠĠĠĠĠĠĠĠĠĠ ĠĠĠĠĠĠĠĠĠĠĠĠĠĠĠĠ
Ġwor k
å ĵ
Ġs pe
Ġo b
æĸ ¹
Ġb et
au se
cl ud
åľ °
is s
æ Į
æ ĭ
ar k
é ģ
Ġas s
è ½
å¥ ½
åı ĳ
Ġh im
le ct
it t
Ġj ust
c re
at er
åĲ İ
Ġy ear
è ·
oc k
Ġcom m
l i
/ /
i ew
Ġon ly
ä» ¬
Ġbe c
Ġin d
Ġu nder
ad e
Ġin t
m ath
ĠC h
en er
æĪ Ĳ
åĪ Ĩ
am p
Ġa cc
èĩ ª
u al
on d
Ġre c
i an
if ic
Ġb l
ã ģ
ä¹ Ł
ul l
on t
Ġm ay
e c
è¿ ĩ
ĠH e
Ġp r
i ous
Ġs y
Ġin ter
å¤ ļ
p s
åŃ Ĳ
ç «
_ {
åĽ ½
Ġv al
on s
Ġc ould
Ġt wo
äº İ
Ġ$ \\
o int
é ĺ
ç Ĥ
Ġre p
å ī
çĲ Ĩ
Ġe m
pt ion
Ġd iff
Ġ im
Ġre turn
m a
Ġf irst
pe ct
Ġh ow
Ġcon s
ç ®
Ġsu b
op le
Ġ i
iz e
Ġa ct
è Ĥ
c ed
å ģ
Ġad d
o od
ou gh
Ġf e
i ed
a w
ç ¬
ig h
âĢ Ķ
åĬ ¨
Ġu se
ä¸ ļ
c ess
Ġkn ow
e g
s s
ĠĠ Ċ
Ġthe n
Ġd id
Ġne ed
: :
Ġp os
Ġat t
æ ±
Ġs et
ĠTh is
Ġc o
ĠW e
Ġwhe re
Ġre l
å® ¶
y pe
æ ´
rou nd
Ġc ol
ä¹ Ī
Ġb ack
å° ı
is e
st em
Ġa fter
f ore
ç Ŀ
ot h
ul ar
o y
m er
u p
at ive
æ ¬
in al
at ing
r it
Ġre g
Ġre m
i el
n ing
Ġin v
l es
å® ļ
( )
è¯ ´
éĿ ¢
å Ł
Ġm od
an ge
Ġse e
Ġsu ch
çİ °
ä ¾
Ġthe se
g r
ä¹ ĭ
å¦ Ĥ
Ġpe ople
i ent
Ġp h
Ġpro v
Ġf l
b le
è¿ Ľ
æ ¸
E R
é ¡
i o
Ġp ol
æ³ ķ
Ã ©
rou gh
n g
å¾ Ĺ
ç Ł
ri v
ç» ı
f r
ment s
i x
Ġsh ould
o f
f ul
un ction
he n
åħ ¬
Ġw ant
Ġp res
å¿ ĥ
é ĥ½
il ity
id ent
p ut
Ġp ublic
Ġtr ans
d er
as ed
Ġ @
é «
al s
a x
Ġd et
ib le
Ġs m
s et
å® ŀ
u ch
ut ion
ä½ ĵ
w n
æľ ¬
é Ĥ
Ġl ook
é ķ
ï¼ ī
é ĥ
Ġsu pp
é« ĺ
s h
ç ¨
er r
iel d
Ġb u
åĲ Į
Ġ .
ot her
è °
Ġe ff
Ġ el
ol og
Ġm ost
ter n
we en
åĬ Ľ
Ġin st
å¤ ©
å¼ Ģ
Ġth rough
Ġst ud
ï¼ Ī
Ġcl ass
Ġdiff ere
Ġbec ause
Ġc our
it s
e v
ç ½
ol low
éģ ĵ
p ro
å Ģ
èĢ Į
Ġag ain
è¿ ĺ
s p
Ġr ight
æī Ģ
Ġ ent
ic s
I N
Ġex p
Ġfor m
Ġm ake
Ġev en
u es
Ġn um
ç Ħ
o ol
Ġn ow
Ġre qu
ra ct
Ġe very
çĤ ¹
æĢ §
a pp
Ġ \
ar g
Ġin clud
or k
Ġa c
Ġbet ween
Ġw ay
s c
Ġres ult
Ġw ell
åĲ Ī
Ġ ke
Ġsh ow
le t
T h
Ġ end
p ar
re ad
çľ ĭ
æĥ ħ
é £
äº ĭ
o id
Ġs ur
çŃ ī
t r
ä¸ İ
r ight
O N
æ ı
ä¸ »
en c
æĸ ĩ
re n
æ Ľ
it ies
s elf
Ġd on
Ġd ist
åı¯ ä»¥
ĠU n
te xt
Ġspe c
çĿ Ģ
Ġs ign
g ht
Ġus ed
p r
Ġcon st
it ed
f ig
il y
Ġl ong
re f
å »
Ġdo es
at or
w ard
Ġd ata
u res
æ Ł
åħ ¨
å Ŀ
if e
Ġc all
en se
ĠâĢ ĵ
Ġf act
Ġg r
he s
Ġ :
éĩ Į
è Ĭ
éĥ ¨
Ġc or
Ġv ar
ĠĠĠĠ Ċ
Ġ very
Ġf ollow
Ġ Ð
æ² ¡
Ġpro du
t ing
l ed
at ch
éĹ ´
æľ º
è· ¯
äº §
ow er
æ į
æĦ ı
in s
ur ing
åħ ¶
Ġp ar
ĠS e
con d
Ġd own
åº Ķ
çĦ ¶
æ° ´
im es
u g
ç Ĺ
a ve
Ġhe re
ru ct
éĤ £
m s
è ī
en g
Ġth ink
at ic
Ġbe fore
in ed
åī į
o x
an n
Ġm in
Ġre f
imp ort
Ġp at
Ġsy stem
åº ¦
åĮ ĸ
ç¬ ¬
e ver
Ġyear s
æľ Ģ
ut e
Ġman y
. 
Ġf ind
ation al
Ġgo od
ers on
Ġh and
Ġo p
é Ľ
as h
u nd
Ġg ener
Ġex t
ä¸Ģ ä¸ª
I t
Ġde c
a ir
Ġs om
Ġpl ay
åħ ³
Ġt est
Ġb el
n ce
Ġc ase
èµ ·
ak ing
rou p
ç§ į
åİ »
iz ed
in ce
v al
b e
Ġg u
Ġs ame
éķ ¿
ar ch
Ġe ach
Ġbe ing
Ġm uch
Ġhe l
ic es
Ġ |
Ġc ur
Ġth ose
Ġ 
é ļ
ut h
è ¶
çī ©
ä¸ ī
Ġm ade
çĶ µ
an k
éĩ į
- >
èĢ ħ
Ġc he
åĬ ł
in es
Ġc ar
åĨ ħ
an c
t t
Ġst ate
Ġh igh
æŀ ľ
Ġo wn
é Ķ
ce pt
ical ly
Ġp oint
ç Ļ
Ġus ing
æ Ļ
Ġst art
w ay
å¾ Ī
Ġt ra
re nt
ç ³
æĸ °
ĠA nd
å» º
Ġf unction
al e
ag es
Ġre ad
Ġin te
d ay
éĩ ı
Ġ //
ction s
v ent
Ġst r
E S
ç Ī
è® ¾
Ġm on
p os
Ġs er
as on
ç ¾
æī ĭ
Ġdiffere nt
å½ ĵ
ç ¤
å §
åĽ ł
eth od
ç ĸ
od y
t a
le ment
ty pe
l o
at her
éĢ ļ
n ame
Ġf ound
ĠC om
< /
{ \\
Ġl oc
ç ±
re st
æ ģ
åĪ ¶
ain t
e ad
an y
ire ct
Ġ ra
æ ¶
n er
u ally
a red
. \
é ħ
Ġs elf
ĠB ut
E x
at ure
Ð ¾
Ġf il
Ġl a
ä½ į
Ġt ri
al k
æĥ ³
Ġb oth
æľ Ī
æĹ ¥
è ĭ
C on
Ġwh ile
Ġch ar
æķ °
æ ¡
åħ ¥
ï¼ Ł
n ess
ç ©
e red
é ľ
è ĥ
vel op
é¢ ĺ
æł ·
Ġg reat
Ġin f
Ġval ue
Ġin s
ĠY ou
æĹ ł
è ģ
åı Ĭ
st r
ate g
el s
A R
o ver
A T
l ine
W e
æķ Ļ
ĠĠĠĠ ĠĠ
Ġex per
em ent
i red
çĽ ®
Ġs erv
u c
ĠI f
Ġd i
am s
åĵ ģ
ç® ¡
Ġ x
ç¨ ĭ
äº Ľ
ant s
ç ¡
Ġres p
Ġm ed
çĽ ¸
è Ħ
Ġhel p
Ġm em
æĺ İ
m an
Ġs ay
æŃ £
v en
m in
Ġ z
am es
um ent
g an
form ation
ç ¥
amp le
r ay
åģ ļ
Ġdis c
Ġg iv
Ġeff ect
Ġ est
a h
ç ¼
Ġf r
i er
our ce
is m
Ġst ill
å ¢
ç ĥ
f or
äº Į
Ġc re
ç ģ
O R
Ġc ount
å¸ ¸
Ġn ame
o le
ç ´
ĠA l
å¸ Ĥ
æı Ĳ
æ¯ Ķ
Ġl ast
ä½ Ĩ
Ġpart ic
ä¿ Ŀ
æľ Ł
è º
y p
' 
t on
c ent
r ic
er n
æĪĳ ä»¬
c al
å· ±
E N
is ion
Ġnum ber
æĪ ĸ
Ġt ake
ro l
ĠF or
ĠA r
è į
Ġe ar
ç ķ
å ķ
m e
çŁ ¥
us s
é Ĵ
t s
å·¥ ä½ľ
id er
å® ī
g er
. âĢĿ
åĬ ¡
d d
Ġimp ort
Ġs ol
oc i
è Ī
ĠP ro
ter s
Ġpro cess
è ¢
Ġwith out
Ġapp ro
ist s
W hat
è¡ ¨
a z
è Ĳ
Ġa v
P ro
ä» İ
Ð °
è§ £
ou se
å¤ ĸ
Ġr un
Ġg l
éĹ ®
âĢ ĵ
Ġse cond
èĩª å·±
e k
Ġ Ã
v iew
æ´ »
Ġd ay
åı ª
è® ¡
Ġre al
å £
o ot
Ġp erson
èµ Ħ
u se
ã Ĥ
y ing
n ot
fr ac
ç ²
ou n
s on
as es
al th
å ĸ
å¹ ³
ĠA s
w w
Ġth ree
ä» Ģ
g g
ç³ »
Ġde p
Ġle t
Ġsupp ort
Ġgo ing
b r
Ġm ust
ra ph
Ġpos s
ĠA n
l and
ç ł
l ess
Ġw r
m ed
Ġc le
Ð µ
ä»Ģ ä¹Ī
v ed
ĠL et
Ġor der
èº «
} \\
å° Ĩ
m b
åĮ º
Ġ et
if ied
Ġin cre
Ġe qu
I T
Ġwor ld
Ġde velop
æ ·
ç» ĵ
Ġ ed
ou ght
' m
Ġf in
Ġ #
Ġch ild
Ġm at
ä½ ¿
æ¬ ¡
id ed
ï¼ Ľ
ro ss
i ence
å¹ ¶
Ġto o
et s
Ġa round
Ġ /
ad d
u pp
o h
p ort
æĦ Ł
Ġt erm
b y
Ġ Â
d e
Ġhe ad
Ġl ife
Ġcon f
i k
Ġf am
qu e
Ġqu est
æ²¡ æľī
Ġc ell
Ġsm all
é ª
Ġ err
Ġcour t
v ing
eth ing
Ġd el
Ġp ass
Ġpres ent
ä¿ ¡
æĽ ´
A N
c ri
ain ed
s er
S T
er g
Ġrep ort
ĠS he
æ Ĥ
Ġm et
Ġ* /
mer ic
åĳ ĺ
i ents
Ġpro ble
ign ed
Ġagain st
A L
ä¸ ¤
y n
Ã ¤
ĉĉ ĉ
Ġ Q
Ġd uring
ial ly
itt le
C h
iz ation
ĠN ew
ĠThe re
in ess
ĠĠĠĠĠĠĠĠĠĠĠĠĠĠĠĠ ĠĠĠ
St ring
Ġc r
å± ķ
ak es
iv ely
Ġb re
Ġl ist
an e
th ing
Ġis s
is hed
Ġle ad
Ġex pl
Ġar t
c ul
Th is
a j
enc y
r m
ce ption
æ° Ķ
æİ ¥
Ġc ent
åĲ į
åľ º
Ġre ally
ch n
Ġpro per
Ġl ine
ĠThe y
åį ģ
Ġop en
ent ion
Ġm ethod
a im
h ip
Ġp ur
c ur
Ġan other
Ġl aw
ht t
ä» ¶
er y
r on
at t
ar m
Ġp ost
al se
ab el
éĩ ĳ
æŃ ¤
Ġo per
he re
Ġin formation
ĠT r
Ġt ype
Ġs im
ĠH ow
Ġm ight
Ġn on
Ġan al
å¤ ´
e qu
è £
ot t
I d
Ġle vel
Y ou
Ġc a
' re
ar s
è½ ¦
ĠW h
pe c
Ġcont in
al ity
Ġsom ething
m iss
y l
åĲ ĳ
å¼ ı
åĪ ©
Ġha pp
w ays
é¡ ¹
Ġb o
Ñ Ĥ
Ġb us
è´ ¨
N ame
b l
Ġst and
Ġs l
Ġ es
èĢ ģ
Ġne ver
Ġd irect
é ĵ
m l
T ype
riv ate
è¢ «
åı ¸
id es
Ġas k
åİ Ł
åį ķ
Ġpro te
Ð ¸
ot e
os s
are nt
âĢ ¦
å¤ Ħ
or n
ĠS h
on se
Ġs ince
end s
Ġt urn
Ġb est
ĠĠĠĠĠĠĠĠ Ġ
Ġ= =
ain s
é ©
Ġel se
Ġf ew
çī ¹
ion al
ir c
Ġc are
it al
åı £
ack age
Ġse em
Ġper form
Ġs k
ä» £
è§ Ħ
re am
le ft
I D
è Ļ
Ġall ow
( \
L et
at ely
ç» Ļ
Ġl o
é ¦
å¥ ¹
ç ¦
Ġl ittle
iv es
ĠA meric
u le
Ġd em
u ff
Ġm ark
Ġar g
a ult
e xt
id ence
ãĢ ĭ
ab ility
åĽ ŀ
åŁ º
ot s
ãĢ Ĭ
C om
ar n
} $
v es
Ġpl ace
å¯ ¼
Ġg roup
ab ly
æ »
ch ool
e e
re turn
le ase
Ġp ut
Ġp ower
Ġinte rest
éľ Ģ
æ° ĳ
Ġg ot
p art
am b
è® ©
i vers
en e
Ġde v
Ġne xt
as k
å¸ Ī
ur al
çĶ ±
i or
olog y
Ġcom e
ç¾ İ
Ġf inal
èī ²
Ġ[ @
ä» »
åı ĺ
it her
Ġv is
æ± Ĥ
ar ge
H e
Ġcon d
math b
å° ĳ
Ġh um
) :
R E
æł ĩ
u red
Ġh ome
ã ĥ
in ation
Ġb r
b s
le x
é »
æ £
d ef
ĠD e
c o
ĠI s
Ġ Z
Ġth ings
æĬ Ĭ
åħ ĥ
ition s
Ġa ff
st and
c he
å¼ º
Ġcur rent
S E
d s
Ġw om
Ġf ile
Ġo ld
R es
pl oy
Ġgo ver
è¯ Ŀ
äº ¤
æį ®
 âĢĿ
æľ ¯
å· ²
èĢ ĥ
ĠC l
iv ity
w are
b ers
ĠĠ ĠĊ
cc ess
\ 
if y
Ġbe h
Ġin c
L ist
åĲ Ħ
æľ į
Ġ X
Ġcomm un
ert ain
çľ Ł
et a
iv ed
Ġre ce
Ġle ft
Ġv oid
i um
éĹ ¨
çº ¿
r al
gr am
Ġl im
Ġt em
f ace
I C
Ġto p
L E
ro p
æĮ ĩ
Ġad v
åĪ «
um p
av a
Ġ !
v ious
ent ly
ress ion
Ġfollow ing
æī ĵ
ph a
Ġf ield
th is
Ġl ess
act er
¥ ¿
ord ing
Ġvar i
it ive
çĽ ´
os ed
eng th
æµ ģ
le g
Ġe lect
Ġbet ter
Ġwith in
å ŀ
et er
Ġm ult
Ġqu e
le ction
Ġbel ie
è§ ģ
T o
å½ ¢
ĠS o
in ing
uth or
is ed
åħ¬ åı¸
T r
u ck
ess age
Ġle g
ç» Ħ
Ġmon th
du ct
æ ®
Ġu nt
Ġtr ue
y m
rib ut
Ġme an
Ġe as
c ol
éĢ ī
è ¥¿
Ġl ight
ap s
d a
Ġ ide
Ġm ov
con t
et y
ĠW hat
Ġfe el
Ġ ve
åĽ Ľ
op y
Ġs ing
å°± æĺ¯
æĢ »
é£ İ
a it
ĠC on
A s
çĹ ħ
ur y
ä¸ ľ
ç¡ ®
ur ther
Ġgiv en
ĠN o
s erv
æ² »
Ġbu ild
å Ħ
Ġre t
Ġo cc
us h
Ã Ĳ
Ġan t
ï¼ ģ
æĬ Ģ
) {
res ent
at s
r ation
ateg ory
ar i
æĶ ¶
Ġh ard
pp ed
æĶ ¾
n et
ent ial
ro ll
Ġex ample
Ġth ought
] 
å® Į
ar get
w ork
Ġcont rol
C T
Ġal ways
p re
Ġa ut
ĠâĢ Ķ
Ġb ig
ç§ ĳ
æ º
Ġch ang
Ġgover n
Ġb ook
ç« ĭ
ä¹ ł
Ġstud y
d ata
Ġv iew
ra w
ĠA pp
æ¯ ı
æł ¼
è¿Ľ è¡Į
ere nce
Ġinv est
V al
Ġte chn
Ġob ject
' d
Ġex pect
A S
b ack
æĶ ¿
Ġmod el
} {
Ġke ep
Ġdid n
ĠE x
å¥ ³
è Į
A nd
Ġpro f
ver t
ul ation
Ġcl aim
ĉĉ ĉĉ
math cal
l ing
ir d
åħ Ī
' ve
Ġb ro
us ed
Ġinclud ing
pl ay
Ġs w
un t
å¦Ĥ æŀľ
m od
åĦ ¿
è¿Ļ ä¸ª
Ġ ident
Ġre st
åħ ·
vers ion
end ing
cl ass
Ġf our
ç» Ł
Ġpro b
Ġs imp
æŁ ¥
$ 
Ġch ange
o pe
ĠI nd
åĨ į
ä¹ ¦
Ġst at
ĠF r
Ġg ive
Ġdet erm
Ġapp lic
er ing
æ¸ ħ
Ġprodu ct
Ġm en
com m
æ³ ¨
p or
Ġme as
éĻ ¢
Ġ Î
w h
ater ial
re en
re qu
in a
in c
B ut
l ish
Ġm ot
e y
$ .
Ġd r
Ð ½
oc ument
æī į
c rib
ç± »
åĽ ¾
Ġp rivate
å Ļ
Ġa way
å® ¹
Ġimport ant
è¯ ¥
ä¸ ĩ
çĻ ½
æĬ ¥
end ed
H E
ust om
f o
A r
åı Ĺ
re g
Ġc ap
Ñ ģ
Ġst ruct
Ġg row
ĠP h
) )
Ġo pp
ac he
å ²
åĨ µ
' ll
Ġrec ord
ç Ĭ
æķ Ī
Ġp ay
un g
A n
Ġresult s
C l
ind ow
Ġp op
m y
Ġf ail
al pha
Ġs it
åı Ī
Ġb as
s w
è¿ Ĳ
Ġadd ition
ĠA ll
Ã ¡
çº §
Ġcall ed
Ġbus iness
å± ±
Ġpat ients
ĠP l
] .
- -
iv id
t en
ĠSt ring
Ġf ree
Ġo pt
è ±
ail able
Ġsu re
Ġf ri
em ber
è¯ ģ
p ackage
æĮ ģ
ĠTh at
f e
Ġre ason
å¤ ĩ
read y
Ġg ame
Ġw ater
Ġle ast
or g
åĮ »
è° ĥ
I f
il ar
Ġcle ar
a ction
Ġhe alth
Ġunt il
è® ¤
ĠĠĠĠĠĠĠĠ Ċ
g o
Ġd ays
Ġsign ific
Ġh ist
ra p
Ġha ving
ĠO n
Ġb ased
åħ ī
Ġwe ek
ç¥ ŀ
Ġd en
Ġproble m
èĬ Ĥ
è ħ
æĢ İ
Ñ Ģ
è İ
Ġc al
u ro
Ġt ell
O U
Ġl ow
Ġn ull
ä» ·
one y
ac es
ĠĠĠĠĠĠĠĠĠĠĠĠĠĠĠĠĠĠĠĠĠĠĠĠĠĠĠĠĠĠĠĠ ĠĠĠĠĠĠĠĠĠĠĠĠĠĠĠĠĠĠĠĠĠĠĠĠĠĠĠĠĠĠĠĠ
le te
ĠR e
Ġp ot
Ġp a
æĿ ¡
n ew
ä¼ ł
un c
l er
Ġquest ion
an ces
s el
I S
ç½ ĳ
æ¡ Ī
E D
Ġl arge
Ġpartic ular
Ġt reat
Ã ³
Ġre du
éĹ® é¢ĺ
å Ķ
Ġf ar
Ġcomm on
t est
Ġwh y
è¾ ĥ
Ã Ń
id d
Ġl ot
Ġab ove
Ġwhe ther
Ġ< /
å¸ ¦
ff ic
Ġe y
Ġs ide
é Ł
Ġposs ible
if t
Ġth ing
åĩ ł
å® ĥ
Ġres pect
ĠT o
Ġoff ic
( \\
Ġfam ily
re l
C R
Ġor gan
s y
è® ®
st ring
Ġ )
çĪ ±
ar ing
åĲ ĥ
æĹ¶ éĹ´
è£ ħ
m m
r ist
Ġcons ider
Ġs ize
Ġ* *
n ect
Ġab le
ä»ĸ ä»¬
ç®¡ çĲĨ
æĸ ½
Ġloc al
Ġd er
ic le
æµ ·
A M
Ġst atic
é ¥
ir on
åı ·
F or
åĻ ¨
Ġf ull
åĩ Ĩ
æł ¹
Ġpl an
u ild
ill ion
å½ ±
ç ħ
b o
Ġch o
ou th
æĸ Ļ
ç¤ ¾
ic ense
ac y
Ġc ost
o or
æĢ Ŀ
ç ĭ
Ġst re
en n
b ject
is ter
our t
W h
ĠB l
ain ing
åķ Ĩ
ä¸ ĵ
al f
è® °
d ate
Ġl ater
ĠS p
^ {
åĬ ŀ
r r
Ġth ough
Ð¾ Ð
ĠC ol
Ġal ready
f er
Ġke y
m p
èĩ ³
Ġm ove
b ar
Ġs ays
äº Ķ
ĠHow ever
ç® Ĺ
åı ĸ
èĬ ±
it or
Ġw ar
a pe
ra in
I ON
Ġh old
c er
ver al
Ġpro ject
è½ ¬
Ġe ither
ys is
e b
ke y
Ġne ar
Ġh ig
é£ Ł
( '
Ġ >
Ġn et
Ġs um
åŀ ĭ
åĢ Ļ
Ġunder stand
æ ¼
Ġen ough
Ġt yp
Ġk ind
a ut
our s
i od
D ata
Ġc ame
Ġb ody
ific ation
ĠW hen
s ide
æ ¢
ard s
ĠU S
clud e
å¤ ª
ä½ ķ
Ġor ig
Ġm ain
åŃ Ĺ
åį Ĺ
oc ial
Ġs chool
Ġpro gram
u ed
Ġt imes
Ġsignific ant
Ġd one
Ġre se
æĪ ĺ
Ġl ove
ct or
éĢ ł
as ter
in ter
htt p
Ġd iv
is on
is k
Ġal ong
Ġtr y
å¿ «
aj or
æģ ¯
Ġav ailable
i en
it le
Ġto ld
Ġpro m
id th
Ġsu gg
l u
Ġm om
æķ ´
Ġsugg est
A C
m ost
ç© º
Ġto t
è´ ¹
ä¸ ĸ
C ont
oh n
pl ic
Ġv ol
Ġli k
Ġp ath
Ġin it
C ategory
Ġen g
Ġhum an
è¯ Ń
Ġev idence
æŃ ¥
C ol
Ġchild ren
a i
Ġc ertain
ĠA t
æĥħ åĨµ
Ġte am
Ġc ode
Ġl og
Ġkn own
Ġme ans
è¯ Ĩ
Ġdes crib
éľĢ è¦ģ
iv ing
Ġj ud
ut il
Ġcour se
Ġgovern ment
ĠO r
Ġw rit
ç² ¾
è¾ ¾
Ġob t
ak en
or th
Ġsh ort
Ġimp ro
p ublic
com p
y le
ĠS c
d iv
å¤ į
ut es
èĤ ²
pl es
Ġinv ol
Ġsu per
ä¸Ń åĽ½
å® Ŀ
eg in
t ime
éĿ ŀ
p i
le y
åı į
L L
er al
is ing
Ġm ag
Ġm us
Ġt alk
um n
Ġa ction
le v
l abel
lo ad
ç½ ®
ĉ Ċ
em pt
) $
Ġb it
Ġche ck
æ ¨
Ġprov ide
Ġchar acter
l og
Ġg en
Ġev ent
un e
ivid ual
ri es
åŁ İ
ne y
ç¤ º
è§ ī
ç± ³
ur s
ç ı
ict ion
or ies
åıĳ å±ķ
c ode
å ĥ
Ġs ent
re m
Ġsing le
åĬ Ł
Ġf ore
Ġbe g
è® º
Ġem ploy
Ġb en
Ġn ight
Ġapp ear
Ġass oci
am ma
ag er
m at
æĶ ¹
s ub
n o
ç¦ »
A P
Ġ %
ore d
Ġr ad
ess ion
og raph
Ġor g
and s
Ġdes ign
åı¯ èĥ½
Ġse veral
Ġm ar
ivers ity
ic ro
ic y
th ough
he ad
itt ed
R O
Ġto ok
è¿ ĳ
ĠR es
Ġerr or
c le
i que
Ġp ress
con om
Ġro om
çİ ¯
Ġrep resent
orm al
æ£ Ģ
um e
Ġof ten
Ġm il
amb da
Ġpol it
res p
ĠC al
åĪ Ļ
S h
Ġm aking
im al
Ġex ist
åħ ±
Ġv i
f rom
Ġsu ccess
Ġd ue
Ġd ou
op t
Ġen erg
Ġp ort
è¯ ķ
åĮ ħ
âĢ ī
è¯ ·
æĢİ ä¹Ī
D E
e ction
åŃ¦ çĶŁ
er c
Ġind ic
op er
è§ Ĥ
m it
v ar
id s
Ġacc ess
w ith
en ed
çľ ¼
æĶ ¯
æł ¡
ĠSt ate
el ta
s ize
Ġ{ \\
æ ĳ
Ġare a
æĪ ¿
am ent
ĠC ourt
Ġon ce
Ġe ver
ĠM ar
Ġw ent
ä¾ ¿
O n
m on
Ġm aterial
Ġ ver
Ġwork ing
r t
miss ion
è¡ Ģ
ang u
con st
se c
par am
i ver
åŃ ĺ
Ġgener al
Ġsim ilar
èĲ ¥
ĠUn ited
åĽł ä¸º
V iew
r ict
Ġus er
Ġcre ate
å£ °
Ġdoes n
ç´ ł
æĹ¶ åĢĻ
val ue
Ġp ast
Ġf urther
åŃ ©
éª Į
Ġj ob
Ġcom b
U n
A l
Ġs al
ep end
ay er
ip le
Ġa ir
Ġp ract
å¿ ħ
b egin
H ow
å¢ ŀ
y t
l ished
ä¹ ī
Ġd ri
ol ution
Ġm ajor
èį ¯
è¾ ¹
Ġacc ount
cri pt
Ġc irc
Ġsp ace
Ġtri al
Ġpos ition
éĺ ²
ro id
f ile
h ing
Ġb i
n al
ä¼ ģ
Ġ- -
Ġse en
Ġst ring
s um
Ex ception
åĮ Ĺ
Ġind ividual
Ġrequ est
Ġab s
get her
Ġto gether
Ġst ep
æ¶ Ī
Ġ! =
åĨ Ľ
Ġdo ing
Ġm oney
Ġf ace
Ġf alse
åı Ĥ
Ġ id
ĠL e
ro du
n ow
èµ °
u f
Ġserv ice
Ġan n
Ġp ri
Ġcomp any
ä¸ Ķ
c hed
cl us
çĸ Ĺ
Ã ¶
O T
y stem
ang le
Ġup on
Ġdisc uss
Ġm ind
Ġob serv
Ġre view
v iron
Ġs at
n a
m u
éļ ¾
åĨ ³
ç ª
Ġme et
è§ Ĩ
Ġspec ific
os p
çī ĩ
ut ure
è´ £
e al
Ġt re
Ġen c
éĽ Ĩ
Ġcell s
Ġstr ong
S et
ab les
i ans
Val ue
Ġa uthor
åĥ ı
N o
Ġph ot
ig ure
åĢ ¼
IN G
æĪ ·
Ġf ac
ag ed
Ġte xt
æŀ Ħ
Ġbre ak
Ġrequ ired
åĲ Ĺ
Ġbec ome
im ent
Ġh ouse
æº Ĳ
o ff
ĠA d
a f
Ġph ys
The re
çĥ Ń
E T
ib ility
} (
Ġper iod
Ġwom en
ĠThe se
Ġm or
A pp
ww w
Ġex c
çİ ĭ
é¢ Ĩ
Ġm iss
éħ į
Ġiss ue
Ġt arget
Ġc ou
ĠâĢ ĺ
åħ »
re ct
æ Ĵ
ĠG od
ĠĠĠĠĠĠĠĠĠĠĠĠĠĠĠĠ ĠĠĠĠĠĠĠ
u ation
Ġask ed
Ġdef end
Ġsub ject
æĬ ¤
Ġpar am
çł Ķ
å¹ ²
el t
çŃ Ķ
è ı
Ġmark et
ĠSt ates
olog ical
æ ħ
Ġh tt
æĮ ī
Ġcount ry
cre t
Ġy et
Ġ `
å¼ ķ
å¼ ł
ail s
ĠB e
Ġother s
Ġc rit
l a
u it
ĠĠĠĠĠĠĠĠ ĠĠĠĠ
cri ption
ä¼ģ ä¸ļ
Ġac ross
Ġp red
ig ma
at ures
ens ion
éĢ Ł
èģ Ķ
ri ed
p le
Ġenerg y
çİ ĩ
t d
Ġact ually
Ġhow ever
G et
as ing
our ces
it ch
h ib
Ġc ustom
at ors
og n
é¡¹ çĽ®
mathb b
Ġam ong
Ġpre vious
ort un
åĳ ¨
m ber
Ġr ange
r s
æ· ±
Ġim age
ç« ł
Ġre pl
Ġyou ng
I s
on es
Ġresp onse
çĬ ¶
éĻ ¤
åĪ Ľ
ĠAmeric an
Ġval ues
Ġh y
æĿ ĥ
Ġass ert
s q
Ġne g
æŀ Ĳ
å§ ĭ
Ġt w
P ar
i j
ä» Ĭ
Ġam ount
\\ ]
æ ļ
Ġany thing
æĬ ķ
Î ±
Ġear ly
S o
pp ing
æĺ ĵ
O bject
it er
l ist
n ces
ç§ ¯
ide o
çķ Į
lect ed
æĸ Ń
åį ³
ib r
Ġm akes
u x
A D
Ġexper ience
ä½¿ çĶ¨
ir l
t ies
éĻ Ĳ
ill ed
I G
Ġm ass
Ġso ft
ç» Ĩ
Ġne cess
ĠM ay
Ġ\\ [
ĠSe e
b ut
è¿Ļ æł·
um ber
ud e
Ġl and
ul es
ä¹ Ĳ
ĠCh rist
Ġnot hing
Ġlook ing
Ġrequ ire
Ġadd ress
éŁ ³
å¹ ¿
ĠJ ohn
c d
çŁ¥ éģĵ
on y
èģ Į
b t
Ġcomp let
a ff
ĠC o
upp ose
åŃ¦ ä¹ł
Ġc ases
ä¸į æĺ¯
Ġterm s
ĠM y
rr or
Ġr ather
Ġtot al
ver age
at us
æīĢ ä»¥
Ġcan not
æİ ¨
æŀ ģ
çģ «
 \\
rou ps
p ath
Ġto ward
use package
Ġanal ysis
Ġag re
ĠE ng
Ġf und
re w
Ġth row
Ġwho le
ur ation
Ġc oun
æ® µ
viron ment
B y
Ġrel ations
Ġs ens
Ġcon c
é ¾
Ġmat ter
Ġst ory
pp er
g en
ĠC ar
è ¨
Ġp ick
éĢ Ĥ
Ġ version
èĪ ¬
ç ¿
åİ ĭ
éĢļ è¿ĩ
ç« Ļ
ä¾ Ľ
æĬĢ æľ¯
Ġspec ial
ĠA N
im ate
Ġs ocial
Ġcomp ut
P h
Ġre d
ra ft
Ġinclud e
ound s
æ¸ ¸
Ġf oc
I m
Ġr ate
Ġc ut
Ġde al
çĶŁ æ´»
. _
Ġl arg
Ġtr ying
i ke
in f
I nt
Ġs ource
ä½ İ
çº ¢
re c
Ġc reat
è¿ ŀ
è± ¡
ist ic
Ġb ring
T est
ir t
Ġf ood
è¿ĺ æĺ¯
ob al
al igned
at ter
ĠG r
g round
Ġc amp
æĢ ģ
å ¨
ord er
åĨ Ļ
Ġbelie ve
åı °
éĺ Ł
ip s
on ent
S e
ĠL icense
Ġth ird
æİ Ĵ
Ġde ath
Ġget ting
ac ed
ir m
angu age
Ġb ar
Ġmonth s
or ld
ĠO ne
é© ¬
g a
å± ŀ
ĠW ith
Ġper cent
et ers
ic ult
th at
med i
Ġmom ent
æ» ¡
ĠB r
Ġpr im
Ġe conom
Ġt able
ä½ ı
ç ¢
å¢ ĥ
è¯ ¾
ä¿ ®
o ber
ä¼ ĺ
Ġd om
Âł Âł
æ¨ ¡
çħ §
Ġcont ent
ä¸» è¦ģ
E n
Ġt aken
Ġto day
èĭ ±
Ġtreat ment
in it
ĠI N
åĳ ½
erv ice
ce ed
Ġw on
Ġb ase
am a
o ad
Ġh alf
åĳ Ĭ
åĪ Ĵ
b ody
Ġprov ided
å® ¢
Ġmin utes
A B
Ġben ef
éĩ ĩ
æķ ħ
ç Į
Ġex am
og le
T hat
op h
æİ §
Ġinvest ig
Ġs ite
æ´» åĬ¨
Ġsh own
Ġal most
ol l
g ment
ac hed
è¶ Ĭ
Ġhig her
çİ° åľ¨
le ments
åĬ ©
æľ Ľ
Ġest ab
ph i
em s
ä½Ĩ æĺ¯
il t
Ġp arent
Ġp ub
Ġdevelop ment
åĵ į
iv al
åı ĭ
ĠUn iversity
å ¡
Ġf uture
ĠR ep
Ġin j
Ġf ive
A ll
sp an
Ġcl ose
çº ¦
) \\
Ġc ity
Ġt ax
ru g
. )
æ ¥
Ġg round
p m
rib ution
} 
èĩ ´
å¤ ±
å·² ç»ı
Ġw alk
ĠP r
Ġfr ont
Ï Ħ
Ġproper ty
Ġbel ow
w ord
æµ ĭ
ort s
ĠĠĠĠĠĠĠĠ ĠĠĠĠĠ
ie f
æľį åĬ¡
Ð »
Ġle arn
z e
Ġim m
åĲ ¬
uro pe
Ġm ax
Ġbl ack
au gh
Ġprote ct
er o
Ġmem bers
è¨ Ģ
Ġact iv
ru ction
çĻ ¾
er a
av or
Ġtr ad
h old
Ġide a
Ġa ge
in ary
Ġcl os
ic a
åŃ© åŃĲ
å®ī åħ¨
ful ly
å ĭ
it ing
l im
aint iff
st it
P E
W ith
Ġvi ol
d o
Ġresp ons
ç» Ń
id ing
åį İ
tern al
M od
ch an
ĠThe n
Ġ= >
å± Ģ
op s
ĠC an
Ġrese arch
Ġse par
u ly
Ġ ur
â Ī
Ġan sw
y ear
Ġse ction
Ġstart ed
A G
Ġsome one
Ġhe art
Ġu nd
il i
Ġent ire
æµ İ
rib ute
æĺ ¾
Ġpr int
ç© ¶
o res
ç» ´
in o
O ver
Ġwor ks
åį ´
åħ ĭ
åĵ ª
Ġey es
l ight
ç¬¬ ä¸Ģ
ĠT e
st ate
o ke
C H
g ress
in clude
c hes
itt ing
sel ves
æ Ĳ
Ġwant ed
ri x
i res
ç§ °
> <
çľ ģ
I M
I L
å¸ ĥ
à ¸
è¦ģ æ±Ĥ
g ed
ĠA ss
Ġb ad
r ide
Ġchang es
Ġbeg in
. '
Ġpot ential
ĠY ork
min ist
Ġm illion
Ġc ult
Ġexp ress
se e
EN T
è¶ ³
åĪ Ĺ
se qu
Ġacc ording
Ġcon nect
Ġwor ds
æľ ª
g l
Ġpoint s
I I
ad a
ç¤¾ ä¼ļ
ht ml
Ġreg ard
Ġw in
æĿ Ĳ
èĮ ĥ
] ;
b all
å¾ ·
Ġcom pl
Ġf all
Ġhist ory
F ile
R e
T ext
tr ans
en ing
i et
æ¬ ¾
Ġl ower
Ġh om
Ġd am
h o
ne ction
W hen
U T
itt en
åĽ ¢
Î ¿
Ġhim self
æ ¹
Ġse x
Ġatt ack
b it
is c
an ks
Ġp age
b ook
ag ing
ab or
Ġqu ick
l ambda
Ġr isk
Ġd ig
ag ement
ĠH is
Ġhe ld
I nd
å¤ Ł
ä¸Ģ èĪ¬
\\ [
Com p
Ġl ive
ç¼ ĸ
at ory
O M
Ġse ason
Ġcommun ity
Ã ¥
un ch
Ġsa w
Ġadd ed
æĸ ¯
è® ¸
ĠO F
Ġdis e
ar row
N ot
P l
éĺ ³
ix ed
Ġshow s
ri pt
åĲ §
ç³» ç»Ł
Ġlik ely
Ġd est
ä¸į èĥ½
ĠN ot
åĪ ĩ
Ġn at
e ed
is es
éĻ ħ
U R
Ġse qu
pec ially
ill s
åı Į
å ©
E rror
Ġs us
oc al
åİ Ĩ
Ġpri or
im um
end er
N A
Ġneed s
Ġpre t
Ġevery thing
é¦ ĸ
Ġac cept
S he
Ġdiff icult
æŃ »
æĿ ĳ
è¶ ħ
Ġcom es
Ġprob ably
äº ²
çŁ ³
r c
ol s
ĠA fter
ĠM r
l t
ov ed
å± Ĥ
ĠC ent
å ł
åĪĨ æŀĲ
f ect
Ġreport ed
Ġbeh ind
Ġj ava
Ġs ix
Ġcond itions
Ġc ause
æ± Ł
c y
Ġg roups
ĠB y
Ġro le
Ġ q
Ġf un
ĠM an
} _
ä¸Ģ äºĽ
K ey
and om
pr int
åĸ ľ
éļ ı
Ġor d
Ġlim it
Ġbl ood
æ ĵ
w as
Ġd at
Ġh ours
il es
Ġseem s
Ġsimp le
å¾ Ģ
æī ¾
Ġ} 
è¯ »
Ġwor d
å· ŀ
Âł Ċ
ĠP ar
Ġvar ious
æĺ Ł
Ġapplic ation
d es
s k
è¯ Ħ
Ġex ec
A dd
a pt
Ġmult iple
Ġ< <
ad o
è§ Ĵ
l in
æ¸ ©
Q u
Ġappro ach
Ġpro pos
b ed
è½ »
Ġind ust
Ġs il
ĠE n
Ġser ies
Ġe p
Ġneed ed
Ġinst all
èĲ ½
st er
b eta
çĲ ĥ
Ġp o
err or
Ġ ill
Ġmeas ure
f ield
r ite
Â ·
li ke
Ġstand ard
Ġde g
st ance
av ing
Ġassoci ated
æĭ ©
Ġcon duct
art ment
æĤ ¨
é ¸
_ \\
w ise
Ġlook ed
um ents
Ġits elf
ĠI nt
ĠM c
æ²» çĸĹ
ãĢ ĳ
A t
Ġpart y
Ġsur face
ãĢ Ĳ
Ġt aking
Ġc opy
ur ch
æĸ¹ æ³ķ
O L
ĠD o
Ġkn ew
Î ¹
Ġdev ice
Ġch all
å·¥ ç¨ĭ
Ġin put
p oint
mathb f
Ġsystem s
ç» ĩ
resp ond
c her
æķĻ èĤ²
ĠE urope
Ġincre ase
Ġse arch
il ities
åĽ Ń
p ose
Ġp ers
Ġf low
è®¾ è®¡
Ġqu ite
w here
æł¹ æį®
ç® Ģ
x x
Ġcont act
éĥ½ æĺ¯
am ed
o ice
Ġinst ead
Ġsh all
æĿ ¿
O S
Ġdec ision
Ġw ait
æŀ Ĺ
Ġfri end
Ġs ense
Ġwe ight
ä¼ ¤
Ġm other
å»º è®¾
Ġbl ock
cur ity
u k
us ing
äº§ åĵģ
Ġserv ices
çı Ń
led ge
Ġrelations hip
us er
h a
Ġperson al
Ġrece ived
è´ Ł
Ġc ross
éĶ Ļ
Ã ĳ
ĠT HE
R equ
e q
od es
Ġf requ
m ap
il s
Ġan g
Ġf ire
oc r
Ġde cl
St ate
Ġp ain
he l
æĭ ī
om et
ens ive
Ġ& &
Ġst ay
é¢ Ħ
ch ie
ove red
è¿Ļ äºĽ
R ef
Ġstruct ure
Ġorig inal
æ² ¹
è ĳ
m ore
è¿ ľ
g es
å° Ķ
Ġexpect ed
å£ «
row n
Ġcomp lex
ĠC ount
ou d
M y
ar r
Ġdo or
åħ ħ
Ġg irl
s igma
Ġd ire
Ġcon fig
ç»ı æµİ
Ġeas y
ä¸ ¥
ide red
} }
ap ter
åħ Ń
math rm
m et
ĠC ont
ĠS te
æĹ ©
Ġcomp et
O r
åĳ ¢
Ġatt empt
iz ing
éĢī æĭ©
éĻ ©
Ġl ink
U S
m itted
æ¬ ¢
ly ing
Ġd ie
ä¸Ģ å®ļ
r am
l or
an a
Ġh ope
Ġn ormal
Ġl oss
F F
éĶ Ģ
Ġlevel s
Ð º
il on
ç¬ ĳ
Ġ ?
htt ps
Ġpa per
Ġcont ract
Ġcol l
li ed
Ġ{ #
Ġ: =
ä¾ ĭ
Ġc y
éĿ Ĵ
Ġsimp ly
åľ Ł
Ġfil m
s u
Ġj o
åħ ļ
Ġh ost
O P
Ġen vironment
Ġwh ite
Ġins ide
Ġiss ues
Ã ¼
un k
c ome
b ox
Ġact ivity
ann el
ay out
çĶŁ äº§
é» Ħ
in n
Ġcons idered
us es
T ime
éħ Ĵ
idd le
Ġp ie
å¾ ĭ
å¾ ®
Ġout put
Ġstud ies
åº ķ
Ġlo ad
Ġtem per
Ġcond ition
åĽ ´
Ġm aint
Ġnet work
Ġme chan
ç» Ī
ĠP res
Ġpartic ip
ĠÂ §
Ġex act
Ġcal cul
Ġbeh av
å»º è®®
ä¾ Ŀ
es e
Ġm essage
æĪĸ èĢħ
i ation
Ġperform ance
Ġdescrib ed
ag s
ild e
Ġl anguage
Ġcon text
Ġcol or
sq rt
i i
Ġsol ution
' :
Ġag o
Ġwr ong
çĶ ·
C C
ĠCom p
Ġst d
Ġeffect s
M an
åĩº çİ°
j oy
ĠA ct
ener al
Ġf oot
åį ĩ
Ġw ond
Ġout side
ĠP ol
Ġcor rect
Ġis n
n u
c ing
ĠC or
Ġdis play
Ġrec ogn
ĠG e
Ġocc ur
ag n
Ġst ates
g ing
d om
per ty
f l
Ġs on
ĠG o
æ¯Ķ è¾ĥ
å¸ ®
ä¿¡ æģ¯
Ġv ideo
j ust
Ġwas n
ĠP at
Ġp le
) (
al es
ic ation
Ġconc ern
è¿ °
an ced
Ġtr ack
Ġind ex
p ri
Ġrun ning
ĠB o
D es
åº Ĺ
Ġproble ms
å® ¤
ä¹ °
Ġst op
Ġw indow
Ġst e
ol ve
b ig
Ġf ather
ä» ½
æł ¸
Ġwom an
ĠQ u
Ġinte gr
Con fig
Ġes pecially
åĩ »
åķ Ĭ
epend ent
ro s
c ast
åĨ ľ
Ġcom ing
um b
å½± åĵį
h aps
Ñ ĥ
Ġl ength
Ġf elt
ĠM ed
Ġstud ents
ä¸Ģ ç§į
Ġc red
ec ause
m ar
Ġpos itive
Ġed uc
åĽ½ å®¶
Ġh ot
Ġfact ors
ad es
Ġmus ic
Ġnew s
Ġmed ia
ä¹Ł æĺ¯
ribut ed
å ĺ
Ġs ound
Ġd ocument
Ġright s
ĠD r
Ġhtt p
g amma
å¼Ģ å§ĭ
Ġcor respond
Ġmot ion
v oid
it es
å§ Ķ
Ġ ess
Ġturn ed
Ġaff ect
åħ¶ ä»ĸ
Ġqu ality
Ġwe bs
Ġhand s
çļ ®
st ant
ep s
ç Ĩ
Ġwr ite
Ġint rodu
In fo
Î ½
e ks
ĠG u
Ġdem on
åį Ĭ
Ġso on
ĠE d
Ġinclud ed
Ġe lement
Ġv ia
m ary
Ġw atch
ç»Ħ ç»ĩ
ĠC ity
Ġfor ward
ĠM ore
Ġlong er
Ġd ate
Ġev al
æī ¿
Ġexp ression
Ġa chie
ver se
Ġquest ions
Ġc e
c ount
s l
T R
P ath
is f
åĲĮ æĹ¶
Ġd rug
t able
ro om
ä¸Ģ ä¸ĭ
Ø §
ill i
Ġcont r
Ġdef ault
Ġcon v
Ġrel ated
è¿Ļ ç§į
l ength
ĠD ep
Ġm icro
èĥ½ åĬĽ
Ġcre ated
in ks
é¾ Ļ
Ġimpro ve
ind ex
å¾Ī å¤ļ
ed eral
æĸ¹ éĿ¢
m en
æ³¨ æĦı
Ġaddition al
Ġpol icy
Ġ er
å· ®
Ġpolit ical
I R
çłĶ ç©¶
Ġp ack
b re
æ ¿
ĠJ an
ĠD ef
d is
Ġle ave
E M
éĩį è¦ģ
Ġcomp ared
äºº åĳĺ
ens ity
F ield
ut ions
D e
Ġc ard
ast ic
åĲ ¦
i qu
Ġqu ant
Ġbe gan
Ġpol ice
åħ «
Ġany one
å° ½
Ġb ound
Requ est
C L
è· Ł
f unction
li er
Ġcons ist
ĠĠĠĠ ĠĠĊ
M ap
o o
Ġfact or
B l
Ġdef ined
åį ı
Ġst ri
b or
re t
Ġon line
ä¸į åĲĮ
Ġset t
é» ĳ
Ġoffic ial
Ġnecess ary
y ou
t op
å¸Ĥ åľº
Ġass um
ott om
ell ing
Con text
Ġdefend ant
' )
ist ance
yn am
p en
Ġfe atures
åĪ Ŀ
è Ĩ
Ġw all
èİ ·
åºĶ è¯¥
åģ ¥
éĴ ±
pl it
l ig
en ces
ĠM e
it ary
Ġreg ion
ition al
Ġcomp an
ra v
Ġ| |
Ġsoft ware
Ġfor mer
N ew
b ased
Ġrec ent
ĠA m
Ġs le
Ġp an
Ġcons um
é Ń
d own
os is
id ge
Ġs low
ĠĠĠĠĠĠĠĠ ĠĠ
ole an
p ace
Ġex cept
è´ ¢
Ġbuild ing
åº ·
Ġg ave
Ġsh are
z y
p o
Ġprov ides
k en
Ġfor ce
Â °
Ġde ep
Ġwrit ing
Ġansw er
é¡ »
ĠA b
mb ol
å¦ Ī
O f
Ġopp ortun
æŃ ¢
Ġtri ed
Ġwr itten
Ġl os
åĬ ¿
Ġbec ame
ro te
Ġre v
part ial
çĶ ²
Ġh or
Ġl ost
Ġcontin ue
Ġimp lement
Ġfri ends
Ġinf lu
æ¯ į
Ġproduct s
Ġm ap
ĠĠĠĠĠĠĠĠ ĠĠĠĠĠĠ
Ġspe ct
Ġhe ard
Ġpret ty
Î µ
as c
Cl ass
Ġf ight
Ġincre ased
Ġcomp lete
ere nces
Ġd ark
æ£Ģ æŁ¥
Ġoff er
ĠP art
åı ³
Ġa ud
Ġsign al
Ġhe av
ä¼ Ĺ
pl ate
Ġt ou
åŁ ¹
ĠN ational
x i
Ġthem selves
Ġrem ain
Ġinit ial
åħ į
ĠI m
Ġdemon str
an ch
Ġdiffere nce
L e
Ġinst ance
åı ¤
ä¸į è¦ģ
com es
Ġf avor
Ġev ents
Ġl ate
çĽ Ĭ
åı ²
Ġdou ble
Ġb ur
æį ¢
å® ³
c m
I P
rou ght
Ġth us
I V
æĻ ¯
ĠJ ust
Ġm ach
av es
Ġper fect
Ġb ed
ib er
le ge
S S
Ġad minist
in ally
Ġp ict
åİ ¿
Ġval id
) /
E qu
Ġg ames
Ġdise ase
éĵ ¶
æ¿ Ģ
p y
the ta
Ġpre vent
åĳ ³
T H
d elta
Ġl iving
Ġthere fore
ĠB rit
ma x
Ġs n
ĠO R
g y
Ġl ines
ĠW ar
äº ī
æ ¤
ic i
Ġcomm and
r im
ĠC he
at al
è Ľ
Ġm is
æ¼ Ķ
åį ¡
Ġdet ect
Ġp ull
è¿ĺ æľī
Ġstr ateg
Over ride
D ef
ar ily
å¯ Ĩ
èµ· æĿ¥
å· ¦
Ġd raw
Ġshow ed
ok en
çĽ ĳ
Ġen joy
Ġevery one
çĹ ĩ
è¿ĩ ç¨ĭ
Ġmethod s
Ġinvol ved
Tr ue
air s
Ġs qu
Ġvis it
O D
Ġprodu ction
ag ue
con fig
Ġgrow th
w idth
å¤§ å®¶
uc le
Ġd u
f s
oc ation
ome ga
çķ Ļ
Ġr at
Ġd im
a ul
Ġim medi
Ġt en
åħ ´
Ġre ve
Ġpr inc
Ġoff ice
k n
m ing
d en
ash ing
ĠD es
Ġse curity
Ġnat ural
ar ray
Ġb ox
ä» ħ
iv il
st ruct
åĿ ĩ
on al
Ġs em
ind ing
os ition
Ġh on
Ġ$ (
h ood
a ur
çĶ »
ang er
åį «
l am
res h
æ ¦
ĠG erm
T able
Ġ );
Ġs am
Ġobt ained
A d
ä¸ĸ çķĮ
at ively
åįķ ä½į
Ġacc om
S ervice
âĪ Ĵ
Ġcle an
g u
Ġst ra
Ġ ;
F r
Ġde ad
Ġfl u
Ġpat tern
è ŀ
ĠN ow
s m
he t
ĠS ystem
u ary
çİ¯ å¢ĥ
st e
æĿ İ
Ġal leg
Ġobserv ed
Ġt itle
Ġo ption
Ġs ort
ĠW orld
æ² ³
Ġro ad
ĠS ome
Ġf ul
ĠP e
Ġv ict
é ²
It em
Ġsc he
E d
ĠE l
éĥ¨ åĪĨ
o e
æŁ Ĳ
as ons
Ġch arg
Ġre le
åį ĥ
è¡ ¥
Ġ- >
Ġb ir
Ġt akes
ä¸ ĥ
è¾ ĵ
t imes
é ¼
åĬ ³
Ġcl in
f il
ĠV al
Ġm ention
Ġl es
Ġp et
çĹ Ľ
åĨħ å®¹
çļĦ è¯Ŀ
on ents
l ink
éĤ£ ä¹Ī
ĠĠĠĠ ĠĊ
Ġsc reen
ĠP er
_ .
Ġimp act
Ġre comm
å¿ µ
d ocument
é£ ŀ
Ġmem ber
Ġst yle
Ġf ast
Ġbe aut
F rom
cc ording
ri ef
ĠR uss
Ġfin anc
Ġav oid
Ġresp ond
Ġd riv
ass ert
Ġpress ure
Ã §
è® ²
n ers
à ¤
Ġwe eks
æĸ¹ å¼ı
Ġl ack
Ġsay ing
cul ate
u el
Ġwh ose
Ġmod els
t au
ä¸į ä¼ļ
p onse
Ġg e
ous ly
ffic ient
\\ _
ap an
Ġm atch
s ing
u ge
èī º
x y
a ign
Ġn ature
ĠPres ident
ĠAmeric a
Ð ²
Ġsu ff
ĠN orth
Ġpr ice
é¦ Ļ
Ġco ver
Ġspe ak
Ġtra ining
Ġet c
ĠIn tern
Ġde cre
äº ¬
Ġve h
Ġeng ine
a e
L O
Ġop in
Ġ ir
éĿŀ å¸¸
Ġa w
E nt
Ġpre c
äº ĳ
Ġ( -
pr il
ç ĵ
att le
Ġse lect
çª ģ
ic les
èĦ ĳ
Ġass ess
O ne
åº ľ
Ġar ray
èī ¯
x im
åħ³ ç³»
ĠD av
Ġw ays
ĠR eg
ä»¥ åıĬ
å± ħ
Ġen s
Ġknow ledge
Ġaut om
ers ion
ĠTr ump
åĲ «
ch o
Ġa verage
Ġc ry
Ġcon cent
is ions
éĻ Ħ
æıĲ é«ĺ
Ġext ra
åı ¥
Ġphys ical
åıĳ çĶŁ
ĠS m
r ho
Ġg as
oc ks
Ã ¨
The y
Ġmy self
ill ing
ear ch
ç¾ ¤
Ã³ n
çī Ī
Ġtyp es
åĩ ı
Ġre lease
ar ning
åº ı
Ġf re
ĠR ev
} ^
åĸ Ħ
C E
S c
or age
Ġh it
Ġdirect ly
Ġpre p
B e
i us
Ġpat ient
çŃ ĸ
Ġdep end
è Ĵ
Ġperform ed
ĠA dd
Ġpl aintiff
Ġus ually
Ġare as
æĹ ı
B uild
ĠB ar
äºº æ°ĳ
Ġsat isf
Ġn ames
E vent
Ġn ational
Ġto wn
it ation
ru pt
Ġconst ant
Ġ\\ \\
å½ ķ
ibr ary
Ġb all
ĠIn c
ell ow
ell ant
éĻ į
O ut
Ġim pl
ch ange
Ġwebs ite
Ġart icle
è´¨ éĩı
Ġreg ular
ic on
Ġproper ties
Ġpop ulation
Ġstate ment
Ġs old
a ctions
d ro
Ġ row
ĠA ug
ĠM in
Ġhe ar
å¤Ħ çĲĨ
Ġpres ident
com ing
çĦ¶ åĲİ
il le
p ite
ĠI S
è° ¢
Ġr ound
al ed
Ġcont ain
ĠG et
[ '
Ġtra vel
ĠA g
Ġprof ess
Ġser ious
éĢ ģ
è® Ń
Ġdist rict
Ġplay ers
at form
ĠS outh
ĠH ar
Ġpro ced
M essage
åŁ Ł
f ra
åĩº æĿ¥
Ġcol umn
oci ety
Ġstat us
/ *
Ġc and
Ġjud gment
Ġgl obal
Ġbu y
Ġinclud es
$ -
st art
ew ork
å¾ ħ
unt u
ĠH ere
ĠCount y
n s
ĠA ust
Ġapp eal
N ode
m ark
ul ated
åĿ ļ
f ort
æķĻ åŃ¦
å Ĥ
ä½ľ çĶ¨
d b
èĻ ½
ent y
or ks
ĠM arch
ĠO ct
Ġb rought
ä¹ Ŀ
le q
\ )
Ġde b
çĤ İ
Ġe lements
Ġab ility
ãģ ®
Ġv ot
Ġeffect ive
Ġdist ribution
Ġmor ning
L og
ä½ľ ä¸º
å¯¹ äºİ
id ay
E X
v is
ult s
Ġcontin u
und red
S ize
z a
Ġ il
wh ich
al t
åĲ ¸
Ġnot e
Ġcompan ies
ĠS ch
æ¶ ²
S er
ĠWh ile
ist ics
h y
ines e
æıĲ ä¾Ľ
è¯ į
ĠD ist
Ar ray
åĪ ļ
C ode
Ġincre asing
Ġand roid
ĠH er
un n
Ġcom ment
Ã £
æİ§ åĪ¶
Ġmed ical
åıĳ çİ°
c all
Ġpur ch
ac hes
ç» Ŀ
her n
åı ¦
Ġconst it
F orm
p ol
h am
inf ty
ä¸ĵ ä¸ļ
D o
ä» ĭ
ĠL ist
our nal
Ġh ar
Ġsur pr
d ev
æĬķ èµĦ
iss ion
ĠS er
u i
it ude
ar ies
ĠO ur
ab ase
ç´ §
ach ing
M L
æĺ ¥
Ġread ing
Ġspe ed
Ġt er
ail ed
Ġh ref
Ð ¼
eg a
åĮ» éĻ¢
Ġpred ict
å¿ Ĺ
b uild
h and
Ġindust ry
E L
Ġal one
Ġf a
clus ion
æĭ ħ
Ġatt ention
i os
bo ard
ç¦ ı
Ġbas is
Ġf ine
åı «
ä¸Ģ æł·
çİ ©
å¤ «
at ives
å¯ Į
æīĢ æľī
U p
Ġdet ails
Ġarg ument
Ġr ule
j o
Ï ģ
Ġwe b
ä¹ĭ åĲİ
Ġinter n
Ġf em
Ġr andom
Ġca pt
Ġfail ed
ul ations
ress ed
b f
Ġm ut
çĭ ¬
ac ing
Ġw rote
èĢĮ ä¸Ķ
Ġd ro
if ul
Ġsom et
çĪ ¶
Ġcont roll
Ġo il
b and
pos ition
Ġl at
Ġest im
ight s
Ġus ers
Ġst ore
Ġmem ory
ĠS u
ĠL a
ef ore
Ġwork ed
Ġn il
æŃ ¦
Ġpract ice
å¼ Ĥ
èĤ ¡
F ig
èĥ½ å¤Ł
Ġtemper ature
ap i
çł ´
f unc
ĠA P
ou l
Ï ĥ
ograph y
Ġbro ad
ĠH ouse
Ġs we
å¸ Į
p x
Ġl ed
é º
Ġgr ad
Ġsit uation
Ġsur v
Ġder iv
Ġcou ple
Ġfl o
pt y
Ġcent er
Ġthe ory
osp ital
Ġfollow ed
Ġnot ice
Ġcan cer
it ter
æĤ £
ä» ĺ
Ġ_ _
ul a
g n
æľ ĭ
U LL
ĠTh us
Ñ ı
Ġpub lished
ĠJ une
Ġim ag
ch i
Ġcomp ar
og en
Ġlim ited
Ġ ri
æĴ Ń
Ġb ank
Ġtechn ology
Ġlook s
in ate
ĠD em
iv en
çŃĶ æ¡Ī
Ġrem ember
R ead
å® ĺ
çģ µ
us ion
Ġref er
è¯ ī
l ation
ic o
åĪ »
Ġwor th
åŃ¦ æł¡
åŁº æľ¬
ur t
Ġfil es
Ġdire ction
çī Į
Ġfollow s
Ġdef in
Ġrec ently
ond on
å² ģ
pt ember
æĪ ı
ĠCh ar
æĵ į
åĨ ·
re et
o on
Ġal though
om s
Ġleg al
li ent
[ @
Ġpart s
è§Ħ å®ļ
Ġth reat
Ġpresent ed
d f
ç¿ »
M S
åĶ ®
ail y
æŁ ĵ
Ġpres ence
ĠO b
æĢ ¥
Ind ex
e es
g roup
è´ Ń
ĠS uppose
æľ ¨
Ġgreat er
Ġc am
Ġclaim s
ç« ¯
æĸĩ åĮĸ
lic k
Ġgiv es
Ġre pe
Ġser ver
ä¸¤ ä¸ª
Ġobt ain
ĠA pril
Ġun it
èı ľ
id a
Ġallow ed
Ġpur pose
j s
P L
ä¼ ¼
éĵ ģ
Ã£ o
ve y
Ġv oice
Ġparticular ly
ĠG eneral
ç¬¬ äºĮ
Ï Ģ
Ġbu ilt
ĠCom m
Ġc ook
Ġfunction s
æķ° æį®
ri al
r is
ç» §
ĠĠĠĠĠĠĠĠ ĠĠĠĠĊ
Ġsa f
uff er
Ġb al
æĻ ®
ens es
Ġf air
Ġnum bers
Ġdec ided
Ġref erence
ac her
Ġp lease
il ed
or ing
Ġb and
ĠW est
æī §
Ġ vers
ab led
Ġon es
Ġfe ed
= '
ĠJ uly
Ġopt ions
Ġph one
C al
Ġrespect ively
Ġ â
t ilde
ĠJ apan
Ġexper iment
æĭ ¬
Ġcould n
Ġ Ã©
b on
Ġn ode
ent al
ĠF irst
Ġd og
ä¸º äºĨ
au ght
Ð ´
Ġv an
Ġpro p
Ġdevelop ed
z z
Ġdeterm ine
Ġstre ng
g or
in ated
cre ate
ub e
Ġparam eters
N ow
Ġgo es
U N
Ġc atch
Ġa p
æľĭ åıĭ
Ġdri ve
ren ch
e ff
n on
ä¸Ń å¿ĥ
Ġgr ant
å¿ħ é¡»
Ġm ount
oc ol
Ġar r
Ġim ages
b ase
ob ile
ĠĠĠĠĠĠĠĠĠĠĠĠĠĠĠĠ ĠĠĠĠĠĠĠĠĠĠĠ
ac c
Ġse c
Ġbo ard
Ġtrans fer
æł ĳ
_ _
om en
çŁ¥ è¯Ĩ
U L
ur ance
éħ ¸
å® ¡
ĠM on
enc ies
C A
ac ement
æħ ¢
ol es
Ġan im
Ġfoc us
P S
ur b
in fo
te red
ist ry
b ib
Ġcomplet ely
Ġfin ally
pre t
Res ponse
Ġh undred
pl ace
Ġquick ly
ce mber
æĢ Ģ
Ġf it
ç ¯
Ġt im
Ġst ar
Ġcamp aign
Ġro ll
t es
æĻ ļ
p an
ĠI d
Ġst ru
Ġloc ation
Ġcomm it
èĭ ¥
Ġdeterm ined
Ġear lier
å¦Ĥ ä½ķ
Ġappro pri
k a
éķ ĩ
A fter
Ġar ch
l en
Ġal tern
y ond
H and
k ing
ron ic
Ġrel ig
æłĩ åĩĨ
ir it
ĠS T
Ġread y
Ġcho ice
åĿ Ĳ
é¢ Ŀ
åĿ Ĺ
ib ly
Ġseem ed
æľ Ŀ
Ġcomput er
Ġeas ily
Ġl ay
Ġtr ust
å¯ Ł
æ¯ Ĵ
Ġcl ient
Ġm er
c an
Ġth ous
ĠÃ ł
Ġthink ing
Ġbl og
ä¸į è¿ĩ
èĤ ī
ĠA M
äº ļ
Ġgener ally
Ġph ase
Ġp or
åĽ º
Ġche m
ir ing
kn own
æī ¹
re me
Ġfe et
se mb
å®Į æĪĲ
mod el
ak er
çĽ¸ åħ³
ove mber
Ġchar ge
u ate
Ġsomet imes
S ub
è¿Ľ åħ¥
èµ Ľ
g est
Ġmov ed
Ġm id
åľ° æĸ¹
é Ĩ
Ġcon nection
æ´ Ĺ
] )
Ġdes igned
ES T
ock et
Ġyour self
Ġmean ing
ĠÐ ¿
Ġchang ed
Ġl as
g s
he st
c ore
Ñ Į
ä¸Ģ èµ·
è´ §
ol ic
augh ter
Ġs ong
AN T
Ġexact ly
Ġar riv
Ġar m
Ġcount ries
u nder
Ġst o
ç» ĥ
r an
it em
l ong
Ġprim ary
U ser
Ġst age
è®¾ å¤ĩ
Ġun ique
A b
uf act
åĸľ æ¬¢
æĪĲ ä¸º
Ġl ives
ç½ Ĺ
è· Ŀ
Ġs end
Ġsu it
ust er
er ve
Ġsequ ence
ra el
Ġback ground
D elta
Ġcurrent ly
Ġoper ation
h as
Ġco ol
in put
Ġhapp ened
Ġw ife
Ġapp lied
s pec
l ib
åģ ĩ
æĬ Ĺ
oper ator
AT E
C ount
äº Ĵ
ĠA ng
ac ity
ĠS w
Ġact ual
Ġg un
Ġin n
sc ript
re ate
åħ µ
Ġpol y
åı ¶
Ġ/ *
ic ient
ĠR ed
ĠM ich
Ġfinanc ial
yn c
åĬŁ èĥ½
ter m
ĠN e
ĠE m
Ġant i
Ġg raph
ä» ¤
el le
Ġ ign
ĠS ince
Ġy es
iz es
æ¥ ¼
c ell
tr ue
çŁ Ń
t em
R eg
Ġinterest ing
r angle
Ġs ample
è½ ¯
Ġbe yond
Ġplay ing
anc y
ĠAug ust
ĠJan uary
m ega
Ġe ight
r ad
el ine
rap y
Ġplay er
Ġm ess
èĦ ¸
i ers
et ic
over n
[ ]
èĥ Į
Ġne igh
èĢģ å¸Ī
Ġdi agn
ĠI I
S uppose
ap ache
Ġtoward s
ĠF rom
i as
Ñ ĭ
M A
Ġp en
A ct
sh ip
Ġsignificant ly
Ġpro ceed
app end
Ġinv ention
Ġacc ur
èĻ ĳ
Ġbehav ior
æĿ Ģ
Ġget s
\\ \\
ate ver
èĩª çĦ¶
s im
Ġl ayer
Ġact ive
Ġapp e
ĠS en
B C
ur l
Ġst uff
æĭ ¿
æį Ł
Ġpop ular
st ream
ĠDep artment
ĠF eb
Ġuse ful
Ġman agement
Ġha ir
Ġplay ed
h ow
Tr ans
ward s
ĠAN D
ç§ »
j ava
Ġf ear
c a
n ode
ch ar
Ġrele ased
Ġmay be
Ġp oor
Ġexec ut
if orn
æŃ Į
Ġdist ance
è½ ½
c ase
p at
Ġl iter
ĠM od
å© ļ
vent ion
Ġallow s
Ġparent s
c ap
def ine
gor ith
Ġin form
å¤§ åŃ¦
Ġmil itary
^ \\
l ate
ĠEng lish
Man ager
è´£ ä»»
at o
ar a
è ĸ
es tern
as te
for ce
am ework
Ġf ra
act ory
åģ ľ
Ġlarg er
F alse
a el
lev ant
ĠR ec
Ġrece ive
Ġh ab
r un
åŃĺ åľ¨
ĠN one
Ġmeet ing
Ġapp ly
Ġgiv ing
Ġcar ry
åıª æĺ¯
qu ad
Ġconst ruct
Ġg one
æ ½
Ġcost s
æĸ½ å·¥
æŃ£ ç¡®
æĦ ¿
çľĭ åĪ°
a is
Ġdeg ree
Ġpro gress
ashing ton
le vel
ES S
Ġst aff
at ur
Ġch ance
Ġsle ep
upp ort
éĴ Ł
çĽ ĺ
ä¸ ¾
Ġh yp
Mod el
Ġp sy
Ġb rain
r ate
ve re
Ġcon cept
ç¨ İ
Ġqu al
Ġse cret
Ġlead ing
çĽ´ æİ¥
Ġprote in
ä»¥ ä¸Ĭ
Ġem erg
a res
åħ¶ ä¸Ń
åħ· æľī
c il
ä¹ Ļ
ĠM ark
Ġwond er
Ġpass ed
Par am
Ġn ucle
Ġdem and
ç £
çķ ¥
Ġanal y
å¥ ĩ
åıª æľī
or ney
iforn ia
che ck
Ġt ask
ĠJ ud
ĠH ol
åĮħ æĭ¬
U t
æľī éĻĲ
Ġper haps
Ġac qu
f ord
ĠĠĠĠĠĠ ĠĊ
ang ed
 '
Ġus es
å¾ ģ
n es
et t
Ġtr uth
Ġgo al
çĶ± äºİ
Ġem ail
ĠCh ina
æ± ī
ä¸ ´
ĠSe ptember
Ġspec ies
éĥ¨ éĹ¨
Ġr ules
H T
Ġob vious
Ġbook s
é¡ º
Ġopin ion
Ġm ode
ĠOct ober
Y es
oun ced
Ġf igure
iz er
ĠK ing
Ġmov ing
S P
Ġm ur
Ġex erc
os ure
ä¹ İ
Ġro ot
ĠÃ Ĳ
ĠRep ublic
Ġit em
ç¡ Ģ
Ġhigh ly
pect ed
Ġre asons
om b
Ġdist ributed
ro y
indow s
å¤ ľ
A tt
Ġr ates
cur rent
çº ³
Ġdiv ided
ĠA fr
n um
k y
te e
Ġup date
è§ī å¾Ĺ
Ġt our
åŁº ç¡Ģ
Ġpre fer
Ġnear ly
i ate
ä¹ ħ
æĻ º
Ġchall eng
f low
åĨ ²
Ġfe ature
è° ģ
ĠG l
ä¸Ģ çĤ¹
ç¼ º
Ġit ems
åº §
Ġd ynam
Ġpart ies
Ġhapp en
en ge
Ġdev ices
Ġhe at
ä½ Ļ
or ge
Ġn or
èĻ½ çĦ¶
Ġ ut
ru ary
Ġtalk ing
åĲĪ åĲĮ
Ġhapp y
Ġlead ers
é ±
ä¸ª äºº
b ur
Ġinter view
Ġle arning
ç» ľ
Ġclear ly
åİŁ åĽł
if ier
Ġexper ien
ç² ī
Ġro t
Ġf ederal
Ġful ly
( $
st ances
i Ã³n
Ġin du
Ġcand id
Ġopportun ity
pt r
R ec
åį °
Ġb oy
æĿĲ æĸĻ
O W
ĠC ong
lo at
Ġwould n
O mega
( -
Ġpropos ed
p id
Ġreturn ed
Ġgr and
A ss
ex p
S C
çŃ ĳ
Ġa im
E m
st d
ï¼ İ
ĠS y
Ġind ependent
A A
äºĨ è§£
res ult
in ct
Ġv irt
I F
st atic
ĠB ro
Im age
. .
G roup
e ah
è¾ ĳ
Ġabs ol
O h
Ġsl ight
if ying
ä¹ĭ éĹ´
å· ´
al le
è¡ £
m t
Ġent er
Ġcl osed
çº ª
Ġm iddle
Ġbir th
Ġhe ight
Ġpr ime
Ġrequ ires
a id
ul ate
Ġequ al
é± ¼
st yle
im age
éģ ¿
èį ī
âĢ ¢
P s
Ġimmedi ately
o oth
Ġfil ed
Ġcirc um
Ġlet ter
ĠC ons
Ġsa ve
ot ion
æ¦ Ĥ
p ost
C he
T ER
è Ĺ
col or
Ġeduc ation
ĠM us
ĠTr ans
Ġstra ight
Ġappro xim
Ġg reen
ĠDe cember
U M
Ġag ree
ic an
ĠE ven
ĠN ovember
ç»ĵ æŀĦ
Ġagre ement
Ġh op
åŃ ķ
R ep
ĠP M
Ġw ide
ab s
ĠL ondon
åĽł æŃ¤
e ch
ig en
Ġn ice
Ġcont ains
d im
æľĢ åĲİ
é ½
æ³ ¢
ĠĠĠĠĠĠĠĠĠĠĠĠĠĠĠĠĠĠĠĠĠĠĠĠĠĠĠĠĠĠĠĠ ĠĠĠĠĠĠĠĠĠĠĠĠĠĠĠĠ
D ate
ĠO f
Ġfind ing
Ġpa id
Ġthrough out
Ġeconom ic
è ĵ
ing er
w ell
St ream
æīĭ æľº
Ġstart ing
Ġcho ose
Ù Ħ
ot o
om a
Ġcol lect
ĠD on
ĠD et
æĺ¯ åĲ¦
èĭ ¦
Ġcent ral
çł ģ
ĠBrit ish
op en
éĿ Ļ
é¥ ®
ĠIs rael
Ġfl oor
Ġca used
net ic
Res ult
Ġt al
Ġtou ch
Ġmod ern
Ġke pt
ish ing
Ġ Ñģ
Ġpro t
w ide
Ġsub stant
æĽ ¾
Ġp riv
ic ip
Ġestab lish
ob ject
il ing
Ġl abel
Ġac id
C lient
P R
ic ed
Ġsc ale
N ull
b um
Ġadv ant
Ġa part
Ġmult i
Ġclin ical
Ġf ixed
Ġneg ative
od ing
Ġsh ot
Ġbeaut iful
Ġhe aring
ĠP ark
Ġm ole
Ġestab lished
Ġv ir
Ġh our
ĠS an
æĶ¿ åºľ
ĠT w
i ance
ou ble
Ġprodu ced
r ant
ĠAl though
arg in
ĠY our
h ost
ĠAr t
Ġw idth
Ġsu fficient
Ġb ottom
Ġother wise
åī §
Ġm i
Ġcap ital
Ġre ach
Ġcontin ued
Ġre str
n y
et urn
act ive
Ġbas ic
ĠS chool
Ġunderstand ing
Ġs un
Ġbegin ning
if ically
ad y
ä¸ľ è¥¿
i pe
çĽ® æłĩ
E lement
Ġbro ther
cd ot
se ction
ĠW illi
ç ĩ
Ġman ufact
èĭ ı
ar ter
ĠThere fore
rel ated
A Y
Ġderiv ative
V ER
Ġ ]
å° Ħ
C K
ĠC ON
éĢ Ģ
Ġappear s
con s
Ġ util
Ġas pect
Ġres id
Ġc ivil
Ġd a
Ġs i
w rite
æĭ Ľ
in y
M ethod
p arent
Ġt um
Ġsk in
d ed
è Ń
éĺ ¿
Ġident ified
è®¡ åĪĴ
è´Ł è´£
éģ ĩ
Ġa ware
Ï Ĥ
Ġ/ >
å® Ī
ĠDist rict
è¿Ļ éĩĮ
æĽ ²
Ġset ting
Ġsc ient
app ing
Ġfail ure
å¸Į æľĽ
Ġmove ment
Ġt rou
al ing
ad em
Ġk ids
Ġst ated
c os
Ġ+ =
ĠW ashington
ĠT H
Ġmach ine
ri er
Ġappropri ate
o ch
Ġpie ce
l s
ĠÐ ²
it ness
ot al
æĿ ¾
ĠCal ifornia
è§£ åĨ³
æ¯ Ľ
å®ŀ çİ°
s he
ĠS ub
Ġsp ent
æľī åħ³
ä¹ ¡
çĶ ³
ĠP al
right arrow
ith ub
Ġbl ue
ĠS im
Ġpl ant
Ġno vel
Ġb rief
Ġon to
ĠAust ral
W ell
ĠĠĠĠĠĠĠĠĠĠĠĠĠĠĠĠĠĠĠĠĠĠĠĠĠĠĠĠĠĠĠĠĠĠĠĠĠĠĠĠĠĠĠĠĠĠĠĠĠĠĠĠĠĠĠĠĠĠĠĠĠĠĠĠ ĠĠĠĠĠĠĠĠĠĠĠĠĠĠĠĠĠĠĠĠĠĠĠĠĠĠĠĠĠĠĠĠĠĠĠĠĠĠĠĠĠĠĠĠĠĠĠĠĠĠĠĠĠĠĠĠĠĠĠĠĠĠĠĠ
Ġhist or
åĸ Ŀ
H ere
âĢ ĺ
Ġcl ick
æĿ¡ ä»¶
Ġprevious ly
Ġsh oot
Ġc it
ot ic
ell a
F A
arg s
C D
eps ilon
wo od
val id
Ġcomp onent
Ġindividual s
Ġc op
ĠP aul
ç²¾ ç¥ŀ
å¹ ¼
Ġp air
Ġd ied
äº ®
ĠSt ud
ĠDav id
Ġloc ated
åģ¥ åº·
ab y
Ġsw itch
t itle
old er
æĮĩ å¯¼
Ġpl aces
Ġredu ced
lic ation
ç» ¿
ent ially
é¢ ĳ
Ġcol lection
ĠF l
ser ver
ĠT est
å¸ Ŀ
Ġnum er
Ġintern ational
Ġ( (
Ġstreng th
Ġfr ame
Ġcorrespond ing
éĽ ¨
In ter
Ġcoun ter
Ġs ell
Ġaut o
gr ams
è¯ ĳ
åĢ Ĵ
in ner
Ġf ix
Ġ( *
éĶ ®
in i
Ġfield s
Pro perty
Ġsepar ate
ock ed
Ġsmall er
j son
Ġup d
Ġk ill
Ġrem ains
Ġey e
Ġh ous
åħ· ä½ĵ
åį ł
Ġsa fe
ra int
ĠIn st
Ġagre ed
d ir
Ġre ached
os ite
ar p
éĺ ´
æĢ ķ
rit er
cont ent
Ġ[ *
ä¸Ģ çĽ´
ĠP ublic
Ġrel ative
Ġse lected
Ġres ources
G amma
ĠI D
at he
å®ŀ éĻħ
Ġrem ove
ph p
Ġbenef its
Ġb ul
Ġparam eter
S p
ĠPh ys
Ġcare er
b b
ç»ĵ æŀľ
Ġsupport ed
å® «
Ġn amed
è¯ ¯
erv ed
Ġin hib
Ġactiv ities
Ġcomp onents
idd en
ç§ĳ åŃ¦
Ġveh icle
Ġen h
é¢Ĩ å¯¼
% )
Ġc ast
ĠM or
a per
ç© ¿
C all
Ġst ream
æĦŁ è§ī
Ġreport s
Ġo k
Ġprodu ce
o very
Ġvict im
th on
å¾Ĺ åĪ°
Ġp ow
èĢĥ èĻĳ
åĪ ¤
Ġmaterial s
æķĪ æŀľ
ic ks
Ġover all
C O
T P
ç¬ Ķ
so ft
ps i
Ġshow ing
om an
ir med
m as
ç¬ ¦
Î ¼
Ġst ation
æ¢ ¦
ĠGo ogle
Ġdis cl
Ġem b
ĉĉ ĉĉĉ
Ġpl atform
Ġed ge
Ġt ree
a a
Ġa x
éĴ Ī
çĶ ļ
ĠC D
Q L
Ġhig hest
Ġto ol
Ġbe comes
Ġst ress
æŃ£ å¸¸
le ctions
å¯¼ èĩ´
act ers
Ġcred it
ĠF urther
p c
ä¸ Ŀ
éĵ¶ è¡Į
ve c
éª ¨
Ġgu ess
Ġad just
Ġfeel ing
f irst
ial og
Ġtrans port
Ġens ure
$ \\
\ :
S D
è®¤ ä¸º
Build er
ĠB ecause
ĠBl ack
Ġd ensity
ĠN et
ĠÐ ½
å¥ Ĺ
F L
è¿ ½
ä¿Ŀ æĬ¤
Ġsol id
èŀ į
Ġf at
p ass
Ġu lt
Ġinst it
ä¸į æĸŃ
c ks
Î ·
i ated
ot hes
ag on
Ġvari able
Ġstep s
ĠDem ocr
st ract
form at
c el
Ġpro of
ell ig
iqu es
S ON
å® £
r id
ĠD is
F igure
æķ £
Ġbo olean
Ġl if
f ont
Ġeff ort
ber g
èĦ ļ
Ġwant s
Ġpl aced
ä½ł ä»¬
ree k
Ġh uge
Ġpl us
Ġcult ure
Ġg old
Ġwh om
è®¡ ç®Ĺ
åł Ĥ
Ġa uth
éĺ ¶
Ġ$ $
pect ive
C ON
Ñ ĩ
çİ ī
ĠF rench
Ġregard ing
is ms
äºĭ æĥħ
ĠCent er
ĠL aw
Ġcertain ly
Ï ħ
T O
Ġcom ments
Ġun s
Ġf ig
ĠFeb ruary
- \\
å¥ ¶
Ġa ctions
Ġw at
éĿ ł
çī¹ åĪ«
ç´ ¢
roll er
Ġd oc
Ġwe ak
sp ace
if orm
ore m
ç¨ ³
ev ent
Ġt iss
Ġapplic ations
Ġdown load
æ¸¸ æĪı
çĨ Ł
ĠT ex
ç½ĳ ç»ľ
Ġex ception
ä»£ è¡¨
Ġp ush
èĽ ĭ
Ġext rem
è¡ Ĺ
Ġcrit ical
os ing
Ġb ool
Wh y
Ġtrans form
operator name
Ġide as
al y
Ġm ist
Ġh arm
Ġs av
clud ed
ç ĺ
ÂłÂł ÂłÂł
Col or
Ġredu ce
Ġsom ew
L ine
ĠF ig
Ġdam age
Ġcoun sel
c s
Ġun f
Ġun a
ĠS et
ĠR E
are st
å®Ŀ å®Ŀ
I O
g ar
Ġp ark
åĪ¶ åº¦
æķĻ å¸Ī
Ġlaw s
Ġpict ure
Ġw ood
Ġch annel
è¯ Ĺ
Ġk illed
opy right
Ġn ation
å¼ķ èµ·
s ource
bl ock
Ġachie ve
Ġdis app
ä¸º ä»Ģä¹Ī
Ġmat rix
im ents
Ġme ant
Ġs en
Ġgl ass
re p
ĠT V
è´ µ
om as
Ġinter nal
Ġ( !
Ġdes cription
Ġro b
D is
Ġmajor ity
C P
ĠH igh
} )
Ġf resh
Ġsit es
S ystem
f ind
d ict
M e
ÃŃ a
éĩĩ çĶ¨
èŃ ¦
Ġdiffere nces
Ġconnect ed
T Y
I B
ĠĠĠĠĠĠĠĠ ĠĊ
ĠE ar
Ġcon vers
Ġprotect ed
u ated
Ġv ill
Ġnot ed
ä¿ ĥ
ow s
as ion
ic it
Ġcom fort
åĲĦ ç§į
è¯ ¢
i pp
ĠC ir
Ġprofess ional
r um
P er
P r
Ġsum mer
Ġgu y
Ġinter face
ĠC oun
ens ions
Ġpre m
Ġd anger
Ġl ab
d et
er ation
c ar
å®¹ æĺĵ
èĮ ¶
Ġse ven
b in
ist ory
å½ ©
Ġex ists
il ies
åº Ĭ
Ġcont ribut
Ġw ind
Ġw ild
åŃ £
f ree
åħ °
æĵį ä½ľ
St atus
d at
æ¯ ķ
Ġre levant
z en
Ġd ut
Ġpick ed
Ġcustom ers
ç« Ł
ĠWh ite
åī ¯
Ġcor por
Ġw ish
Ġh us
âĢī Ċ
ĠCong ress
ĠJ ames
Ġconst ruction
wh ile
ĠEurope an
Ġ ~
Ġvari ety
Ġsh ape
Ġc ert
ĠJ ack
å»º çŃĳ
or ph
Â ±
ĠInd ia
Ġinter pret
Ġh ospital
Ġro ck
ĠO ff
Ġexist ing
g ithub
Ġform s
c hen
= \\
oth ing
d ing
Ġtr ade
Ġlet ters
Ġcon sequ
æİ ī
Ġsus p
H ead
Â »
Ġsaf ety
Ġ eth
Ġm ill
Ġobject s
re ly
Ġj ury
om y
Ġref lect
pt ions
Ġsp read
Ġp ul
or ry
éĩ Ĭ
Ġc ore
Ġhy dro
è¡Į ä¸º
ĠD ata
Ġapp arent
In put
çĻ »
Ġsam ples
n b
ä»· æł¼
çĽ® åīį
ĠA ccording
è¿Ļ ä¹Ī
äº§ çĶŁ
æ¹ ĸ
ĠAl so
åĪ ĺ
æĸ Ĺ
ĠInd ian
éļ ľ
Ġl ib
go ogle
Ġhand le
ann ed
id get
In stance
or row
l n
Ġthrow s
Ġd aily
Ġb ud
Ġra ised
cl es
åº Ń
ãģ Ħ
é© ¶
b m
Ġstud ent
ç» ¼
å½¢ æĪĲ
ĠA tt
Ġs ources
Ġgener ated
ar io
Ġc old
Ã© s
P O
ms g
an o
m es
éĻ Ī
ren ce
Ġt end
h ouse
åĵ Ī
Ġd rop
èº« ä½ĵ
d oc
Ġli qu
æĶ »
U E
çļ ĩ
Ġform ed
om in
Ġar rest
re y
ĠAn y
ä½ł å¥½
ä¸ °
Ġprov iding
ĠS ec
ç§¯ æŀģ
ĠN ULL
ĠO ther
æ ĩ
ĠĠĠĠĠĠĠĠ ĠĠĊ
ĠU p
Ġopen ed
d r
åħ¶ å®ŀ
ou te
Ġdou bt
âĢ Ĳ
Ġco ord
ä¸Ģ æŃ¥
ä¸ļ åĬ¡
çŃ ¾
c or
Ġal gorith
å¸® åĬ©
ar ant
stit ute
el se
as ure
l ast
åİ Ĥ
çī Ľ
é¡ ¾
ur ity
Ġsuccess ful
éĿ ©
è° Ī
Ġr ace
con text
Ġcl ub
v est
Ġcent ury
um an
Ġz ero
èµĦ æºĲ
gr ad
å¤ļ å°ĳ
Ġwh atever
f erence
em ents
Ġchar acters
Ġsal es
os es
S ource
Ġrecomm end
ĠHe alth
Ġd ed
D A
ç¤ ¼
åºĶ çĶ¨
Ġcr im
Ġfact s
Ġhtt ps
ç¡ ¬
Ġdr ink
Ġm al
Ġoff ers
ä¾ §
Ġwork ers
åıĬ æĹ¶
Ġj ur
ol ar
S A
ç ŀ
at ically
] (
p age
Ġh ol
ag o
Ġmax imum
çĿ ¡
Ġflo at
Ġg ene
Ġenc our
Ġc ru
ĉĉ Ċ
ç¯ ĩ
p rivate
Ġbig gest
d i
Ġpl ans
requ est
Ġrem oved
åĪ© çĶ¨
Ex p
Ġline ar
ens or
å¼Ģ å±ķ
d raw
h i
+ \\
ri a
Ġwe ap
n ames
ur rent
ĠS E
ot ed
Ġcall s
åĬ ª
åĩ Ģ
Ġform at
eg er
Ġtra in
Ġth read
Ġvol ume
n ab
Ġbu ff
et te
ĠE very
ĠR ober
åİĨ åı²
le br
åĿ Ģ
c r
Ġent ry
æľī æķĪ
åĪ º
Ġw a
b ra
ot a
Ġinflu ence
Ġun less
Ġpr ison
Ġreason able
Ġfrequ ency
Ġtest ing
è¿Ĳ åĬ¨
åį ļ
ro ph
j e
w orks
Ġleg is
A ction
ä¸ ½
éĴ ¢
è¡¨ çİ°
ĠCom mission
Ġsex ual
Ġn one
r l
z on
Ġf irm
ĠN OT
ĠA nt
ol ved
ĠIn ter
Ġw ave
ä»» ä½ķ
Ġknow s
å¥ ĸ
Ġlat est
Ġsh ift
ict ed
ĠJ ew
K E
in to
ĠM ac
Ġs ociety
Ġpar a
Ġcirc uit
ear s
b i
Ġw arm
el ess
Ġdig ital
ĠC O
m d
ĠSt reet
cl ient
Ġfa ith
ç»§ ç»Ń
Ġsp irit
ĠĠĠĠĠĠĠĠĠĠĠĠĠĠĠĠ Ġ
n ull
æ° ¸
è ľ
Ġl inks
åĬ³ åĬ¨
Ġdef ense
( (
ig ation
ç¾İ åĽ½
å±ŀ äºİ
ç¥ ¨
ĠE X
ä»¥ åĲİ
æİ Į
p u
def ault
lic t
ĠSe ction
æ°´ å¹³
åħ³ äºİ
ed om
ĠB en
Ġo s
Ġsc ore
æľĢ å¥½
l angle
æ· ·
Qu ery
# #
Ġman ner
¤ Ĳ
ord s
ç³ ĸ
Ġb ill
Ġ Ø
od ies
Ġad opt
h is
ĠM ost
Com m
Ġcontr ast
Ġgu ys
j ection
ä¼ ĳ
Ġfind ings
Ġsc ript
Ġth ick
ĠAss oci
und ay
ang ing
Ġsc en
F il
Ġm it
Ġd oll
c ular
Ġto ols
æŀ ¶
à ¦
Ġbenef it
Ġfor ces
Ġfore ign
Ġmention ed
Ġcont aining
Ġappe ared
æĹ ħ
Ġinc or
Ġis ol
æ± ½
Ġmov ie
Ġsur round
å¢ŀ åĬł
l ook
Ġport ion
Ġex hib
Ġst ories
en ame
Ġst im
Ġrecord s
Ġn orm
Ġinj ury
åį ĸ
} ;
Â ¾
ĠT O
ç»ı èĲ¥
åĲĮ åŃ¦
l ies
Ġexp and
äº «
Ġm ort
Ġy ield
Ġp hen
IT H
ĠP ost
Ġun its
æ¤ į
Ġc as
Ġmeas ured
Ġgrow ing
Ġstru gg
Ġb orn
Ġsc ience
æĶ¯ æĮģ
ri an
a ud
Ġa ward
Ġtre ated
Ġheav y
Ġc at
Ġdri ver
Ġinterest ed
ip ment
ace book
ad ata
row s
ct ors
s g
æ¥ ļ
Ġe at
OU T
Ġdef ine
æīį èĥ½
go ing
æĦı è§ģ
Ġte acher
Ġp ackage
è·Ŀ ç¦»
æī ĺ
Ġsy nt
ĠD ay
Ġinc ome
Ġpro grams
Ġoffic er
ĠOb ama
it a
Ġcar ried
Ġchall enge
Ġsy n
Ġelect ric
ond ay
init ely
ĠWh y
' ]
Ġser ve
Ġne arest
Ñģ ÑĤ
Ġra ise
ov ing
Ġoff ered
ic ate
Ġsol utions
Ġequ ation
st on
C an
ri age
Ġmet al
n ed
Ġpro ve
Ġcreat ing
æİ ¢
ĠP ress
Ġset s
Ġ( $
åį ±
Ġrat io
ĠE ast
Ġb urn
AT ION
çĽ ĸ
Ġext ends
ust r
Ġst ock
çº ¸
ĠU K
ps ilon
Ð ·
Ġsy m
Ġalleg ed
l ang
us hed
or a
ect or
Ġv s
ä¸ĭ æĿ¥
it ect
qu ery
N S
ug in
åĢ Ł
Ġm o
åĩĨ å¤ĩ
Ġare n
l ocal
ĠF ound
it ory
q l
un it
overn ment
F irst
æľī äºĽ
æĤ£ èĢħ
ign ment
Ġw itness
Ġin sp
åľ Ĩ
Ġbut ton
Ġdefin ition
pro cess
AR T
æ² Ļ
ĠD an
ä»Ĭ å¤©
åħ ¸
Ġcap acity
Ġhy per
b old
B ig
dd en
åĬª åĬĽ
ĠR ich
Ġs ession
ĠE v
æĢĿ æĥ³
Ġann ounced
S im
æĭ į
Ġpro s
åĬł å¼º
ĠO bject
un ity
èĻ ļ
Ġvis ual
w in
Ġpe ace
ar c
Ġpet ition
å¤ ı
Ġequ ival
ri ve
æĿ Ĥ
z er
in te
Ġhold ing
Ġst orage
ãģ «
å¼ Ł
ty p
ill a
Ġorgan ization
a fter
Ġm ix
out put
èĢ ³
Ġwait ing
æĿ¥ è¯´
Ġcrim inal
R A
ĠC ode
æĮ ¥
Ġear th
ĠK e
å° ģ
AN D
m em
ici ency
Ġve ctor
ç ĳ
ĠW ell
çī Ļ
Ġprocess es
ĠH am
é¡ ¶
Ġresult ing
äº§ ä¸ļ
æĥ Ĭ
id ers
ĠJ es
se y
Ġfil ter
am in
Ġcomb ination
Ġl abor
Ġsub sequ
Ġserv ed
ph as
è ¸
Ġw el
Ġre action
pl ing
æ´ ¾
åº ĵ
åĳ ¼
Ġhus band
çģ ¯
r d
ch ild
ÑĢ Ð°
b a
ÃĲ Â
ic ated
Ġf if
åĵ ¥
Ġv ote
le m
è· ĳ
ed s
Ġdes pite
çĿ £
r or
çľŁ çļĦ
Ġs ch
Ġrel atively
Ġrespons ible
Ġa head
Ġp un
ĠS pec
éĢł æĪĲ
ç§ Ģ
Ġvari ables
fra k
v ille
ĠJ er
Ġsc ene
Ðµ Ð½
Ġb illion
ä»¥ ä¸ĭ
P D
Ġcomm erc
éĤ£ ä¸ª
AL L
AM E
ĠBo ard
S I
Ġ( [
r ange
å®Į åħ¨
Ġher self
Ġsh ared
iz ations
os en
R T
Ġexpl ain
æİ ª
Ġoper ations
Ġsu dden
æĸ¹ æ¡Ī
è¡Į ä¸ļ
ĠO h
Ġem pty
Ġlearn ed
b uf
Ġpsy ch
ĠIntern ational
ĠSu per
Ġrad io
S ec
Ġal bum
Ġadminist ration
Ġr ul
æĸ¹ åĲĳ
Ġexpl ained
Ġr out
æ³ķ å¾ĭ
è¡¨ ç¤º
B ase
Ġtest s
P ol
å ³
éĶĢ åĶ®
ĠCl ass
B ox
Ġauth ors
Ġd aughter
ĠR em
Ġcompl aint
Ġfam ilies
end ant
ç¬¬ ä¸ī
on ic
æ² ī
Ġins urance
å½ Ĵ
y a
ĠA c
ĠM art
ub untu
æĹ ¢
Ġdis miss
Ġam az
il os
Ġtrad itional
The n
ing ly
B A
çĸ ¾
Ġreg ist
p ir
ion e
S ee
Ġm outh
ĠChrist ian
Ġ ÏĦ
Ġass ume
ä¹ ±
ĠB ank
Ġcom plic
ĠG reen
Ġproject s
æķ ĳ
Ġold er
Ã ł
å¹ ¸
P A
éĽ ª
Wh ile
ens ure
âĢĿ .
Ġprep ared
èĮĥ åĽ´
p one
æı ¡
å®ŀ æĸ½
Ġdat abase
x e
O ur
ä¸į å¾Ĺ
Ä ĥ
fr ont
é¥ Ń
m essage
N E
Ġr ing
S te
or ter
Ġsee ing
Ġpan el
Ġsh o
ĠR ead
N one
] [
f alse
Ġstrateg y
R I
p ers
Ġthan k
Ġra pid
Ġpower ful
Ġe lection
ĠM al
Ġk it
Ġocc up
é² ľ
Ġun c
E nd
Ġar ms
Ġreturn s
åĮĹ äº¬
and o
Ġass ist
Ġp al
ĠA re
ĠD el
v are
èĦ ±
ent ed
è¯ Ĭ
èİ· å¾Ĺ
re es
Ġmed ium
éĽ ·
IT Y
æľº æŀĦ
ç»¼ åĲĪ
Ġch urch
m o
åĨ Į
semb ly
èĥ ŀ
ä¿Ŀ æĮģ
Ġb ond
Ġdiscuss ion
æĮī çħ§
F T
Ġdriv ing
Ġapp rec
Ġopen ing
m ain
Ġprocess ing
ĠD E
èĳ Ĺ
a uthor
Ġmiss ing
ell ed
math frak
Ġc u
å¹¶ ä¸į
åĽ °
cher s
Ġst ood
Hand ler
ĠM iss
ĠL og
ere nt
D on
ain er
ir ty
ĠO ut
Ġeff orts
çĶļ èĩ³
Ġu pper
çĸ ĳ
Ġcit iz
im ony
Ġha ven
Ã ª
V E
Ġle aving
åĽ½ éĻħ
å® ľ
d ec
Ġexerc ise
am ing
g t
å± ĭ
Ġsp ot
x ml
Ġmot or
Ġsupp osed
g in
Ġsto pped
Ġadvant age
ru it
ph one
Ġr an
am ily
ĠL ord
åıĺ åĮĸ
Che ck
Ġint ended
ne xt
ä½į ç½®
Ġofficial s
å¼Ģ åıĳ
Ġjud ge
Out put
b an
Ġdis s
ç¿» è¯ĳ
Ġjo in
so le
D S
g ener
. [
Ġoper ator
) }
ing u
L ayout
é¸ ¡
Ġcor rel
Ġident ify
Ġemploy ees
å§ Ĳ
ç¼ĸ è¾ĳ
åĲ ¯
Ġs rc
è½ ®
æĹł æ³ķ
and er
ed ia
? '
é ¤Ĳ
Ġopt im
is her
F I
Ġce lebr
Ġsuggest ed
ä»· åĢ¼
Ġent ered
i ant
æĸĩ ä»¶
P oint
å½ĵ çĦ¶
åıª è¦ģ
Ġn ut
æĪĲ åĬŁ
ed y
he nt
ĠA ir
P C
çĸ «
D et
è¶ £
è¯´ æĺİ
Ġslight ly
y r
it led
ĠS am
Ġsh ut
ä»» åĬ¡
ĠTex as
Ġdirect or
But ton
Ġstre et
åĨ °
S H
C t
åį« çĶŁ
Ġmag netic
m ic
atur day
P art
Ġess ential
Ġrepl acement
ĠFr iday
Ġanim als
ĠEng land
pos es
Ġsh ip
l ock
Ġqu ery
åĪ° äºĨ
çĥ §
Ġr ise
èĥ ľ
ues day
um er
f ri
v an
ãĤ ĭ
Ġext ract
C reate
Ġden ied
Â Ń
Ġproced ure
ĠD NA
ĠG roup
å·¦ åı³
ç»ĵ åĲĪ
est s
ĠNew s
åĿ ı
Ġre li
var phi
Ġcircum stances
å® ģ
Ġde bt
Ġag ent
æ¡ ¥
z ed
Cal culate
é¦ Ĩ
as ks
re al
Ġsp end
ĠF OR
Ġreve aled
ab il
Ġg ar
per ties
Ġdiscuss ed
us iness
Ġb order
Ġbel ong
éľ ²
) =
Ch ar
Ġc overed
Ġv ac
ä¿Ŀ è¯ģ
Ã Ĺ
Ġse a
S ome
çĪ ¸
Ġf arm
st all
ç» į
land s
ĠR el
Ġse lection
Ġj e
p ack
on ly
t ra
Ġm aster
Ġc row
Cont ent
Ġdel ay
s f
ic ial
te x
ç» ©
Ġ[ ]
éĻĦ è¿ĳ
h ad
con nect
C o
Ġhapp ens
Ġhelp ed
Ġbre ath
leg al
Ġsu st
ĠÂ ±
åŁİ å¸Ĥ
æĬ ĵ
Ġad apt
å¨ ģ
Ġd ry
Ġb ow
ĠMich ael
Ġint r
Ġdom ain
Ġen em
Ġmin or
Ä ±
Ġrequire ments
N umber
Ġadd ing
Ġcol lege
è¾¾ åĪ°
ak s
Ġsp in
ĠS ervice
olog ies
* 
Ġintrodu ced
ak ed
por ary
å®¢ æĪ·
çĥ Ł
å Ĺ
ant ic
it ors
icro soft
ä¸» ä¹ī
Ġpre par
Ġclass es
ĠGerm an
U D
Ġreg ions
Ġsupp ly
Ġown ers
B ack
ut or
OR T
ger y
act or
Ġexpress ed
Ġm ale
å° ¿
b ug
k g
he m
Ġp aint
Ġm ig
Ġmon itor
Ġhealth y
åī Ĥ
Ġsym pt
é ¹
æ¸ Ĳ
Â ½
è®¾ ç½®
ç®Ģ åįķ
Ġem ot
k t
Ġpol ic
Ġreal ity
List ener
as y
ĠT om
St art
ap ers
ç¼ ĵ
ĠC opyright
Î »
rom e
éĢ ı
os ph
the n
Ġk id
enc ing
èĹ ı
æ´ ģ
Ġcommun ication
f loat
å»º ç«ĭ
æī§ è¡Į
om ic
å¹¼ åĦ¿
c i
Ġf ol
Ġmod ule
ur a
Ġauthor ity
è Ķ
ĠCh urch
Ġeconom y
over line
B ar
æĭ ¥
O ff
od ay
' .
ĠPe ople
ro ad
æĿ ¨
Ġb attle
Ġ ice
Ġspec ifically
å® Ĺ
Ġres ource
Ġm ir
ĠP et
ĠF acebook
k i
Ġthan ks
port s
t arget
ĠAN Y
Ġf ell
se lect
E xt
Ġfem ale
Ġr ank
äº Ī
åĪĨ éĴŁ
æĦı æĢĿ
Ġlarg est
Ġt error
ĠF ile
æ² ¿
Ġb es
Ġmin imum
æı ı
ann ot
Ġl it
il er
Ġprote ction
Ġexc ell
Ġsm ooth
é¡ µ
Ġbr and
Ã¶ r
F actory
Ã ±
j a
n ormal
urs day
Equ als
ĠN ote
Ġinvestig ation
ry pt
k er
Ġaltern ative
Ġproper ly
Ġstand ing
Ġtri p
Ġl en
ĠM ag
Ġj oint
Ġthe rapy
is ation
up reme
] :
Ù ħ
çĶ °
æľĢ å¤§
æĬ ĺ
ut ed
Ġins ert
i very
ac le
éº »
yt es
n ight
vent ional
åģļ å¥½
ç§ĳ æĬĢ
ĠCan ada
ĠO ver
ri p
k in
c irc
ãģ Ĺ
miss ions
AR R
j ud
Ġv el
B S
c f
ist an
ot es
åıĤ åĬł
Ġg ra
Ġliqu id
ud d
E E
ck now
Ġcam era
J ust
u a
ĠĠĠĠĠĠĠĠĠĠĠĠĠĠĠĠ ĠĠĠĠĠĠĠĠĠĠĠĠĠĠĠ
im g
ĠL ou
å¼ ¹
ä¹ĭ åīį
i pl
èĤ ¯
ç« ¥
Ġelect ro
F l
L ambda
æ¶ ¦
ĠP ort
Ġne ut
ar ian
st atus
ind er
Ġch ain
s es
yp es
we b
X X
Ġfin ished
Ġtr ig
Ġp y
Ġan c
Ġmil es
Ġoffic ers
at in
se arch
Ġevent ually
Ġexper t
Ġes c
ribut es
åį ·
åŁ¹ è®Ń
Ġcon vert
vare psilon
H el
åĨ³ å®ļ
et ry
oy al
å° ¼
Ġt ick
Ġneigh bor
ç§ ĭ
ĠB er
v a
Ġsp ring
Ġlead s
v i
C S
éŃ Ķ
ol f
åı¯ æĺ¯
u y
ant ly
pr ime
ĠE ach
éļ Ĳ
Ġtechn iques
Ġatt ract
Ġgener ation
Ġm obile
Ġn orth
Ġtyp ically
C M
ĠSm ith
Ġ{ @
Ġte ams
éĺ µ
Ġthous ands
onal d
Ġapp ellant
h r
ed nes
ĠT wo
ĠCh inese
ç« ŀ
r ical
Ġpl ate
ãģ ¦
h ave
Ġchem ical
Ġcommerc ial
Ġf ans
Ġinst r
ĠS ur
Ġj ump
Ġind eed
ĠGe orge
ensure math
id el
é½ Ĳ
ge q
Ġdet ail
P RO
Ġconsist ent
Ġfl at
ili ar
oss ible
i am
Ð¾Ð ²
é£Ł çī©
Ġp ure
ĠF e
éĹ »
è§ ¦
Ġl ibrary
èµĦ æĸĻ
è ļ
æĪĳ åĽ½
alle l
ab ilities
æıĲ åĩº
ash ion
ang es
ĠS unday
å°ı æĹ¶
ĠM o
Ġu int
Ġ ing
Ġeas ier
I A
Ġ} ;
Ġint ent
Ġrem aining
å» ¶
ç¡® å®ļ
( &
Ġcomp r
s rc
Ġb ra
Ġsent ence
Ġmechan ism
ĠB el
Ġn av
Ġcall ing
èĤ ¤
ĠC am
A re
è¿ĩ åİ»
Ġw id
app a
tt p
Ġv ent
Ent ity
ution al
clud ing
Ġf ill
ur ies
çĶ¨ æĪ·
S pec
æĿ Ł
Ġpur poses
is hes
p g
Ġatt orney
ednes day
AB LE
i pped
çľĭ çľĭ
Ġb aby
Ġrun s
Ġask ing
we ight
Ġoccur red
c oh
åľ° åĮº
ĠComp any
ãģ ¨
T e
Ġextrem ely
á ĥ
éĢ Ĳ
èĭ± æĸĩ
ç»Ĩ èĥŀ
ĠFr anc
ĠA p
æĬ¥ åĳĬ
Ġo x
ĠM ary
Ġsum mary
ä» į
Ġimpro ved
æļ Ĺ
Ġfavor ite
Ġerr ors
åĪ« äºº
Ġfor ced
eth yl
Ġcompar ison
Bl ock
Ġjob s
Ġlead er
v o
Ġspe ech
Ġg ain
Ġequ ipment
ãĥ ¼
ograph ic
P e
åĲĪ ä½ľ
Ġb right
Ġown er
ĠMore over
Ġmeas ures
Ġgreat est
B uffer
Ġcr ime
ack s
ĠD irect
Ġep is
> (
å «
B U
l aw
Ġexist ence
M O
ãĤ Ĵ
Ġt or
Ġview s
ic ations
ĠT ime
L oad
éĽ ¶
Ġcustom er
id o
Ġre b
çĲĨ è®º
G L
Ġbal ance
Ġincre ases
èģ ļ
ell o
éģ Ĺ
ov es
Ġc up
Ġfoot ball
Ġcomb ined
ER T
Ġgirl s
Ã º
Ġapproxim ately
ĠW indows
éĤ£ äºĽ
ft ware
row ser
Ġinter action
èı Į
Ġeff icient
Ġw ire
Ġsk ills
How ever
Ġremain der
un s
ä¼ °
ãģ Ł
éĿ¢ ç§¯
Ġfunction al
Ġform ation
Ġj ournal
ĠJes us
Ġan imal
Ġal t
Ġstud ied
åĿļ æĮģ
u int
en a
Ġcomplet ed
ä» ª
Ġtrans ition
R em
çĥ Ī
ĠAmeric ans
Ġfor th
Ġpr ices
ĠG reat
s or
ak ers
ĠCoun cil
æ· ¡
ĠR ef
è® ¢
ĠFr ance
Ð ¿
ortun ately
Ġt ag
Ġsm art
ç»ı è¿ĩ
ri e
ç©º éĹ´
è¿ Ŀ
ven ue
ĠUS A
ĠS al
Ġapp oint
Ġapplic able
Ġint ellig
o om
Ġ( )
Ġex change
ä¸Ń æĸĩ
Ġtiss ue
ain e
cul es
} =
ber t
Ġp ool
en ced
m ail
ou nce
P T
Q U
æ¯Ķ å¦Ĥ
M ay
m ethod
Ġ vert
cl aim
Ġex ternal
el es
äºº ä»¬
Ġstruct ures
V ersion
sc he
u ations
c are
å¯ Ĵ
Res ource
res ents
sy mbol
Ù Ĩ
å· Ŀ
P age
Ġm ental
ĠM onday
Ġ\\ 
ĠU N
the re
Ġt ro
ä¸Ģ åĪĩ
ĠRes earch
I ST
An y
å¿ Ļ
Ġd ra
Ġman ager
Ġca uses
ĠP lease
ĠĠĠĠĠĠĠĠĠĠĠĠĠĠĠĠ Ċ
Ġpart ners
Ġs outh
Ġte le
g reg
éĩ İ
Ġcons erv
Ġsign ed
ĠH T
' ;
å¦ ĩ
let s
op l
å® ½
Ġredu ction
Ġ( \\
the y
Ġrepe ated
res hold
Ġdrug s
çĬ¶ æĢģ
Ġdescrib e
æģ ¶
éĢŁ åº¦
I ES
ĠO pen
Ġtest imony
ard en
he ight
Ġpl ane
ĠR ob
ç ¦ģ
Ġpurch ase
ĠG old
Ġch air
è®¸ å¤ļ
Ġd ream
Ġmost ly
! [
ç´ ¯
ĠH all
Ġconcent ration
ok es
Ġcon ver
ĠL ike
åħ¬ éĩĮ
T oken
ans ion
Ġprof ile
ste in
Ph i
Ġres istance
ut ely
Ġrest aur
ern el
Ġs ale
Ġl oved
Ġn a
åİ ļ
Ġt on
Ġqu arter
éķ ľ
Ġschool s
è® ¨
ĠUn ion
ĠIn s
Ġsqu are
ot he
è§Ħ åĪĴ
Ġlimit ations
ĠW ITH
k ins
Ġf lex
Ġant ib
Ġgen es
et ime
Ġad vert
) ^
Ġtechn ique
lev ision
Ġl ose
Ġeven ing
comm on
é¥ °
et ch
ĠB re
åıĤ èĢĥ
G o
Ġext ent
Ġconduct ed
ä»ĭ ç»į
D B
Y our
å° ļ
G ener
Ġbe at
Ġnot es
Ġindic ated
d ot
ĠFound ation
in ity
â ĸ
ĠU nder
ĠT ra
å¹¶ ä¸Ķ
Ġoper ating
çĸ ¼
éĺ ħ
æĽ´ å¤ļ
çĹĩ çĬ¶
ĠM at
amp ions
çĶ³ è¯·
R L
out hern
Ġst ick
sp ring
The se
åĪĽ æĸ°
ĠWe b
Ġm ac
L ast
) *
ens ed
Ġr ich
C lick
Ġwatch ing
ĠA lex
Ġse vere
Ġthe rm
Ġc ir
ad ing
O K
ĠY es
ãģ ¯
IN T
å¢ Ļ
sy stem
Ġre cept
Ġp ages
it able
Ġt ight
Ġplan ning
Ġc os
ĠÐ ¸
Ġarg uments
ens ional
Ġconfig uration
Ġb ag
ĠM any
Ġdist inct
nab la
P ost
å ´
Ġg od
Ġdest roy
ĠM et
Ġindic ate
v ari
ĠFr ank
w s
Ġo m
Ġtre nd
ĠC H
Ġc aught
Ġk ing
it o
Ġbud get
Ġst ars
ç§ Ł
) ?
Ġrelig ious
æİª æĸ½
um in
Ġs itting
ĠG ood
Ġgener ate
ĠP re
Ġphot o
Ġcar bon
ĠâĢ ¦
j u
Ġtr uly
æ¬ §
èį £
Ġf illed
? âĢĿ
ĠT able
åģ ¿
sh ow
è¿ İ
æ¯ı ä¸ª
Ġd ress
æķ ¢
Ġl ived
ul f
è± Ĩ
as p
Ġtra ffic
S U
Ġev olution
al ax
Ġlo op
ç½ ª
Ġfor g
ne ver
Ġrecord ed
Ġres olution
con f
Ġcor ner
åĵģ çīĮ
ott en
Ġqu iet
Ġstat ute
Î º
ĠL ong
x f
Ġbro ken
ãģ §
ĠĠĠĠĠĠĠĠ ĠĠĠĊ
Ġag ency
cre te
å· ¨
O b
anc ing
ru ctions
Ġdef initely
Ġext ension
ĠF lor
d ist
æ±½ è½¦
er ia
f aces
Ġadv ice
åľ° åĿĢ
Ġwalk ed
Ġhel ps
Ġfr ag
Â Ĥ
ĠM il
åį Ī
Ġno ise
Ġv it
$ $
Ġj our
Ġrel ief
Ġsecond s
èį¯ çī©
stand ing
Ġbelie ved
Ġident ity
è´ ´
d ep
æ± ł
ĠS upreme
å¼ ±
Ġdep th
ĠC r
ex ec
åī ĳ
iver se
het ic
åĳĺ å·¥
ä¸į ä»ħ
ĠA D
ĠWh ich
st ood
Ġl uck
Ġo dd
Ġend ed
a o
Ġwill ing
Equ al
ol a
f inal
ĠG en
n am
use um
N et
å± ı
èĵ Ŀ
éĩį çĤ¹
ĠC irc
Ġhe ll
åº Ĩ
Ġexcell ent
Ġpro sec
æĢ ª
Ġinterest s
ĠCal culate
pro ject
Ġch ief
Ġrel ation
ĠB oth
Ġman if
ĠF igure
Ġswe et
Ġaffect ed
Ġhold s
Ġwor se
Ġf av
ut o
Ar g
AS S
Ġarriv ed
Ġjur is
Ġtw enty
Î ¯
ĠB ook
Ġman aged
V is
Ġcharg ed
F C
on na
Ġfre edom
åŃ Ķ
åıį åºĶ
ĠPart y
Ġl icense
O C
Ġl ie
ä¼ ´
s a
Ġ ^
Ġmaint ain
å¦Ĥ æŃ¤
åĪ Ģ
ĠO nce
Ġam b
serv ice
ĠPl aintiff
er ate
Ġob lig
æĶ¿ çŃĸ
Ġexam ples
Ġp our
Ġgu ard
æıĲ åįĩ
Ġconf irmed
åĶ Ĳ
ä¸¥ éĩį
Ġchang ing
OU N
Ġdisc overed
å¾ Ħ
ĠTe chn
ĠW ill
G B
Ġs in
é¢ ľ
ãģ ª
èĥ ĥ
Ġun iform
Ġb inding
end if
cre en
æ¹ ¿
omet ry
çĹħ æĥħ
Col umn
Ġmin ute
åģ ı
ĠM ad
éģ¿ åħį
ĠW il
M at
l ife
imp le
AG E
Ġs ides
ä½ Ľ
y an
Ġb atter
è´¹ çĶ¨
app ed
Ġgu arant
cc ount
in et
ific ations
lement ary
Ġfund ament
Ġparticip ants
d t
Ġinvest ment
fr ame
ist or
m ake
éĩĮ éĿ¢
D ev
w hen
Def ault
t ings
Ġel im
ĠJapan ese
Ġposs ibility
ĠM em
g ers
æĥ ¯
ri ent
Ġdel iver
å®ŀ éªĮ
D R
ot ype
ĠT ype
P P
ĠÂ «
ol t
Ġn ic
ĠÐ ¾
ed ge
çĲĨ è§£
èĪ ª
ag ram
æ± ĩ
ç§ ĺ
ĠB ur
Ġabs or
ag ger
nb sp
M ore
l ayout
Ġc art
ic ious
ĠQ ue
Ġentire ly
è´ ¦
Ġdec isions
Ġth r
Ġl atter
å®ī è£ħ
ĠS aturday
as hed
Ġco ff
A meric
M ode
ĠF orm
Ġrep resents
ic ians
et es
ĠSe cond
ot ing
Ġconcent r
en u
Ġfour th
ä¸į åı¯
= \
G R
è¡Į æĶ¿
Ġopt ical
ĠRober t
Ġcons c
Ġne ither
é¦ĸ åħĪ
ĠThe ir
éĻ Ĩ
L A
Ġcont ained
Ġb oot
ĠH ill
Ġkeep ing
å¦Ī å¦Ī
Ġdut y
Ġp as
ĠS erv
G e
ĠS uch
ro g
ĠF in
k appa
éĺ »
Ġab use
ĠP C
Ġimport ance
M et
te en
Ġsuggest s
äº ¿
ann els
Ã ¦
Ġpull ed
os h
f ast
Ġmag n
cle ar
T em
Ġrec all
ĠAn n
hen s
ĠV er
Ġin ner
åıª èĥ½
æİ Ī
Ġcrit ic
p et
Ġord ers
Ġord ered
ĠH el
w ar
im er
ER R
ĠI ll
å½¢ å¼ı
æĦı è¯Ĩ
åĩł ä¸ª
Ġun ivers
clus ive
Ġim plic
Ġf an
Ġf ish
æĶ¶ åħ¥
ev en
æ¡ £
Ġn om
æľŁ éĹ´
Ġarch itect
ĠI T
Ġposs ibly
Ġc ab
Ġm es
oc ity
Ġcalcul ated
Ġalgorith m
ÑĤ Ð¾
and a
Ġsubject s
çĬ ¯
d iction
du le
éľĢ æ±Ĥ
å¡ «
Ġinte ger
velop ment
Cont roller
are n
ç»ı éªĮ
ad s
ĠW estern
av en
ld ots
Ġdevelop ing
Ġallow ing
Ġm ine
Ġc ra
ĠT uesday
IN D
ä¸į åĪ°
æĪĲ æľ¬
ĠA T
Ġcr is
Ġcon clusion
èĪ ŀ
Up date
Ġle aves
ĠF ree
æ° §
O per
Ġs ounds
Ã¡ s
ç¨ĭ åºı
ort hern
Ġviol ence
os c
Ġrese ar
bre ak
è´ ¥
çĶµ è¯Ŀ
F unction
å² Ľ
Ġre ject
äº¤ éĢļ
Ġcy cle
in er
Ġdet ection
æ¶Ī è´¹
ĠL eg
ç¥ Ŀ
ve ctor
b al
Ġadv ance
æķħ äºĭ
ĠB ay
ĠGerm any
Ġcharacter istics
w hat
du c
mat rix
il it
Ġgu ide
Ġmur der
Ġarg s
am m
ÃĲÂ µ
åŃ¦ éĻ¢
æ¯ı å¤©
Ġn od
f it
P U
) -
æĹ §
Ġiss ued
Ġdo ctor
Ġcharg es
ad ow
èĨ ľ
Ġf ab
Ġcons ult
Ġoff set
Ġgo als
Ġa cknow
od er
ä¸ĩ åħĥ
t w
Pro v
Ġbuff er
ĠCol lege
ï ½
Ġl ock
op ic
èģĶ ç³»
ent h
â ĳ
ĠIntern et
å ª
ist ed
oun ter
est ion
ĠB ig
åħ¨ éĥ¨
Ġn p
pl oad
ĠM ex
è· µ
Ġpie ces
Ġse at
ä½ľ åĵģ
y e
éĢ Ķ
Ġamaz ing
Ġj u
Ġthought s
iven ess
Ġr is
n umber
Ġinf o
Ġa u
ä½ ³
ĠV ir
gr ade
è ª
Ġh all
\ ;
P re
Ġrem ained
id em
ç® ±
Ġmiss ion
Ġexper iments
Ġconcern ed
åħ¨ éĿ¢
al ysis
Ġequival ent
E G
æķ ı
R S
â Ķ
sub set
â ķ
Ġsur gery
Ġs and
Ġdec ide
é£İ éĻ©
F e
M ar
Ġtre es
åľ £
Ġtell ing
Wh ich
Ġinvol ve
B I
Ġext ended
sc rib
% 
æ¨¡ å¼ı
Ġprob ability
åŁ¹ åħ»
ic ine
Ġspec ified
Ġv o
éĺ¶ æ®µ
he ther
b el
sc ale
å½ĵ æĹ¶
Ġincor por
Ġcl im
l oc
p ress
ad er
ĠIn stitute
Ġelect ron
Ġpl as
ĠW ork
g ent
ra ction
f ess
Ġimp ossible
CT ION
Ġs ac
å° Ĭ
ch ron
Ġconvers ation
æľ «
Ġaff ord
S L
ĠB rown
ĠL in
n n
Ġfor t
èĤ ¿
âĢĿ 
v as
ce ived
Ġdi et
Ï Į
S u
mb ox
c ut
m id
Ġf le
è¿Ľ ä¸ĢæŃ¥
xt ure
Ġorig in
p a
Ġt ill
Ġo u
Ġus ual
çĶµ åŃĲ
ĠPh il
åĲ Ľ
ob j
Ġacc ident
çĮ ®
ilos oph
EN D
æĽ´ åĬł
Ġmar ried
è®¤ çľŁ
è®¤ è¯Ĩ
ĠD uring
èµĦ éĩĳ
ĠS k
but ton
Ġdel ivery
ç¼ ©
ip al
Ġhigh light
Ġad m
ĠAr ch
Ġag ents
åĬŀ æ³ķ
Ġcon ventional
æĺ¾ ç¤º
Ġgrant ed
çĶŁ åĳ½
Ġs an
ell er
IN E
Ġs oul
çĪ Ĩ
Ġc ash
Ġwor ry
sum mary
Ġjo ined
ty le
ä¸ĭ éĿ¢
L a
Ġexp osure
unt ime
ä¸į å¥½
S y
Ġstart s
i ples
ĠSt ar
ĠRuss ia
i pping
çº ¯
r ich
æ¸ ¯
Ġth in
ĠPro ject
r ics
Ġpay ment
Ġcomm itted
ĠAustral ia
ot imes
ĠA R
P H
Ġf ib
ro ot
Ġsp oke
Ġr ac
p op
ic ity
åľ Ī
Ġf uel
Ġconf erence
Ġtw ice
Ġr ough
Ġang le
UL T
R un
ant a
æķ´ ä¸ª
ist ent
æĬ ½
Ġcontin ues
ĠD iv
Ġfl ag
Ġc ategory
èĤ ł
Ġnucle ar
t ag
å¿ĥ çĲĨ
s d
Ġfam iliar
Ġstate ments
Ġbe coming
ç»ı å¸¸
trans late
up date
Form at
Ġconf irm
Ġrefer red
Ġtrou ble
Ġre nt
Ġconcern s
it z
èī¯ å¥½
Ġestim ated
s ome
Ġsur vey
Ġinc ident
Ġreg ul
Ġvirt ual
èīº æľ¯
ĠÎ ¼
Ġdoc uments
Ġdes c
eng lish
K e
Ġfor get
ãģ Į
D ec
w ill
ç§ ģ
pl ify
ĠB ill
Ġcomp ens
Fil ter
Ù Ĭ
å¯ »
u ous
ĠRuss ian
Ù Ī
Ġtest ed
Ð ±
ĠR iver
Ġaud ience
ç¬¦ åĲĪ
Ġhon est
è· ³
Ġfund s
Ġdig it
Ġflu id
Ref erences
Ġla unch
R el
Ġwrit er
c up
an i
im ately
ä¹ ³
Comp onent
r at
Ġ Å
Ġmess ages
Ġn arrow
ĠP y
ord ers
å¸ ģ
li k
ĠCom mit
èģĮ ä¸ļ
Ġch osen
å·¥ ä¸ļ
RO M
äº ¡
Ser ver
ĠÐ º
å² Ĺ
åĴ ¨
Ġsche me
Ð ¹
A m
se cond
ĠTh ursday
éļ Ķ
ç¥ ĸ
åĩ Ŀ
ĠTw itter
ĠV ol
Ã ¢
app ro
s in
ĠD ec
Ġcl ients
Ġfil ms
Ġun e
Ġvol t
i h
ill er
f oot
æ´ ²
Ġdemonstr ated
od ed
ant e
Ġsympt oms
Ġlist en
Ġaccept ed
b untu
Ġk ne
ĠF ield
Ġj av
å®¶ åºŃ
ĠV iew
Ġs pl
iv o
Ġexperien ced
ĠAssoci ation
Ġstre t
åĮ» çĶŁ
ĠĠĠĠĠĠĠĠĠĠĠĠ ĠĠĊ
Ġwalk ing
Ġc ere
Ġexpl icit
çĽ Ľ
ĠTh omas
Ġsee k
S ince
Ġide al
b orn
Ġqu i
ic ago
b en
bl ing
ruct ure
A ccording
èĥ ¶
çİ° ä»£
æī ©
b ing
Ġphot os
F O
s ign
w ing
wh o
fri end
ARR ANT
or gan
ex pected
st ar
Ġco verage
ĠH en
as et
Ġfoc used
ĠU se
Ġl ic
L abel
ĠOn ly
Ġr oute
AC K
Ġrepresent ed
Ġturn s
d el
çĽ® çļĦ
Ġinter net
S upp
fil ter
è¡Į é©¶
Ġaccom pl
Ġact s
è¶ħ è¿ĩ
Ġdetect ed
Ġbehav i
ov al
UR L
ack et
c ial
ok ing
ĠSo ftware
ĠW ARRANT
ĠEar th
w er
Ġappear ance
Ġexperiment al
æ´ ĭ
and on
cl ose
Ġpos itions
æ± ¡
az ine
Ġsec ure
ĠT imes
åİ ħ
Ġm g
Ġn ative
Ġr ub
Ġstat ist
Ġcitiz ens
ĠK ore
ĠApp le
ĠS l
Ġan s
Ġex cess
ĠTr ue
Ġsy mm
ĠÐ ´
Ġsett ings
Ġl ip
è¾ Ľ
å¥ ¥
Ġsubstant ial
Ġm a
Ġenvironment al
æī ¬
Ġpolic ies
èĤ ¥
p ush
Ġrece iving
Ġpattern s
ay ers
ĠFurther more
d y
Ġstand ards
W here
m ut
ĠOff ice
ĠFlor ida
Ġw arn
æĳ Ħ
Ġput ting
Ġlist ed
Ġf ellow
Ġe cho
Ġt ables
it ivity
è§Ħ èĮĥ
Add ress
Ġcol lected
Ġinstall ed
ĠInst ead
Ġconsider ing
stit ution
æīĭ æľ¯
éĨ Ĵ
åĳĬ è¯ī
be red
Ġp u
Ġfe es
Ã§ Ã£o
Ġper t
é¡ ¿
æĺİ æĺ¾
Ñ ħ
Ġar bit
sq l
Ġpre f
P lease
Ġdis p
Ġcar s
Ø ±
pl ed
Ġinf ection
al ian
ä¼ł ç»Ł
ĠG overnment
coh ol
ĠFranc is
é» ĺ
Ġs ister
Ġbre ast
Ġcap able
mod ule
Ut ils
ĠA L
Ġfin ish
å¢ŀ éķ¿
ab out
par se
est ed
ra z
al a
Ġl ots
Ġder ived
ro ke
ĠÎ ±
Ġimplement ation
Ġmar riage
èĪ ¹
Ġadv anced
Z E
and roid
Ġconf lict
hed ul
Ġcommun ities
S cript
á »
k l
Ġcl imate
ä¹ĭ ä¸Ģ
resp onse
L ink
ĠIs lam
Ġdep artment
æĶ¹ åıĺ
b our
x c
æ¯ «
t wo
Ġp p
ĠS um
Ġclos er
Ġend s
çĸ¾ çĹħ
Ġdes ired
non umber
åħ¨ åĽ½
Ġimpl ied
Ġtyp ical
åĲ ī
add ing
ition ally
Ġs now
Ġpart ner
Comm and
Ġd Ã©
Ġweek end
pro perty
åºĶ å½ĵ
ĠJ o
Ġh ur
ix el
ro t
Ġpl ot
Ġdep ends
Ġquant um
d iff
Ġf ant
ãģ Ļ
ä¸į éĶĻ
ac iÃ³n
Ġpl ays
ä¿ĥ è¿Ľ
Ġc atal
Ġh at
Ġfe at
p erson
R ev
å¿ ĺ
Ġdefend ants
Ġatt end
fr amework
Ġm m
Ġm and
Ġc ateg
ĠT ur
Ġpro port
S igma
Ġcon ven
é© ¾
Ġed itor
Ġb are
im m
Fr ame
ĠLe ague
ĠRich ard
åĴ¨ è¯¢
ch inese
Ġunder stood
l ines
ER S
f n
Ġclaim ed
çĤ ¼
N ext
ä¸Ĭ æµ·
Ġadminist r
ĠW ednesday
èħ ¹
et ing
ĠN O
Ġsub str
Ġpre gn
Ġsp ending
æļ ´
ĠAfr ica
æĦŁ æŁĵ
Ġdirect ed
Ġwar rant
Ġb ath
add ress
Ġper man
Ġn ine
è¯ ļ
Att ribute
ĠWilli am
opt ion
æ» ĳ
ÑĢ Ðµ
Ġdec ades
Ø§ ÙĦ
Ġcontroll ed
Ġmem br
Ġ ì
at i
æĭ¥ æľī
ä» Ļ
Ġliter ature
Ġcontrol s
Ġs orry
Ġpl ants
Ġs plit
M P
Ġabs ence
Ġann ual
æģ ©
Ġfin ite
Ã ¸
Ġv ision
ĠĠĠĠĠĠĠĠĠĠĠĠ ĠĊ
Ġpro test
æĲ Ń
æĹ¶ ä»£
il ty
s ed
Ġf ashion
M ax
Ġdet ailed
Ä į
âĢ ĥ
ann er
Ġg rav
Ġsy mbol
Ġopp osite
à ¹
Ġr id
ĠT or
çĿ Ľ
æĢİ æł·
Ġst able
æ² Ł
æ± ¤
Ġpict ures
Ġchalleng es
W ork
æļ ĸ
Ġmet ab
Con st
Ġattack s
Ġinn ov
OR D
åĩ ¡
B O
v ol
Ġhe ro
Ġst ack
çĽ Ĳ
æĮ Ĥ
çī¹ çĤ¹
ĠM er
ĠC ap
Ġun known
Ġimm un
B L
åº Ħ
ç§ ¦
A ccess
G E
s plit
æ³ ¡
val ues
Ġe gg
çľŁ æŃ£
Ġexpl an
Ġrepresent ation
çĪ ·
åĺ ´
w orld
ri ver
Ġmanufact ure
Ġtechn ical
åĽł ç´ł
ç¨³ å®ļ
Ġrepl ace
U I
åĪ ·
èĥ ¡
ä¹Ļ æĸ¹
ive red
Ġur l
B efore
cont in
ĠLou is
åĬ ±
åħ³ éĶ®
Ġocc urs
unc hed
ĠE U
col umn
è¯ ¦
el a
çİ° åľº
Ġ> =
cret ion
rib le
Ġposs ess
Ġo ch
str ong
G l
Ġ iron
ĠD en
Ġent itled
G u
Ġslow ly
Ġk ick
no on
ad ian
Ġwe ar
Ġcontinu ous
åħ± åĲĮ
cript or
Ġpartic les
ĠA S
ore t
pos ed
p ower
Ġun able
Ġg ift
èĪ Ĵ
ãĢ Į
ĠCh ild
m i
if ies
å®ŀ è·µ
Ġcandid ate
Ġwe ather
h igh
Ġb one
ĠS il
Ġimag ine
Ġdep ending
Ġcopy right
çª Ĺ
Ġcoff ee
an es
ĠI P
ĠJud ge
en ance
Ġme rely
ut ive
Ġreal ized
_ 
å° ¤
æĮ ĳ
Ġbo ost
è½¯ ä»¶
D F
ĠM ass
T wo
æİ¥ åıĹ
Ġm ixed
Ġtrans l
åĨ ¬
è° ĵ
p ub
Ġkit chen
å®ĥ ä»¬
z o
éĽ Ħ
Ġart icles
ĠCommit tee
ĠW H
ĠI II
ãĢ į
ik i
å¸¦ æĿ¥
Ġmass ive
ĠCar ol
Ġen force
éĶ ħ
ĠM ont
è¡ ¡
æĹ¥ æľ¬
ä¹ ĺ
ĠN or
ä¿Ŀ éĻ©
æĩ Ĥ
åĶ ±
Ġ âĪĴ
ĠF inally
Ġwhere as
et her
å¯¹ æĸ¹
Ġreg ister
w est
æĦı ä¹ī
æĳ ©
Ġrem ark
ad ed
ĠR eturn
ĠMay be
or ation
Ġte levision
N ote
Ġf ont
Ch ild
Â ¸
st s
IC E
C ar
Ġg ent
am ber
ĠT R
est ic
in ations
N e
çİ° è±¡
u ke
rodu ction
Ġad ult
æĢ» ç»ĵ
ä¼ Ļ
Ġconf idence
åģļ åĪ°
empt y
Ġdes k
æĺİ ç¡®
ĠP RO
èĦ ī
åı¦ å¤ĸ
Ġtum or
åĽ½ åĨħ
igh ter
Ġspe aking
M em
Ġsign als
Ġdep art
In it
ä¹ł æĥ¯
E ng
Ġf uck
Ġmen u
Ġsen ior
Ġto m
Ġv ary
O ptions
ĠSc ience
Ġcompet ition
Ġm ice
Ġne ck
åĤ ¨
Ġhad n
Ġassoci ation
Ġf aster
d ouble
Ġcont em
C F
ĠM rs
ç³» åĪĹ
Ġabsol utely
ĠE q
Ġdro pped
h al
Ġem phas
Ġpol l
æķ ¬
Ġ ×
Ġsign s
Ġh urt
ĠSe cret
Ġbusiness es
Ġmarket ing
Ġrecogn ized
åĪĨ åĪ«
C ons
b as
ff ect
Ġdes ire
èµĦ äº§
Ġhot el
Â ¶
ell s
it is
Ġf ing
Ġcompl iance
ĠS un
Ġst ored
Ġm el
ĠAr ray
b ool
Ġv ide
Ġmat ters
Ġlaw y
ct x
Ġnumer ous
éĽ ħ
Val id
Ġfight ing
s ur
us al
ad v
éĹ Ń
E O
t x
Ġexp ensive
åİŁ åĪĻ
w ater
anc er
ious ly
ĠMus lim
Ġ ::
N O
int on
Ġprote ins
èİ «
å¡ ŀ
u ing
all ow
è¾ ħ
Ġen able
Ġp od
ĠS olve
C I
L ook
äºº ç±»
Ġpoint ed
Ġb le
Ġh ole
Ġb ought
Ġrel ax
èĦ Ĥ
Ġs ight
ĠJ ava
Ġc ards
æľº ä¼ļ
åĲĪ çĲĨ
ic ian
ĠC le
è§Ĥ å¯Ł
æ³¨ åĨĮ
M r
æĶ¿ æ²»
Ġ era
Ġb low
E very
j i
å¹ ķ
Ġra re
Ġout come
ploy ment
Ġw ww
Ġachie ved
ict ions
in em
ra q
Ġrespons es
ç¨ĭ åº¦
Ġmot iv
Ġnot iced
éĻ¤ äºĨ
ound ed
Ġcomp are
Ġhundred s
h ome
ĠSc ott
O pen
Ġe lev
Ġsh arp
pro duct
Ġwindow s
ĠP eter
ag en
å¹³ æĹ¶
è°ĥ æķ´
Ġrec overy
Ġelect ronic
Ġpers ons
Ġhous ing
çľĭ çĿĢ
Ġaspect s
ĠF ore
Ġtrans mission
Ġnecess arily
k o
åĮº åŁŁ
M in
Ġsal t
at tr
ç¼ ĺ
B o
èĩª åĬ¨
å£° éŁ³
ĠW here
ial s
p ref
èį Ĳ
Ġanal ys
M on
s pe
äºº çĶŁ
æĭ Ł
m ult
We b
è¯Ń è¨Ģ
åħħ åĪĨ
Ġc yt
ane ous
c at
dis play
ĠL ife
er ior
Ġrelationship s
ĠS ing
Ġdis pl
ĠIt s
r as
Ex ec
èĥ İ
Ġsk y
Ġre nder
Ġso le
Ġinc red
Ġdanger ous
Ġl augh
Ġaccount s
ĠV ersion
Ġb an
åŃ Ļ
Ġeff iciency
Ent ry
Ġform ula
åıĸ å¾Ĺ
bold symbol
ĠB uild
ge bra
P M
åĬĽ éĩı
ĠO N
Ġstr ict
æľī çĤ¹
asc ular
Ġtem plate
Ġpass ing
S m
å¹³ åı°
Ġdi am
Ġapp ar
Ġun ion
Ġsmall est
Ġsp orts
Des cription
Ġco e
Ã© e
æ® ĭ
é¼ ĵ
Ġh un
ick en
au g
ĠWh o
Ġest ate
Config uration
Ġexperien ces
Ġdeg rees
åĩı å°ĳ
S che
C ase
æµ ª
Ġc ities
Ġfrequ ently
Ġinst ant
Ġcol on
pro v
Ġint ention
Ġre form
Ġb ott
Ġsh op
Ġocc asion
Ġg ap
Ġtell s
Ġg ro
ere n
par ams
åĢ į
in stance
Ġd raft
st ep
Ġs ad
è¯Ħ ä»·
E l
Ġrem ind
æķ Į
ip her
èĤ Ŀ
Ġdiagn osis
d em
if ts
Ġatt ached
è¯ º
Ġmeasure ments
tem plate
u er
ĠAP I
ĠE nd
by te
å· §
Th anks
Ġcl uster
Ġest imate
Ġterm inal
ĠC all
Pro cess
ä¼ļ è®®
Se lect
T ask
é¼ »
ĠN ame
å¿ħ è¦ģ
V er
Ġhelp ing
çĶµ èĦĳ
ER E
Ġautom atically
âķ Ĳ
J son
åıĤ ä¸İ
erm an
çĶ² æĸ¹
ĠS ol
Ġvill age
Ġnet works
è§£ éĩĬ
ed ing
call ed
Ð ³
çģ Ń
sm all
ĠRepublic an
ĠJ e
ĠU sing
è´ ·
put e
åĢ º
æĻ® éĢļ
å®£ ä¼ł
æ ¾
Ġd ans
ĠS O
Ĥ ¬
i ot
end ment
æĹ ģ
çī© è´¨
æĸ° çļĦ
e per
ç Ĵ
Ġany way
Ġpost ed
our se
ĠChe ck
TY PE
ent ry
Ġrespons ibility
çľ¼ çĿĽ
èĤ¯ å®ļ
g raph
Ġsee king
èµ µ
Ġthous and
Ġb acter
ĠF ederal
ĠSt and
Ġman age
Ġs ought
ĠD i
Ġknow ing
Ġg onna
Ġphen omen
Ġmole cular
pro te
çªģ çĦ¶
n av
Ġdoll ars
ind u
ri ev
Ġassess ment
Ġacc ord
Ġfam ous
Ġindic ates
Ġsubsequ ent
N AME
æ¢ ģ
ĠS and
Ġear n
çĪ¶ æ¯į
ä¸į çĶ¨
ĠCh icago
> >
æĢİä¹Ī åĬŀ
ĠR ad
è¾ £
Ġtest ified
Ġoff ering
Ġassum ing
R ight
çĶµ è§Ĩ
Ġsudden ly
ent er
Ġinter actions
ress ive
Ġsc an
ĠG ive
Ġsc ope
ç±» åŀĭ
é¥® é£Ł
un te
ä¸¥ æł¼
m ay
ä¸° å¯Į
D ir
Ñ İ
ĠJust ice
in ates
t re
éģ į
( {
é ŀ
Ġbig ger
Ġmod ified
Ġspect rum
ĠI ran
å§ ĵ
Ġ ÏĢ
Ġn odes
æģ Ĳ
Ġstrong ly
ĠR ule
éļı çĿĢ
O G
ä½ľ ä¸ļ
Ġpur su
om orph
ok ed
S olve
ä½ĵ ç³»
P at
st al
å®ī æİĴ
Ġdis k
åıĮ æĸ¹
Ġcur ve
Ġpost s
T E
Ġsc r
ĠChrist mas
ĠD ev
. \\
ĠA ma
ĠAfr ican
ĠM A
Ġcomm ission
Ġv ast
Ġneg ot
ĠB as
Ġdeterm ination
U rl
W rite
an el
Ġwonder ful
is ters
ĠS H
ĠĠĠĠĠĠĠĠĠĠĠĠĠĠĠĠ ĠĠĠĠĠ
f in
St r
åıĹ åĪ°
Ġemploy ee
se ct
Ġcour ts
Ġexp ansion
omet imes
Ġm ent
B r
èĢĥ è¯ķ
equ als
Ġunder lying
raint s
ĠJ ose
F OR
Ġj son
Ġbr anch
ĠC A
we et
Ġgu ilty
Ġcontain er
k es
è¿ ·
os itory
Ġimm ig
Ġv ul
èĢ Ĳ
om ething
è¿ŀ æİ¥
Ġcoll abor
Ġre in
è® ¿
ap ed
æı Ĵ
Ġdirect ory
rou d
Ġsm ile
s ens
Ġz one
ic ing
è ¦
æµ ĵ
Ġch art
ost on
ĠF re
Ġar my
ç ¹
Act ivity
Ġb odies
ĠT em
Ġvolt age
Ġtop ic
le ep
st ore
ĠT im
Ġapparent ly
ĠF ire
Ï ī
ä½ľ èĢħ
æł¹ æľ¬
ig e
ĠSen ate
Ġlegis l
Ġfe els
b et
ar ks
EN SE
å¼ ĥ
éŁ³ ä¹Ĳ
æģ ¢
Ġcre ation
R eturn
Ġbo ys
ĠCirc uit
Ġreal ize
ÑĤ Ðµ
Ġwas te
Ġemploy ed
Ġwall s
ĠM ax
Ġhum ans
ien ces
ort ed
ren cy
eff ect
Ġjust ice
Â Ģ
ter day
os a
Ġfundament al
or ters
R ow
èĢĮ æĺ¯
Ġp il
Ġg ate
Ġplan et
åĵª äºĽ
Ġdeb ate
è¯ ¸
Ġri ver
Ġupd ated
ĠI raq
Ġl ift
Ġour selves
m osp
Ġdisc rim
åĬŀ åħ¬
Ġra il
Ġpre v
OU R
è®° å½ķ
b id
Ġp ed
ask et
Ġt ail
Ġth reshold
im a
F R
Ġco ach
æľª æĿ¥
s en
Î ³
Ġwe alth
Ġmus cle
Ġph osph
åĽº å®ļ
ĠSec urity
T C
Ġs ick
Ġscient ific
åĵª éĩĮ
ri or
çļ® èĤ¤
Ġcon clude
Ġform al
x b
Ġcomp re
å³ °
Ġf o
in ating
Ġob j
ĠC amp
Ġhom es
ĠC a
åįģ åĪĨ
æī¾ åĪ°
Ġf urn
um s
Ġdef e
d irect
Ġpe ak
ç² Ĵ
Ġabsol ute
åħ³ æ³¨
Ġdi ab
Ġve get
Ġrec ip
u ps
il ton
Ġgr ab
Ġexc ited
Ġjuris diction
Ġpract ices
s upport
ĠJ ul
Ġlim its
Ġw inter
ĠMin ister
Ġsurv ival
L C
Ġappro ved
Ġpass word
Ġsuit able
ĠT ext
M R
on ym
ÑĤ Ð°
Ġpolit ics
Ġprinc iple
Ġde lete
åĨ Ĵ
Ġturn ing
åİĭ åĬĽ
ĠN av
ĠPl an
* )
ig er
Ġse ctor
in ternal
æ¬ ²
é¢ Ĺ
ĠM a
Ġweap ons
V AL
n el
Ab out
Ġac adem
Ġmark ed
u able
w ere
Ġcl oud
ad os
bl og
æ¨ ª
Ġcris is
L ength
it ud
Ġprof ession
Ġw ine
An other
ĠJohn son
L ong
ul s
Th read
Ġdist ingu
Ġind epend
P os
ĠS ocial
Ġtot ally
ä¸ĭ åĪĹ
Ġsecond ary
Ä ģ
ce an
å¡ Ķ
Ġopportun ities
Ġh idden
æĪĲ ç«ĭ
C urrent
Ġpl astic
éĥ½ ä¼ļ
Ġvir us
p ra
å¨ ĺ
ampions hip
Ġappar atus
T ag
Ġvel ocity
sh ould
Ġcorrel ation
Ġdecre ase
ĠA v
Ġfund ing
èĤ Į
Y eah
Ġvis ible
c p
ĠB et
Ġfig ures
Ġw ra
åĪ ĳ
Ġbl ocks
è£ Ĥ
pro to
Ġp it
æ® Ĭ
Ġenh ance
Ġshe ll
C OM
ig an
spec ific
ĠVir gin
è¾ Ĩ
ĠPro gram
Ġproced ures
Head er
D r
opt ions
Ġshe l
Ġafter noon
al i
ĠPar is
Ġresid ents
Ġal cohol
Ġrec ording
Ġfr amework
head er
Ġeval uation
z ing
Ġpol ar
ĠAt l
æ¢ °
PE CT
b uffer
Å ¡
Ġrem ote
Ġd inner
ĠC ath
Ġper mission
äºĭ æķħ
act s
h an
Ġre nd
b ro
Ġs q
ch arge
Ġv en
éĵ ¾
Ġad mitted
ST R
az e
Ã¤ r
M T
æ¼ «
ĠF our
Ġaccur ate
Ġfl ight
æ»¡ è¶³
éŁ ©
Ġdynam ic
at ural
* (
çĩ ĥ
æĢĢ åŃķ
çĶ¨ äºİ
çº ·
Ġby te
Ġpl ain
ĠK ey
S tyle
çĶŁ çī©
m ode
ult ure
æĥ³ è¦ģ
ollow ing
ĠCent ral
Ġl ung
Ġhor iz
æľī äºº
cer ning
ĠJ im
Ġse gment
Ġa id
Ġis land
Ġsh ock
m atch
equ al
Ġto ken
H is
Ġwor st
 -
Ġr ig
Ġorgan izations
Ġanal og
ym ph
ĠI l
IT ION
t ab
Ġoff ense
Ġre vers
Ġstr ange
Ġt it
ect ed
é² ģ
Ð½ Ð¸
ĠSp ring
ĠV is
t xt
Ġt aste
y cl
Ġh ate
aw s
l ie
èµ ¶
Ġinst ructions
Ġexecut ive
Ġsomew hat
ĠJ ones
ĠAr ab
åĽŀ çŃĶ
ä¸ ģ
åĭ ¤
Ġf old
ĠI r
ist a
Ġsu c
çĶµ å½±
Î¿ Ïħ
Ġprom pt
th m
Ġill ustr
Ġwat ched
Ġto x
Ġdr ag
Ġeffect ively
Ġe ating
æľĢ ç»Ī
éĶĻ è¯¯
al d
ĠI L
jo in
ĠÐ½ Ð°
Ġhyp othes
ĠGr and
Ġcard i
Ġpen al
st ack
] {
Ġde pos
Ġad ults
Ġsupport ing
æĬ ±
ĠServ ices
ir a
ĠCol or
çŁ ¿
Ġ{ }
Ġenem y
æģ¢ å¤į
I E
O k
id x
æ³ ¥
IG HT
Ġdise ases
ĠThe orem
Ġaccur acy
Con nection
ob s
æİ¨ èįĲ
ĠMart in
çĭ Ĺ
Ġpers pective
Ġindu ced
Ġmeasure ment
Ġal ter
Ġrepl aced
ĠTh anks
ĠM el
å¤ ®
åĲ ´
Wh o
f iles
Ġch apter
æĺ ł
hes is
u z
off set
ĠSt r
T arget
ĠW all
ĠRev iew
dev ice
Ġ< =
å® ĭ
Ġu m
Ġv on
Ġsp aces
Ġatt ribute
è¯ģ æĺİ
N on
or al
Ġrequest s
IC ENSE
éĢĤ åĲĪ
ĠWilli ams
é¢Ĩ åŁŁ
ĠR o
Ġexpl ore
Ġ$ {
Ġprov ision
Ġsol ve
typ es
èĩª èº«
Ġconsider ation
ĠT re
f ill
ob e
s upp
en v
al so
w id
åĩ ī
Ġass istance
eng er
ĠÂ »
h ar
Ġser ial
Ġhapp ening
Î ¬
åĲİ æĿ¥
ott ed
Ġobvious ly
m aterial
Ġcrit eria
Ġh o
å¦ ¹
åĪ¶ éĢł
Ġequ ations
D at
P tr
s ession
ĠP enn
el er
Ġdra wn
D C
Ġsim pl
x d
Ġcy cl
å½ »
Ġn an
S l
Ġte aching
Ġw ed
ĠS ociety
Ġrel ates
Ġsuccess fully
Ġad equ
U s
is er
Ġdel ivered
y our
we red
Ġhe nce
ack ing
mon th
Ġax is
ĠD ate
å¥ ĭ
Ġread er
Ġsurpr ise
bur g
æĮģ ç»Ń
ĠChar les
Ġfind s
ost er
Ġcomfort able
åĪ¶ ä½ľ
L ocation
er ry
Ġv ess
Ġprov ed
âķĲ âķĲ
names pace
P ort
ĠIs land
Ġauthor ities
ĠL os
Ġcl ar
Cont rol
dim ensional
N N
é ¬
ç¹ ģ
out s
aw n
ĠH ome
Ġdem ocr
Ġ Ñ
in ition
Ġpar allel
æĬĢ èĥ½
S ign
çĽ¸ ä¿¡
j pg
re ction
è¿ĩ æĿ¥
G A
å® ĩ
Ġf ro
è¿Ĳ è¡Į
ãĥ ³
çĽĳ çĿ£
Ġrecomm ended
P ref
äº¤ æµģ
r ine
æº ¶
Ġne ur
äºĭ ä¸ļ
èĲ¥ åħ»
y les
æ° ı
Ġjour ney
F P
ch ain
Ġsav ed
Ġg rew
Ġra in
æ¶ ī
Th ank
Ġtrans action
EX T
* ~
athe red
W AR
ist ant
p ng
Ġmain ly
èº« ä¸Ĭ
Ġleg s
Im pl
Ġpur s
c raft
C ache
Ġpl enty
Ġshould er
Ġra w
Le vel
Ġm ail
Ġnew sp
ĠB ack
Ġexp osed
ĠAn other
Ġdim ension
Ser ial
Ġimprove ment
Ġwid ely
Ġsupport s
ä¿Ŀ éļľ
Ġarg ues
Ġbe ar
ĠÃ ĳ
Ġemploy ment
let ed
åħĪ çĶŁ
des cription
ĠEx ception
Ġinvol ving
s i
Ð» Ð¸
Ġse ctions
Ġlarg ely
he rent
Ġappro aches
ĠF ed
éĹ ª
Ġlink ed
S M
Ġf ly
ĠU ser
Ġinstr ument
Ġch annels
Ġcult ural
æ´ Ľ
Ġemot ional
v in
Ġsp at
çĽ¸ å¯¹
æĶ¯ ä»ĺ
f ire
Ġfra ud
Em pty
ut ch
ad or
Ġm ask
ä¼ļ è®¡
å¦ »
Ps i
c in
f a
Ġent ertain
åĮ» çĸĹ
est ival
Ġansw ers
ĠP R
ict or
W indow
br idge
Ġbur den
h or
ĠR oad
Ġsomew here
Ġcon cluded
Ġmechan isms
èĻ «
Ġret ail
idel ines
P o
ra pe
Ġmark ets
Ġprot ocol
æ´ ŀ
Ġex ceed
èĩª æĪĳ
T A
id ents
Ġmil k
èħ °
per t
Ġfeed back
ĠP o
sc ri
cont rol
ĠApp ellant
ĠO ffic
ĠB ob
Ġdisc over
M ENT
Ġbring ing
N ames
Ġwe aring
Ġcont ribution
F ind
ont al
Ġstim ul
ĠAp ache
åĨ ł
ĠY et
åħ¬ äº¤
Ġpercent age
çĥ ¦
on a
es is
ess ions
ĠM ath
erv es
æ£Ģ æµĭ
Ġh al
é¾ Ħ
ha ust
n i
ĠN E
Ġass ault
Ġhelp ful
[ ^
ĠW ood
Ġrequire ment
p res
Ġviol ation
u an
rem ove
ĠG ener
ĠM ap
Ġsus pect
å§Ķ åĳĺ
Ġc ro
ne ctions
Ġmin im
av ed
D own
O ther
( [
Ġl ies
æĿ ¯
m ond
æ£ ®
H ttp
ĠM ount
Ġcom o
P I
èĢ Ĺ
Ġfe e
pro p
Ġhor se
Ġd ict
st ud
Ġpract ical
Americ an
Ġter rit
Ġse g
èĦ ı
Ġobserv ations
P ass
or ig
Ð¾Ð »
æİĮ æı¡
Ø ª
Ġent ity
Ġdemonstr ate
Prov ider
è° ·
h ab
Ġclos est
Ġrelig ion
T ree
Ġst one
è§Ħ æ¨¡
èħ ¿
m g
Ġre verse
Ġr ide
Ġr u
Ġart ist
æ¢ ħ
ä»İ èĢĮ
. âĢĻ
Ġimmedi ate
b les
ç´ «
ĠAr my
Ġbro ke
Ġt ip
ap se
 _
ĠO ld
èµĦ æľ¬
Ġeval uate
fra id
Ġdis cretion
Ġresear chers
d est
Ġbound ary
Ġshoot ing
N U
Ġf inger
æĪĲ ç»©
ĠL em
æľĢ è¿ĳ
é ī
Ġdo se
Ġco oper
V ari
ĠTh ose
æĳ Ĩ
ä¸ ¹
Ġass igned
} -
Ġg ather
Ġke ys
F IG
Ġas ide
ne g
Ġemerg ency
Ġserv ing
Ġcandid ates
Ġepis ode
W S
i pt
ĠP ut
å¿ ½
Ġplas ma
el i
Ġfac ilities
åĭ ĩ
Ġarr ang
ab a
Ġassum ed
Ġt ub
se m
æī £
å¤§ éĩı
Int eger
Ġche st
ĠCl ub
Ġsu gar
Ġveh icles
act iv
å¥³ äºº
åĨħ éĥ¨
Ġrad iation
åĬł åħ¥
Ġclos ely
Ġn u
not e
äºİ æĺ¯
ç£ ¨
æľī çļĦ
ĉĉĉĉ ĉĉ
lect ric
Ġinvestig ate
re ams
èĥ ¸
yt ic
è ²
æĽ ¿
åº Ł
Ġany where
Ġinterpret ation
ĠP ower
ç«ŀ äºī
Ġesc ape
Ġmom ents
ĠS U
J ohn
W idth
Ġyou th
Ġp m
ir al
ĠE r
Ġsc hedul
B ecause
Ġat mosp
ur ally
Ġch rom
èĴ Ļ
å° ¾
Sim plify
ĠS pe
Ġpass ion
éī ´
ĠL ook
æĴŃ æĬ¥
ĠSt at
ĠĠĠĠĠĠĠĠĠĠĠĠĠĠ ĠĊ
æ¸ħ æ¥ļ
Ġph ilosoph
Ġexam ined
d on
åĶ ¯
Param eter
u id
V ert
ĠÂ £
d eg
Ġp ump
k m
çı ł
Ġcrow d
T D
æ¶ Ĥ
Ġintellig ence
N OT
Ġch ronic
å·¥ åħ·
ĠCh ief
éķ¿ æľŁ
æīĵ å¼Ģ
St ack
ÑĢ Ð¸
æıı è¿°
L S
an ing
éĵ º
AC E
Ġact ing
Ġsold iers
Ġhistor ical
Ġsurpr ised
om er
Ġlay ers
Ġcare fully
ĠC R
æĳ ĩ
ĠWITH OUT
Ġpay ing
Ġt asks
è´ Ŀ
æĽ´ å¥½
ĠG a
ĠJ ournal
åĬ¨ çī©
R NA
Ġdriv en
Ġsong s
Ġ ion
ent ity
çģ ¾
ĠM ur
éĺħ è¯»
Ġthem e
Ġstand s
ian a
Ġjav ax
G ood
Ġsh aring
Ġhead er
Ġprom ise
ĠComm un
Ġanc ient
ou p
ĠL and
Ġpart ial
Ġpre ced
å¿ Ĩ
Ġresult ed
% .
éĶ ģ
y y
çģ °
Ġm ouse
end ar
fr ast
Al though
Ġmill ions
es ter
ĠM icrosoft
Ġ ]
Ġsuc ceed
Ġfra ction
éĴĪ å¯¹
wid et
éĽĨ åĽ¢
Ġorgan ic
clus ions
éħį åĲĪ
Ġb rowser
widet ilde
ĠN S
ant ed
Ġt ab
Ġdr am
Ġpot entially
ĠR oman
Ġa fraid
Ġu l
Ġcont ro
ament e
Ġa st
Ġsens itive
ĠJew ish
ĠB E
æ°ĳ æĹı
z eta
ĠE st
cl ick
Or der
Ġinform ed
Ġre n
pro t
ou ch
ĠR om
ç»Ħ æĪĲ
éĩĩ åıĸ
Ġpow ers
ï½ ŀ
Ġm aps
Ġstrateg ies
qu are
Ġgr id
T HE
h ash
Ġad j
am ine
æĸĩ æĺİ
Ġp in
æĹ¶ æľŁ
Ġent re
Ġarg ue
ĠE duc
æŃ£ åľ¨
Ġkind s
Ġfair ly
Ġg alax
H ash
p hen
Ġj a
Ġca using
Ġbeg ins
ĠIn formation
G r
Ġshe et
} .
est amp
th read
èµ Ķ
d ots
èĩª çĶ±
t ml
ater al
Ġb inary
Ġco ast
ä¸» åĬ¨
ner gy
Ġal ive
æĹ Ĺ
Ġamount s
Ġconsum er
Ġneighbor hood
L ike
ĠH ot
sh ot
ĠC L
ĠĠĠĠĠĠĠĠĠĠĠĠĠĠĠĠ ĠĠ
Ġpl anned
Ġf unc
æ· »
Ġloc ations
co pe
Ġst orm
å®¶ éķ¿
Ġinit i
ä¸į è¶³
cl ip
s n
é«ĺ éĢŁ
AT A
ag raph
ost ic
Ġwhe el
Ġleaders hip
Ġgover ning
Ġpick ing
ĠH aw
ĠF il
Ã¼ r
gy pt
ĠO per
ic ular
u h
å¿« ä¹Ĳ
Ġconsum ption
a ft
ere r
ä»¥ åīį
m ann
Ġgrow n
Ġhouse hold
e en
Ref erence
} +
am er
ĠH y
th rough
Ġcol ors
b ound
Ġim aging
line ar
ĠM S
Ġcomp osition
ident ial
Ġaut hent
de bug
Ġeval uated
ĠE nt
Ġb rown
Al so
Ġperfect ly
Read er
V ID
Ġobject ive
ĠĠĠĠĠĠĠĠĠĠĠĠĠĠĠĠĠĠĠĠĠĠĠĠĠĠĠĠĠĠĠĠ ĠĠĠ
æ¡ Į
ex ample
Ġbatter y
l isher
Ġok ay
it ure
è¿ ħ
Ġfab ric
end o
Ġstri ke
ĠN ov
to String
Ġin qu
Ġcommon ly
Ġg all
Ġcon sole
ĠU s
pr ise
Ġwel come
Ġass ign
e lement
og ene
äº¤ æĺĵ
or ough
èĸ Ħ
it ative
å¾ ª
æĢ» æĺ¯
Ġre ct
Ġst ability
Ġprinc iples
V ector
ĠE N
c ard
Ġp roud
B R
Ġw est
the ir
Ġwin ning
ĠI M
Ġ( '
åį³ åı¯
it ar
èĪ į
ĠE xt
t i
Ġconsc ious
Ġ )
ĠJ oe
åħ Ħ
Ġaud io
Ġro se
Ġx ml
èĤ ¾
ann a
Ġdecl ared
D P
Ġdiv ision
Ġev il
åĪ¶ å®ļ
t ree
ĠB ase
å° º
Ġd ust
pl us
Ġm as
Ġab andon
ish ment
Î Ń
æ³ķ éĻ¢
è¿ĺ è¦ģ
az z
b ot
Ġad vent
Ġdam ages
R ed
Ġcommit tee
ĠW al
Ġrecogn ize
Ġdog s
Ġwar ning
Ġcomp ounds
Un it
Ġapart ment
Ġthere by
ĠCl inton
Ġse ed
ear ing
S earch
æ¸© åº¦
* .
æ §
cent er
ĠE ll
Ġref used
E ven
Ġs ig
Ġcon cerning
Ġp ip
el ly
Ġprop ag
Ġcarry ing
Ġs ke
Ġd uration
æľº åħ³
éħĴ åºĹ
ĠP H
ib ilities
ere st
è¶Ĭ æĿ¥
g b
ĠÐ ¼
åĪº æ¿Ģ
D M
L ocal
éĢ ĥ
éľ ĩ
à °
æĶ¹ éĿ©
ĠVal ue
Ġte ach
åĲĦ é¡¹
åķĨ åĵģ
è´¢ åĬ¡
åĲį åŃĹ
Off set
f ound
s end
Ġhab it
Ġset up
ĠCom mon
irc raft
point s
Ġfing ers
M enu
Ġa f
Ġs elling
Ġint el
Ã¤ n
Ġmiss ed
og ether
Ġme at
th an
ap es
èĥ Ĩ
aut o
è¶ĬæĿ¥ è¶Ĭ
ir ation
ual ity
å¾Ī å¤§
Ġvide os
èĲ½ å®ŀ
ĠM ake
Ġbus y
Ġst ores
æĹł è®º
Ġinvestig ated
Ġout er
Ġdef ect
T S
ag ers
Ġprefer red
ä¼ĺ åĬ¿
u rop
Ġst ead
Ġne uro
Ġult imately
ĠL o
Ġgen etic
Ġto ler
Ġpro hib
Ġadv oc
util s
P ER
g i
åª Ĵ
a us
en ess
ĠF alse
Ġcl ust
Ġcon j
Ġread ers
Ġarg ued
il ly
Ġsp ort
Ġorig inally
F S
st one
ä»Ĭ å¹´
ĠWARRANT IES
Ġisol ated
Ġsubstr ate
P osition
åķĨ ä¸ļ
åĬŀ çĲĨ
å¹¸ ç¦ı
b ind
à ¥
es ome
ĠC reate
Ġprinc ipal
Ġown ed
Ġrestaur ant
Ġres on
Ġshould n
D irect
N um
ç¥ŀ ç»ı
äºº çī©
å± Ĭ
Ġw et
ĠL i
Ġout comes
ĠL uc
sc ape
å¾Ī å¥½
the less
åĪĽ éĢł
Ġactiv ation
Ġvers ions
Ġint ensity
è ¹
Ġt ough
è¿ ¹
Ġmod ify
xy gen
ĠAma zon
M ult
Ġinit ially
S ession
d p
Ġmembr ane
ç»Ł ä¸Ģ
Ġc oc
ĠL ee
ĠDef endant
M any
Ġdi vers
W E
ĠH istory
Ġcorrect ly
Ġimpl ies
Ġs ed
ĠB usiness
Ġt iny
ĠR ock
ç½ ļ
æĺİ çĻ½
è°ĥ æŁ¥
Ġanaly zed
Ġf aces
ul ous
f ortunately
li ament
ãģ ¾
medi ate
ĠB est
r ick
Ġby tes
å¿ĥ éĩĮ
as m
çī¹ æ®Ĭ
Â ģ
Ġf ault
çĶ ľ
ser ve
ĠBl ue
Ġtalk ed
çĪ¶ äº²
Ġded icated
äº ¦
Ġdescrib es
Ġbl ind
éĻį ä½İ
if er
Ġas sembly
èĤ º
Ġw al
iz z
G C
G ET
p df
S QL
Ġsurround ing
C or
Ġplaintiff s
n ic
ĠHen ry
Ġa th
ĠM ult
Ġconsequ ences
on ia
print ln
Ġper mit
åĩ Ń
ĠB oston
ä¼ ¯
Ġvers us
é¬ ¼
å£ ģ
ĠPro v
Ġmi xture
O B
l at
Ġext end
é£Ł åĵģ
Ġprom ote
Par ams
d isc
s v
ane ously
æķ° éĩı
è¿ Ķ
sh ape
æ¯ķ ä¸ļ
Ġcons ent
Ġ: )
Ġexplan ation
A ut
è¯¾ ç¨ĭ
Ġ Ø§ÙĦ
Ġlik ed
Ġbring s
: \\
æĬ µ
å°ı è¯´
æŁ ±
ĠBrit ain
Ġrequest ed
Ġlow est
s uch
å¦Ĥ ä¸ĭ
Ġd il
ä¸Ģ ä½į
e z
Ġp Ã¥
equ iv
u v
èº« ä»½
D I
å¸ Ń
Ġsub t
Ġfac ilit
Ġmor ph
Ġgood s
Pro ject
Ġdocument ation
T ex
Ġarbit r
Ph one
O ST
Ġla unched
Dev ice
Ġpartic le
w r
Ġun iverse
æĥ³ åĪ°
æł¸ å¿ĥ
æľĪ ç»ı
å·¥ èīº
Ġcorpor ate
çĦ ¦
is a
Ġrec over
Ġp ushed
Ġhe m
up id
f ol
å¾ Ĳ
Ġsche dule
h ol
Ġess entially
Ġfav our
Ġch ose
Ġrecogn ition
as tern
Ġgl ad
ac cess
O p
Ġbas ically
ĠAng eles
Ġunc ertain
ãĤ Į
Ġmov es
Ġmor al
Ġsens or
ĠCan adian
Ġk ernel
Ġcent re
â Ħ
ç» ķ
f all
Ġ à¤
Ġtr uck
Ġregist ered
Ġbuild ings
Ġ rom
\\ '
in cluding
a uth
ĠB efore
ç» ª
æĦŁ åıĹ
ĠMod el
â Ĩ
ĠS ign
å®Į åĸĦ
Ġd ialog
let on
ç»ĵ æĿŁ
ãģ ĭ
Ġ+ +
Ġvol unte
g ood
ke ys
æŀ ª
Ġsim ult
end ants
Ð¾Ð ¼
ĠH ence
æĥ ł
Ġassert Equals
Ġdecre ased
E C
ĠJack son
Ġwere n
çĽ Ł
éĿ¢ å¯¹
ĠEX PECT
id ad
Ġcl othes
è Ŀ
Ġsq rt
B M
are t
p ed
Ġext reme
Ġinj uries
ĠD O
Ġb anks
Ġor al
T op
Ġy ellow
çĶ ĺ
æĿ Ĩ
Ġyoung er
t oken
è¡Į åĬ¨
p ool
æĮ ¯
Ġreg ulation
Ġbo at
Ñ Ĩ
Ġhead s
æľº æ¢°
Ġstre ets
Ġserious ly
i est
Ġsust ain
æĹħ æ¸¸
Ġas c
å¿ į
Ġent r
U RE
ĠP oint
Ġans wered
Ġf ruit
ä¼ĺ ç§Ģ
Ġlas er
ĠH uman
å°¤ åħ¶
ĠG ame
ĠP age
Pro perties
cd ots
Ġper missions
Pe ople
åĵ ¦
ç¢ İ
h s
er k
Ġnorm ally
Ðµ ÑĤ
è®¾ æĸ½
rop y
Ġattempt s
c ss
Ġt aught
ĠJ eff
ĠOr der
Ġe ast
ä¸Ģ æĿ¡
ach ment
ĠC ard
Ġsome how
Ġdisplay ed
am ples
pe ople
ĠE qu
Ġpub lish
Ġdepend ent
ĠN on
Ġtarget s
ĠMex ico
Ġcount y
ay ing
Ġinter val
sk i
åĮĸ åŃ¦
Ð ¶
åĩ ½
an ish
Ġbeaut y
âĶ Ģ
Ġacc um
Ġrep air
Ġph r
Ġt ort
Ġit er
ĠM ethod
å¿ĥ ä¸Ń
Ġhas h
æĮ º
è¾ĵ åħ¥
D id
: \
Ġt all
Ġintegr ated
Ġs ending
æ³ °
Ġil legal
ä¿ Ĺ
Ġlos ing
g ical
. -
Ġtri als
C ell
æľ ±
ĠL ast
åĪ¤ æĸŃ
Ġbu ying
Ġprim arily
t ask
Ġex haust
ang o
Ġbl ank
ç¦» å¼Ģ
Ġsc ores
Â ²
åĽ° éļ¾
Ġsequ ences
U ID
frast ructure
iv a
Ð½ Ð¾
Ġsu pra
ä»¥ ä¸º
Ġfac ing
Ġacknow led
c opy
IL ITY
Ġreview s
èĭ± è¯Ń
ĠĠĠĠĠĠĠĠĠĠĠĠĠĠĠĠ ĠĠĠĠ
ribut ions
Ġcho ices
Ġinter vention
ĠVirgin ia
ç¨ į
åıĳ æĮ¥
ou red
Ġsupp ose
Ġexam ination
è¯´ éģĵ
Ġ Ïĥ
Ġroom s
Ġlo an
Ġwr t
Ġhe t
ä¼ Ł
A V
Ġk illing
g ame
is ely
Ġsit uations
Ġyes terday
Ġass ets
ĠInd eed
Ġcapt ure
Ġadopt ed
M ost
AT H
LE CT
Ġarrest ed
Ġim per
Ġimplement ed
æĪ ´
ĠJ ac
å¹ ħ
Ġeng aged
Ġcolumn s
ĠE R
éĩį æĸ°
H z
App lication
Ġal ert
ch ing
Ð¾Ð ´
è´ «
ä¹ Į
éģ µ
ç¾ Ĭ
Ñ Ī
ĠD C
ĠÎ µ
Ġpay ments
( _
I LL
è¿Ļ æ¬¡
Ã µ
Ġsuper ior
ific ate
D D
Ġ icon
Ġm ic
ĠS ar
ĠM ike
ĠF ind
og rap
ç¾¤ ä¼Ĺ
ens us
Ġfore st
å¤§ å°ı
Ġtax es
Ġg ender
ul in
Ġv acc
åĲĮ æł·
Ġsens itivity
ĠPol ice
B ody
ĠD own
erv ation
Ġo rient
æī İ
Ġcomp osite
èµ ı
æ¤į çī©
Ġinvol ves
Ġcons ists
Ġd as
åįı è®®
S O
w ould
ac er
Ġprep are
ar on
ly mp
éŃ Ĥ
Ġfl ash
iction ary
Ġconcentr ations
Ġincreasing ly
Ġvul ner
i ro
Ġs oc
Ass ert
å·¥ èµĦ
f old
Ġsub mitted
Ġem bed
Ġteacher s
U se
ä¼ ¸
br id
å¿« éĢŁ
Ġex it
Ġcont ribute
Ġcra zy
ĠL ake
ĠJ SON
è¡¨ è¾¾
èĻ İ
ĉ ĠĠĠ
ĠD onald
è®Ń ç»ĥ
Ġinst ruct
Ġrad i
g age
ut s
spring framework
ĠE gypt
math sf
ist ing
æĿ ľ
çº ¹
Ġle ague
æµ ®
med ia
ĠB i
+ +
ĠGe org
Ġb read
Ġrem oval
Ġtem por
Ġelect rical
ĠÎ º
in v
âĢĶ âĢĶ
Ġb its
Î ²
ol id
Ġd ies
Ġte a
h us
äºº æīį
Ġpriv acy
èĭ Ĺ
Ġperman ent
ĠS QL
ĠK ar
çĵ ¶
Ġn it
Ġclass ic
O ption
éĢ Ĵ
st op
ĠCh apter
è§£ æŀĲ
ä¼ Ĭ
ĠN ever
æĹ¥ å¸¸
He ight
å¢ŀ å¼º
åĳ Ģ
æķ´ ä½ĵ
Ġcontro vers
x a
éģĩ åĪ°
ä¼ĳ æģ¯
Ġdec ade
ĠMc C
Ġr ational
Ġcirc le
Ġev ident
Ġste el
ĠDirect or
Ġsp r
ä½ĵ éªĮ
ĠDo es
è½ ´
Ġhon or
Ġb on
Ġmov ies
Ġord inary
Ġvict ory
A c
ĠA ut
p red
or ne
Ġcre w
Ġl iber
Ġsol ar
ĠCont rol
st at
r ons
v m
if i
ĠP ay
Ġh ook
Ġtr ick
æĸĩ ç«ł
Ġindust rial
Ġres erved
um a
erm ine
unn el
ĠAnd roid
æ½ ®
ĠU RL
Ġcol le
Ġn arr
Ġe c
Ġsuff ering
ink ing
ä¸Ń å¤®
ĠDe velopment
Ġrow s
ĠC up
Ġcreat ive
ĠC ast
æĢ§ èĥ½
åĳ Ī
Ġsil ver
m ac
pl an
æŁ Ķ
L D
um es
ĠL ib
et ric
å¹³ æĸ¹
Ġre act
er red
éĤ ®
um ps
Ġexper ts
Hel per
Ġg est
ä¸Ń åįİ
æĪĺ çķ¥
Ġann ounce
ĠJ on
è¢ ĭ
ĠCor por
l ocation
Ġm ad
O nce
comm and
à ®
He y
ĠSt art
æĻļ ä¸Ĭ
ir us
f ull
Ġo l
Ġar ter
åıĳ å¸ĥ
Ġreg ime
Ġinv ent
ĠSh ow
Ġbelie f
çı į
Ġdynam ics
M ark
un a
æ» ´
ru ption
çĭ¬ ç«ĭ
Ut il
h u
j av
Ġm argin
V D
m ade
Ġb at
Ġcomp act
è´Ń ä¹°
Ġsuff ered
Ġm ob
omet ric
Ġp apers
åĽ Ĭ
è´ ¸
b ottom
Ġa ircraft
Ġs ir
ĠD id
Ġapp s
ic ide
æĲ ŀ
re port
ĠS upp
èµ ŀ
Ġfac ility
E v
f lu
Ġinv al
Ġbr idge
Ġlog ic
Ġnames pace
ĠP ac
åĩł ä¹İ
Ġsurpr ising
Ġpriv ile
font s
om es
Ġcut ting
åĽ¾ çīĩ
ĠSecret ary
Se cond
se curity
Ġun w
ç§» åĬ¨
Ġth ro
é¸ Ł
ĠD ie
Ġrem em
Mod ule
ar ation
Ġdom in
Ġc ache
ĠPro fess
T T
Ġval uable
åŁº éĩĳ
æĻº èĥ½
or se
Ġfail s
ĠFrancis co
! !
ä¸» ä»»
ERR OR
s id
Ġex tr
Ġweap on
b u
A ccount
åĦ¿ ç«¥
fo o
Ã© n
T ool
å¯¹ è±¡
Ġvari ation
Ġcompre hens
Ġmaint enance
å¯ ¸
Ġco al
Ġtrig ger
Ġre new
du ction
ag ues
Ġche ap
ar se
Ġun iversity
Ġbre aking
re r
Ġmin imal
Ġh ung
Â ¿
Ex ternal
Ġmonitor ing
çĶŁ æĢģ
Ġdeterm ining
Ġvictim s
Ġanalys es
Ġrepl ied
Ġcop ies
at ible
ire ction
ÂłÂłÂłÂł ÂłÂłÂłÂł
ym met
Ġcreat es
Ġredu cing
ĠM ot
Ġk in
ÑĤ ÑĮ
Ph ys
ĠAg ain
æ ©
æĪĲ éķ¿
çŃī çŃī
c b
y es
Ġlight s
Ġrecept or
h im
Ch ange
ĠEn ter
åĩº çīĪ
ĠD ar
app y
Ġfeel ings
en ant
Ġany more
A g
Ġcontroll er
Ġenjoy ed
èħ º
ç¤¾ åĮº
æĿ¥ èĩª
Ġi o
Ġcount s
ĠTh ree
Ġsy nd
Ġconv iction
Ġun us
Ġfl ood
D ep
çĻ Į
Ġli ability
as cript
ĠM en
ĠF IG
ak istan
e als
Ġcont ents
lic enses
Ġt ur
ut ation
Ġsc al
sc ope
æ½ ľ
ĠDemocr atic
ins ert
Ġdisapp oint
s ite
Ġh ide
ĠC ivil
è´ ¯
å¹´ è½»
ĠRe al
[ \
Ġo xygen
od ds
èħ Ķ
åľŁ åľ°
Ġhous es
ĠÃ ¤
Ġindic ating
Ġt rib
Ġf Ã¶r
çĦ¶ èĢĮ
ĠH and
On ly
ĠY ear
ĠA ff
ä¾ µ
ĠL ight
* -
Ġc ogn
ĠS ir
em ail
ep ing
Ġcheck ed
t ed
ail ability
Ġbu nd
or ial
ĠL ic
Ġ[ [
Ġph arm
ç¡® ä¿Ŀ
Ġdis ag
äº ķ
S R
Ġcr ack
Ġcomplic ated
V ar
ist ence
ç»ı åİĨ
Ġbi ological
Ġcl ock
Ġmag ic
ä¸Ģ æ®µ
ĠIn it
co in
O H
] ^
ac ent
for ward
æļ Ĥ
ul ating
Ġdo ors
Ð½ Ð°
ä¸ĸ çºª
a ver
å¹³ åĿĩ
ĠAd minist
Ġ* )
åİŁ æĿ¥
Â ¼
ä¸į å°ĳ
ay lor
æ³ Ľ
que ue
l ayer
ĠIt alian
éª ĳ
ar ters
Ġaccom mod
IV E
Ġinstit utions
un icip
æľĢ é«ĺ
Ġphot ograph
Ġbe am
ort ion
Ġp ra
æĻ ¶
Ġdraw ing
ĠSpec ial
Ġe le
æĹ ĭ
Ġsk ill
åģ ¶
æī¿ æĭħ
S ION
M E
Ġd b
Ġconsum ers
Ġrapid ly
Ġgent le
Ġk iss
ĠUn less
è£ ģ
Ġprov isions
word s
Ġcateg ories
b its
Ġign ore
o ir
Â ®
æĸ¹ ä¾¿
Ġbe er
æ¡ ĥ
Ġrul ing
form ed
Ġth irty
Ġdri vers
Ġequ ally
Ġnear by
Ġg arden
min imal
Ġdeal ing
T itle
n c
ĠB ow
ä¼¼ ä¹İ
ĠO S
L icense
ĠDiv ision
Ġmin ister
Ġstru ck
éĩĳ èŀį
b efore
it an
ud o
ure au
Ġd os
ĠInt eger
Ġrev olution
ä¼ į
Ġso il
Ġnew ly
Ġv eter
ĠH arr
ĠG al
Ġcol our
ĠPal est
_ >
as ant
Ġsh ares
Ġclass ical
åĽŀ æĿ¥
Ġacc used
Q ue
Set tings
Ġc ort
Ġgu id
Ġre plic
ĠR am
åħ´ è¶£
æģ ĭ
ĠS D
çĮ ª
S um
ĠW at
åĪ ¸
Ġinter act
Ġreg ulations
ON E
Ġbu g
D eb
\\ {
Ġneg lig
in ite
A F
åıĺ æĪĲ
roll ed
Ġreport ing
Ġbehavi our
C ustom
çĭ Ĥ
Ġst uck
sc r
åķ ¦
åĲį ç§°
KE Y
Ġing red
t mp
Ġl ad
Ġben ch
S erv
æķ° åŃĹ
H S
ath y
Ġdiab etes
c ers
m aster
ĠW ay
Ġj oy
ĠV an
Ġm sg
ĠN a
ç©º æ°Ķ
Ã¨ re
Ġz u
Ġre const
ol ly
al ign
Ġhas n
ä¾Ŀ æį®
åı ¬
Ġcre am
Ġed ges
çĻ» è®°
Ġt one
und le
éĤ£ éĩĮ
ä¸Ĭ éĿ¢
å¥½ åĥı
ä½į äºİ
il a
Ġimm une
Ġman ip
Ġs au
éĻ ·
Ġoper ators
æŃ¤ æĹ¶
Ġc raft
å© Ĩ
S w
Ġpropos al
ĠF ROM
Ġmist ake
ĠR equ
Val ues
document class
ĠT oday
Ġsur ve
v als
sh all
Ġg ly
ãģ £
o pp
ì Ŀ
Ġdisc overy
Ġdisc ipl
P AR
ĠT op
ĠR ight
Ġopp osition
Ġte eth
ĠYou ng
Ġla id
ĠAtt orney
re ated
ĠS C
T ypes
åĪ© æ¶¦
Ġinf lam
r ants
ä» ģ
Ġant icip
HE CK
è® ¯
Ġappro val
ĠĠĠĠĠĠĠĠĠĠĠĠĠĠĠĠ ĠĠĠĠĊ
her s
æĭ ľ
ĠI V
å° ĸ
Ġ< -
å¡ ĳ
ĠCor p
om atic
annot ation
ĠN Y
Ġrep rodu
angu ages
åĨľ æĿĳ
Ġl ymph
Ġthe oret
Ġst rain
Ġab stract
Ġmechan ical
Ġl unch
Ġpar ams
c ache
ä» ¿
u ct
Ġm ock
Ø ¯
ri ers
au x
Ġrepresent ative
Ġvot ers
Ġen v
ĠS i
Ġext ensive
Â ´
ra pper
Ġdest ination
æĵ ¦
ĠSim ilar
> 
Ġte en
åĢ ¾
indu ced
Å ¾
Ġhe ter
ĠIm age
ĠDemocr ats
ĠJer sey
Ġcomp ound
ä¹ĭ ä¸Ń
Ġart ists
Ġver ify
Ġobserv ation
Ġground s
re q
ä¼ ¦
ĠPl ay
ĠO p
/ (
Ġem ission
su ccess
Ġ riv
ä¸į çŁ¥
Ġover l
Ġcare ful
Ġregard less
p ond
Ġhard ware
E Q
ath an
çĮ «
Ġtherm al
Ġgen u
ĠA uthor
ĠDan iel
Ġcontribut ions
ĠTh ank
ĠMed ia
d oor
IM E
Ġrad ical
Ġhard ly
m ag
Ġwhe never
è§Ĩ é¢ĳ
Ġprof it
Ġintrodu ce
Ġtrans formation
ĠA ri
Ġpresent ation
ir ms
Ġsub set
ins on
J o
éĢļ å¸¸
Le ft
re ason
Ġc m
ar ia
Ù ĩ
ĠTe am
Ġre ar
d l
h ard
ĠG ar
Ġo g
clud es
æĪ¿ å±ĭ
G F
èį ·
âĢ ²
Ġreli able
ian o
Ġestim ates
ĠNet work
ĠM iddle
æī «
Ġcon nections
Â §
id en
ĠÐ ·
ĠCh ris
Ġkeep s
Ġn am
Ġpres um
Ġtechn ologies
æµĭ è¯ķ
é«ĺ åº¦
Î ®
res ource
æĢİä¹Ī æł·
Ġupd ates
aw ay
Ġpublic ation
Ġf asc
Ad apter
æĹ ¦
Ã ´
ĠF und
anc he
Ġrot ation
ĠL ine
Ġre ward
con v
çĬ¶ åĨµ
Ġreg ional
éĽĨ ä¸Ń
Ġfriend ly
Ġh ang
ĠF ar
ĠT own
de lete
Ġident ification
Ġapp lies
ĠC are
è¿ ģ
æ¯į äº²
ion es
St ore
Ġc ust
ĠCarol ina
æķ° åŃ¦
[ \\
is or
n orm
ĠS N
æ³ ī
Ġill ness
Ġopp osed
Ġaccord ance
d ependent
åĸ ·
Ġl ady
æĿ °
Ġli ver
ãģ Ĩ
éĢļ çŁ¥
ĠEng ine
éĥ ĳ
Ġur ban
d x
æľ Ĺ
Ġstatist ical
Ġl ayout
ĠE vent
P anel
ĠApp eals
å¹² éĥ¨
ĠA f
Ġr Ã©
Ġbi as
Ġmach ines
Ġwh is
Ġident ical
re ens
åĲ Ĳ
ĠAustral ian
g ence
ter ior
ur i
su per
re nd
ud io
Ġro of
Ġlist ening
By te
ĠCath olic
! \
B ook
ĠC T
æİ¨ è¿Ľ
ĠPer haps
éº ¦
Ġexpl o
Ġbut ter
D raw
Ġf older
Ġapp lying
rape ut
c n
Ġp airs
m al
Ġattempt ed
ç»Ŀ å¯¹
! âĢĿ
ĠĠĠĠĠĠĠĠĠĠĠĠĠĠĠĠ ĠĠĠĠĠĠĠĠĠ
q q
Ġcharacter ized
Ġscen ario
yl van
Ġtemper atures
ä»¥ æĿ¥
ĠHam ilton
éģĵ è·¯
Ġstrugg le
j unit
Ġb ind
çĳ ŀ
çĶ· äºº
c ence
ä¸Ģ åı¥
å¼ Ħ
iss ions
Ġperform ing
ĠA ction
åĬł å·¥
ĠFor ce
Ġaw ait
p ay
ä¸» é¢ĺ
H er
Ġapprec iate
y mb
æĪ ª
ä¹ ı
Ġal gebra
l ab
æ³ ½
æĮĩ æłĩ
ĠSp anish
æ¼ ı
Ġmaint ained
Ġst upid
Ġr ising
ĠMed ical
ut ory
Ġch amber
Ġpl ug
ĠEduc ation
Ġg au
Ġs izes
Ġth inks
æĶ¾ åľ¨
Ġtro ops
Ġintel lect
Ġac ute
W idget
st ra
Ġwed ding
Ġcry pt
ĠÐ ±
çī¹ èī²
Ġmed icine
åĽ¢ éĺŁ
ĠF A
p ie
Ġgr ass
xi ety
ĠOh io
G raph
ĠB ern
åĨľ ä¸ļ
s up
è¡¨ éĿ¢
c ustom
Ã¡ n
M M
h av
Ġdec or
Ġcru cial
ĠF ort
ell ar
Ġ\\ <
Ġdom estic
çħ ¤
Ġre venue
Ġag encies
Ġaddress ed
Ġe in
AR Y
Ġexec ution
W H
ĠG R
Ġperson ally
Ġtom orrow
ĠB it
ĠW ater
rit ing
Ġoper ate
Ġmanif est
Ġlegis lation
Ġadd s
é© ±
è¿Ĳ çĶ¨
Ġfall ing
Ġpursu ant
i ary
ac count
ĠIt aly
ĠF red
çĽ¸ åºĶ
Ġris ks
è ķ
å¥³ æĢ§
Tem plate
iff erent
èģ Ĭ
Ġposs ession
Ġen abled
Ġinst ruction
c pp
Ġpredict ed
Ġenforce ment
Ġst ages
ys ym
Ġres c
çĤ ¸
$ )
ult ural
av el
æĭ ¼
g reek
Ã Ł
å½ĵ åľ°
ir able
set length
atter ing
Ġtr ace
æĤ ī
Cont ainer
Ġstrong er
Ġb in
print f
lik ely
Ġl ens
Ã ĥ
Ġb att
play er
k ind
re ement
Ġus age
b led
Ġvert ical
Ġcon version
è¿ «
æĿ¥ æºĲ
æĦŁ åĪ°
Ġprogram ming
Ġdeath s
( *
uss ian
é¢ľ èī²
æ¯Ķ èµĽ
oper ative
b at
Ġb asket
R ange
Ġb omb
ĠG NU
ĠM s
á Ģ
Ġpart ition
Ġload ed
ch annel
Ġp itch
Ġst em
bl ack
Ġmat ches
Ġal ign
ĠO lymp
ĠAs ia
Ġmount ain
åĪ° åºķ
Ġocc as
ĠL ab
all oc
cent ury
çĤ¹ åĩ»
AP I
Ġfun ny
Ġple asure
ĠC ustom
åħ¨ çĲĥ
olog ist
ĠPro te
Pol icy
Ġhop ing
ä¸Ģ åĲį
å° ĺ
åĵ Ń
h op
Ġd ual
aw a
irt ual
è¿ Ł
Ġbelie ves
ĠCol umb
Ġg iant
ĠTr ust
Ġaff irm
ĠAc adem
å° Ŀ
ack er
ä¸ĭ åİ»
Ġpoly mer
SI ZE
an im
Ġdis order
Ġser um
éħį ç½®
æī ¶
Ġpop ulations
ç»Ī äºİ
Ste p
Ġprodu cing
Ġdep ression
Ġstat istics
Ġconstant ly
çĺ ¤
ĠK n
èĽĭ çĻ½
u ce
ĠW in
pl ot
ire ment
BU G
Ġr ats
ĠE s
éĶ ĭ
B B
E ach
k w
ĠR ay
ç£ ģ
Ġmet ric
Ġcharacter istic
d ig
clip se
b ul
Ġd ance
æĬ ¢
Ġpar se
Ġconstruct ed
éĩį å¤§
Ġparticip ate
Ġpros pect
Ð¾Ð ³
Ġbe ach
Ġed ition
t otal
Ġreturn ing
ĠG O
Ġsuggest ing
Ġmoment um
á º
å°± è¦ģ
Ġall oc
ĠDes ign
ac on
å®¶ éĩĮ
ox y
Ġdifficult y
çĽ¸ å½ĵ
Ġ> >
e ctions
å± ¥
èħ Ĳ
D uring
er ies
ĠR un
sh ort
he mat
ĠĠĠĠĠĠĠĠĠĠĠĠĠĠĠĠ ĠĠĠĠĠĠ
Ġassum ption
Ġk om
æĸĩ åŃĹ
w an
ĠP A
ãĤ ¹
Î± Î¹
åį± éĻ©
Ġs od
ams math
Ġsil ence
Ġdrink ing
ä¸Ģ å£°
s it
åŃ¦ ä¼ļ
Ġref erences
Ġaff ili
æ± Ĺ
Ġexam ine
è¾ Ī
å¤ļ æķ°
apt ain
Ġmetab ol
è¿ ª
Ġsatisf ied
è°¢ è°¢
Ġfif th
ç»ı çĲĨ
Ġinj ured
\\ 
ov a
Ġt ips
ĠM aster
ĠK IND
ĠV i
Ġsm oke
ĠR oyal
å°ı åŃ¦
æĢģ åº¦
Ġal le
Ġsh r
Ġro les
Ġorgan ized
éĹ ²
Ġacqu ired
Ġl ying
pl ain
Rec ord
Ġarchitect ure
C ore
m ove
å® ¾
ylvan ia
Ġsupp lement
æħ §
Ġopt imal
Ġag greg
ĠV ictor
åĩº åİ»
By Id
r andom
Ġmar ks
L ICENSE
U ST
Ġt ack
ast s
Ġinst ances
èĲ ¨
Ġl oud
æ´ ¥
Ġintegr ation
Ġd ys
å¤ª éĺ³
ĠOr gan
R oot
re ll
æĪĲ åĳĺ
çī¹ å¾ģ
Ġleg it
Ġcou pling
prote ct
Ġp ig
Ġsh it
è§ Ī
Ġfl ux
ow nt
ams fonts
En c
R ES
an while
ĠS her
çĵ ľ
æ²Ł éĢļ
M C
app er
äºĭ ä»¶
et he
Ġcon ce
ç§ Ĵ
R ule
Ġrespect ive
pl ant
æİ¥ è§¦
ĠJ r
Ġprov ider
åħ¬ åħ±
Ġse ar
II I
Ġexpl os
åī ©
ss ymb
Par ser
çĽ¸ åĲĮ
H A
ĠVal ley
Ġprepar ation
B E
Ġon going
Ġal pha
ä¸Ģ å®¶
Ġhand ling
Ġpurch ased
scrib e
an z
æĭħ å¿ĥ
ĠJose ph
D ialog
ro gen
Ġst roke
ĠH IV
èĩ £
iz able
P arent
ð Ł
ĠT urn
am ssymb
èº« è¾¹
FA ULT
Ġsac r
B D
Ġl ips
Ġfor um
Ġgreat ly
å¾ Ĵ
Ġ rib
è¯· éĹ®
bs y
Û Į
ri um
end a
rs fs
æħ¢ æħ¢
Ġpass age
t ons
ĠL ocal
Ġad mit
Ġr um
math rsfs
as i
was ysym
Ġfol ks
idem argin
ang ers
up greek
odds idemargin
rupt cy
Ġin frastructure
æĢ Ĵ
ĠY OU
æĭ Ķ
ãģ ĵ
Pro duct
ĠEx ec
é½ ¿
ams bsy
è± ª
Ġcor on
duct or
enn y
Ġf ool
Ï ĩ
Ġtra ined
b ecause
s ave
Ġprior ity
oc hem
Ġbroad cast
åĪĨ ä¸º
ĠI O
Col lection
Ġb ars
oc us
æĲ ľ
i ar
ak a
æĶ¹ åĸĦ
T ab
Ġy ards
red it
R ect
d rop
Ġsp ons
åħĪ è¿Ľ
D el
Ġgr ade
ç¬¬ åĽĽ
åĺ ī
ch arg
éĺ² æŃ¢
æįŁ å¤±
ç´ł è´¨
h ot
Ġcontr ary
st able
ĠP akistan
Ġt un
i at
åĨį æ¬¡
Ġsignific ance
W riter
å¯ ¿
Ġstruct ural
Ġt ank
Ġse es
add r
Ġintrodu ction
Ġevery where
on to
ast y
n ament
æ³ ª
Ġter rible
us cript
ĠN ext
old s
å² ©
ene ath
çĹħ æ¯Ĵ
hand le
> \\
E V
æĳ ¸
Ġw aves
ir y
ä¿¡ åı·
wh ite
Ġcontinu ing
Ġscient ists
Ġspat ial
ĠR et
çŃ ĭ
å¦ Ļ
Call back
ut ter
ĠO l
âĢĶ \\
Ġpres ents
æľ¬ èº«
C V
m aking
ĠRep ort
k now
Ġre ly
ĠC reat
æĿ¥ åĪ°
Ġfore ver
a ire
Ġt act
Ġl ists
. ]
P y
Ġreve al
Ð² Ð°
D ITION
an ed
Ġrepe at
æĽ¾ ç»ı
Ġatmosp here
Ġf iber
Ġassess ed
ĠC OM
onym ous
AB ILITY
othe rapy
Ġn ose
w a
Ġn erv
ĠB AS
b c
Ġelect ed
Ġab und
æĥ ľ
ĠF ather
be ing
G G
ĠW omen
Ġspirit ual
ä¸ĵ å®¶
Ġtrack s
ä¸į ç®¡
å¢ ¨
Ġevery body
Ġdim ensions
t im
C ome
Ġg ay
ag an
Ġcal c
TH ER
Ġcry stal
Col lect
ber ry
æĭ Ĩ
I ter
Ġrad ius
Ġencour age
ä¾ĭ å¦Ĥ
ĠP ub
äºĭ å®ŀ
ĠKore a
elle e
çķ ª
ĠE rror
Ġs oci
el d
åĬ¨ ä½ľ
Ġed it
Ġsho pping
å¹ »
Ġis t
åĩ ¤
Ġnat urally
Ġcompens ation
æĺ Į
Ġrepresent ing
ĠS at
èģĶ åĲĪ
child ren
Ġwith draw
Ġsp okes
In st
enn a
l ot
ĠL ew
Ġag ric
Ġtem porary
Ġl ov
çĶŁ ç´ł
ĠH ospital
Ġc ig
ä¸Ģ è¾¹
ut able
æĭ ¨
S ort
k it
Ġover ride
Ġob st
uc ks
crib ed
è£ħ ä¿®
n p
ĠC ase
åĪ© çĽĬ
Ġintegr al
m us
ĠW alk
Ðº Ð°
r ig
ag ment
åħ ½
ax is
Ġm apping
Ġper m
ç»´ æĬ¤
è¯´ è¯Ŀ
m eta
w hel
çľ ł
ĠHar ry
ra ined
Ġengine ering
Ġexc iting
ble m
Ġgu est
Ġbeh alf
T EST
s ylvania
rec ord
Ġsepar ated
l ers
ĠTh ough
Ġinter ior
Ġtrad ition
Ġrespond ed
Ġam plit
Ġsepar ation
éĢĤ å½ĵ
ĠT ake
èģ ĺ
min ent
er as
çŃ ¹
ik a
ial ize
Ġimp lements
å®ŀ åĬĽ
Ġtem p
Ġmag azine
osp it
M ain
Ġsm iled
Ġf ired
ĠP erson
æķĪ çİĩ
ĠD isc
Ġsub stance
Ġadvert ising
Ġch a
ç¢ ³
re place
ĠE nergy
f i
t ry
Ġlawy er
Ġden ote
Ġcalcul ate
ä½ĵ çİ°
S ing
åħ ¼
ynam ic
ĠL abor
Ġperiod s
ol i
ĠU I
Ġcomb at
/ \\
Ġmole cules
ĠO K
éļ Ĩ
ĠMan agement
H ost
ĠSt ill
OR E
çķ ħ
Ġneut ral
et ies
ĠP ass
Ġgl uc
æ¯ķ ç«Ł
Ġinn oc
at re
Ġo sc
Ġin comp
P ORT
S pe
Ġcomp rom
Ġeng age
Ð» Ð°
Ġreject ed
Ġproport ion
æ·± åħ¥
> &
Ġsyn chron
ä¸į äºĨ
Ġdecl ine
h om
up le
èĲ¥ éĶĢ
Ġc able
* /
ĠF ood
room s
å§Ķåĳĺ ä¼ļ
J SON
hel p
s creen
Ġexpl ains
ĠL ove
Ġacadem ic
Ġde ploy
Ġdestroy ed
m ole
in ction
ĠSt an
é¢ Ī
Id ent
Ġcut s
el ing
ĠH on
Ġbet a
æĤ ²
Ġemploy er
Ġconstit utional
Ġinval id
à ª
ĠP an
Ġres olve
Ġcover ing
ĠG ra
ob by
T otal
cl oud
å°½ éĩı
Ġaccom pan
æĢĿ èĢĥ
Ġth orough
am i
å¤Ħ äºİ
Ġsubstant ially
Ġuns igned
ĠL ibrary
uff icient
Ġclos ing
Ġhol iday
Ġfac ed
rupt ed
Ġox id
il ation
A pi
Ġf el
ĠL y
ip h
ĠK en
d c
es h
om al
Ġem br
gl obal
H as
Ġvis ited
Ġb id
Ġme re
Ġl in
Ġsh out
Ġschedul ed
Ġproceed ings
å¸¦ çĿĢ
åį µ
ach ine
P ut
a fe
ast ed
ann y
Ġsem i
èħ ¾
Ġinsp ired
. *
ĠD ig
åıĺ å¾Ĺ
z ero
ur d
åħ¬ è·¯
Ġnod ded
å® ¿
å¿ ł
yn om
ĠDes pite
ocol ate
Ġbl ess
E CT
og g
çľ ī
Ġcommit ment
æľº åĪ¶
Ch apter
æľį çĶ¨
å½¢ è±¡
} /
Ġstring s
Ġton ight
Ġpre jud
D ocument
ç®Ģ ä»ĭ
åĲ ¹
Ġnot ion
vent ions
j ob
ic ht
Ġstay ed
= {
ĠC EO
åŃ ¤
M D
ĠR est
Ġprec isely
ĠReturn s
Ġemb od
ans as
Ġpre val
Ġgu idelines
Ġatt ributes
Ġdifferent ial
Ġbu ck
men u
i em
ç² Ĺ
ĠAnd rew
ĠF ox
Ġsub mit
rol og
y st
Ġh am
eli hood
Ġin ject
Do es
Ġchalleng ing
Ġde ar
ĠSer ver
f our
ĠM other
conom ic
o z
Ġpark ing
or i
Ġdo ctors
ir th
çº ł
Ġsign ature
Ġwrit es
çº µ
Ġcalcul ation
Ġt err
Ġy eah
åį³ ä½¿
Ġopin ions
Ġg ang
Ġpe pt
Ġsur faces
Ġenh anced
Ġinvest ors
Ġpack ages
c us
Î ¸
az a
Sy mbol
Ġb unch
doc s
èª ī
Ġme al
Ġmanufact uring
æĻ ¨
Ġhard er
è¡¥ åħħ
Ġdeep ly
Ġst om
Ġcon front
Ġtal ks
åı Ķ
Res ults
Ġden omin
Ġcapt ured
Ġy e
se x
ur able
ĠC ross
æĤ¨ å¥½
Ġdire ctions
ord ered
A v
N ET
Ġpat ent
Ġprofess or
Ġpartners hip
Ġhypothes is
hold er
ĠB Y
ĠM useum
å¾Ģ å¾Ģ
g ression
Ġse vent
Ġform ing
c pu
ĠPol icy
ĠRepublic ans
× Ļ
å¹´ åº¦
Ġmat hemat
Ġcontr ad
Ġpro l
Ġco vers
Ġtra v
ç»Ł è®¡
form ance
å¼ķ å¯¼
å£ ®
) [
Ġqu ad
Ġsuff er
æ¹ ¾
scri ption
Ġor th
| \\
gh an
è¾ ŀ
ĠLem ma
ab eth
ĠP a
d ated
Ġadministr ative
éª ¤
con sc
ne cess
ĠĠĠĠĠĠĠĠĠĠĠĠĠĠĠĠ ĠĠĠĠĠĠĠĠ
Ġf er
ĠS on
Ġconserv ative
h h
in st
éĹ ¹
ãĤ ī
Ġwond ering
g ly
= (
art s
arg ument
gr id
ow a
ĠE V
P RE
Ġwrit ers
ç§° ä¸º
éĿĴ å¹´
Ġregular ly
ru le
ĠW is
are a
con nection
åĽŀ äºĭ
ir k
Ġstud io
ev in
Log ger
app lication
Ġrep ly
Ġmagn itude
Ġn ur
ĠB ush
E rr
Ġt ape
se ason
Ġst ir
ĠH ave
ĠN umber
éĤ£ æł·
arg o
Ar t
w indow
Ġb atch
Ġfood s
Å Ĥ
ĠG reek
ĠC I
we ek
Ġcal m
æŁ ³
by tes
Ġreview ed
Ġcir cul
å²Ĺ ä½į
ĠSc ot
dom ain
èĤ ļ
Ġt ube
f ive
ĠH ard
ĠQue en
Ġf ur
Ġcall back
el ve
Ġint ra
b ell
ĠC S
å¤§ æ¦Ĥ
amp s
ÑĤ Ð¸
gress ive
ĠI re
th ree
ap h
èİ ±
on om
æīĢ è°ĵ
çİ° å®ŀ
Ġang ry
Or ig
f amily
p ad
ĠCon stitution
é¢Ħ éĺ²
Ġserv es
Ġunivers al
åĳ µ
è¿Ĳ è¾ĵ
Ġsize of
éĢĤ åºĶ
Ġsil ent
Ġaw esome
us r
Ġtrad ing
Ed it
ä¿¡ çĶ¨
Ġend ing
æ® ĸ
c am
Ġb oss
lo or
b oot
Ġre aching
ĠR ights
Ġdo ct
Ġg otten
Ġche cks
â Ĺ
it ems
Ġt ired
ãĤ Ĥ
Ġapp ell
Ġm arg
qu es
ĠAb out
ro le
æİ¨ åĬ¨
ĠI F
em ed
Ġexec ute
Ġexecut ed
raz il
Ġt ens
ĠP ath
Ġb il
ĠG L
Ġalleg ations
çĶŁ éķ¿
ock er
ç¡® å®ŀ
part y
ç¢ °
Ġsum mar
Ġsett led
inter face
Ø§ Ø
q quad
åħ ģ
Ġdes per
ĠAd v
b est
lim its
ĠSte ve
ĠC ur
Ġsh ook
ĠBro ok
Ġm Ã¡s
å¼ ¯
èĥĮ æĻ¯
Ġaware ness
Ġrequ iring
åħ¶ å®ĥ
æģ Ĵ
) ]
M B
Ar gs
Ġowners hip
H ave
Ġman uscript
åĳ¼ åĲ¸
ĠCol l
o is
ĠEx per
im pl
ĠW as
Ġp i
Ġu pload
ĠD ou
end or
Ġg ear
ĠW hether
Ġbul k
d id
w orth
Ġheav ily
rapeut ic
ĠCar l
ĠS P
åĦ¿ åŃĲ
Ġbare ly
Ġdec ent
in stall
ä¼ ı
Ġinv ari
ç« ¹
Ġgu ests
Ġread s
Ġeduc ational
Ġstri p
b atch
èĩ³ å°ĳ
Ġthrow n
Ġconsequ ence
Inter face
May be
ĠS outhern
ĠM ic
è¦ Ĩ
Ġnewsp aper
Ġthe orem
Ġc ov
ĠAdd itionally
S ection
æĿĥ åĪ©
B as
U nder
t rain
ad ium
Ġc av
ĠG iven
åŀ Ĥ
Ġath let
Ġw ake
ĠE mp
Ġan xiety
ĠDet ermine
Ñ ĸ
Ġexc it
åĩ½ æķ°
f c
Ġwor ried
æĦŁ æĥħ
Ġa z
d ays
ĠS che
ibr aries
C le
ĠGl obal
b ow
im ages
all s
$ _
å² ¸
Ġtal ent
in ch
Ġp ocket
Ġmy st
åĪ° è¾¾
log ger
ust ration
çĪ¸ çĪ¸
Ġn urs
Ġt il
ä¸į å¤Ł
Ġch at
Ġrout ine
æĬ ĳ
field s
Ġper mitted
Ġob serve
éĢĤ çĶ¨
h m
let ion
Ġth y
ĠB udd
è° ĭ
ĠLic ensed
re nder
ĠB ell
ie ve
ĠJew s
Ġs li
Ġe igen
Ġsho es
f d
æĸĩ åŃ¦
L Y
ĠR od
il ib
ĠM ain
åģ ·
éĢĲ æ¸Ĳ
æŀ Ŀ
el come
ç¼ Ŀ
ĠMus ic
Ġent ering
Ġsw im
F ound
if act
åħĥ ç´ł
èģĮ å·¥
Ġwhere in
æľ µ
ĠSer ies
ĠL I
Ġcommun ications
p atch
Ġm oon
Ġdis h
è®¨ è®º
r h
Ġp atch
æĦ Ī
Ġcur ves
uss ion
ä¼¤ å®³
L oc
ä¸¤ ç§į
Ch annel
æ±¡ æŁĵ
æ¬ £
year s
× ķ
å¸¸ è§ģ
m ock
as er
Ġfact ory
æ³ Į
cm d
æľ¬ äºº
æĥħ ç»ª
wide hat
ĠL ear
pref ix
çľŁ å®ŀ
çĵ ¦
ĠArray List
Ġc ited
Ġ ë
Ġcar rier
Ġosc ill
ä» Ķ
Ġcomp os
p al
ĠM ir
Ġconsider able
à ²
æĶ» åĩ»
mat ory
Ġf lying
Ġde leg
Ġdecre asing
Ġf ed
B ytes
Ġto w
ĠS n
Ġwe ird
Ġenc oding
ile y
éģ Ń
ĠTechn ology
Ok ay
ol y
ä¸º ä¸»
Ġmet a
çľŁ æĺ¯
Ġb eneath
rou s
åħļ åĳĺ
Ġsim ulation
æ¶Ī æģ¯
Ġsett lement
Ġtransfer red
Ġadequ ate
F inally
et ary
ä½ľ æĸĩ
ĠWil son
Ġelse where
Ġround ed
sh ared
AR D
An im
ç¾ ½
F ont
w ait
ĠF amily
Ġrec ipe
Ġlab els
A uthor
Ġmeet ings
Ġmort ality
ĠB al
æĻ ĵ
Ġt u
ev al
æ¡ Ĩ
Ġbow l
ond er
æ°§ åĮĸ
è¯¦ ç»Ĩ
ĠS ov
ĠPenn sylvania
ord an
è² Į
ĠT erm
ç» ĺ
èĲ¥ ä¸ļ
Be an
m ate
n ie
Ġh ier
Ġ_ {
Ġconven ient
re lease
if ting
Ġp el
inte rest
p ic
Ġc ock
ant i
i ations
MA X
est yle
G rid
åĲ¬ åĪ°
åįı è°ĥ
y al
é¼ ł
Ã© t
ĠR h
Ġche ese
ĠComm unity
A CT
Ļ ª
åĮ Ģ
Ġv ice
Ġsome body
éŀ ĭ
ĠH a
å¦Ĥ ä»Ĭ
Ġsc ream
mb ols
Ġput s
Ġliter ally
pass word
Ġam pl
Ġsearch ing
è¾ĵ åĩº
Ġsh ips
eng ine
å¤į æĿĤ
è¡£ æľį
j ack
p ow
Ġex clusive
ĠH un
Ġb ub
ab e
Oper ation
ãĥ Ī
vious ly
æ¯ı æ¬¡
l an
è§Ħ å¾ĭ
çĽ¸ äºĴ
å¾ ¡
Ġcomprehens ive
p ot
ĠT aylor
ĠK im
Ġunus ual
Ġthere of
Ġch icken
Ġle af
Ġsc rew
Ġmod es
å¤© ä¸ĭ
Ġp H
ors es
Ġdesign s
æĦ¿ æĦı
éĿ© åĳ½
ĠM u
ä¹Ł è®¸
Ġsy mp
Ġw estern
ĠCon f
å§ ĳ
ino is
Ġman ual
ÑĢ Ð¾
r ated
çŀ ¬
h our
s ch
ĠA LL
ä¸Ģ åıª
Ġcr imes
æ¦Ĥ å¿µ
Ġun likely
mod els
uns igned
ĠĠĠĠĠĠĠĠĠĠĠĠĠĠĠĠĠĠĠĠĠĠĠĠĠĠĠĠĠĠĠĠĠĠĠĠĠĠĠĠĠĠĠĠĠĠĠĠĠĠĠĠĠĠĠĠĠĠĠĠĠĠĠĠĠĠĠĠĠĠĠĠĠĠĠĠĠĠĠĠĠĠĠĠĠĠĠĠĠĠĠĠĠĠĠĠĠĠĠĠĠĠĠĠĠĠĠĠĠĠĠĠĠĠĠĠĠĠĠĠĠĠĠĠĠĠĠĠ ĠĠĠĠĠĠĠĠĠĠĠĠĠĠĠĠĠĠĠĠĠĠĠĠĠĠĠĠĠĠĠĠĠĠĠĠĠĠĠĠĠĠĠĠĠĠĠĠĠĠĠĠĠĠĠĠĠĠĠĠĠĠĠĠĠĠĠĠĠĠĠĠĠĠĠĠĠĠĠĠĠĠĠĠĠĠĠĠĠĠĠĠĠĠĠĠĠĠĠĠĠĠĠĠĠĠĠĠĠĠĠĠĠĠĠĠĠĠĠĠĠĠĠĠĠĠĠĠ
åĩĨ ç¡®
ĠAccording ly
Ġd ating
low er
Ġel ig
ĠÐ½ Ðµ
ĠL ittle
ific ial
Ġsur gical
Ġdat aset
ĠCON DITION
Ġbott le
è¿Ľ æŃ¥
i ological
ĉĉĉ Ċ
Ġprec ise
Ġgun s
Ġn orthern
ĠĠĠĠĠĠĠĠĠĠĠĠĠĠĠĠĠĠĠĠĠĠĠĠĠĠĠĠĠĠĠĠ ĠĠĠĠĠĠĠ
éĩĳ å±ŀ
Ġste pped
g un
ĠT al
Ġv oc
ä¸Ģ ä»¶
Ġsh adow
åł Ĩ
rop ri
Ġres olved
èĢģ äºº
Ġvisit ors
f ather
Ġh oles
ĠM id
Ġpath s
è¯¾ åłĤ
ne q
Ġatt ended
Ġclass ification
anc hes
ari ju
åĭ Ĵ
Ġe ase
Ġ Ä
Ġref ers
G O
d k
ĠH o
on ed
Îµ Î¹
åģļ åĩº
Ġguarant ee
å¥ ı
Ġd ates
Ġmatch ing
I X
å½ ¼
æŁ ľ
æŃ£ å¼ı
Ġdel ight
ariju ana
Ġde but
Ġar rive
Ġprom ised
Ġbreak fast
Ġsurv ive
ul um
ĠâĢĵ 
Ġcompet itive
Ġover whel
reg ister
Ġclean ing
h l
Ġno body
æ°¸ è¿ľ
ĠW ild
ĠIn vest
ĠD am
çİ »
G en
Ġmove ments
Ġdiam eter
Ġal k
Ġhop es
åªĴ ä½ĵ
Ġen orm
Ġsatisf y
ĠCorpor ation
ĠL ead
ĠAm ong
D L
ad el
Ġ( âĢľ
è· ¨
lo op
ĠSp ace
Ġimpro ving
å¤ ¹
éĩį è§Ĩ
re v
Ġprom ot
æŀĦ æĪĲ
Ġcontract s
ĠPac ific
ĠG all
Param eters
Ġappoint ed
åĬ ²
Ġdiv ide
Exp ression
çĸ¼ çĹĽ
Ġsimult aneously
Deb ug
Ġcon crete
Ġign ored
åĿ ¡
hy dro
^ âĪĴ
ĠU k
Ġtra il
Ġc ow
Ġmir ror
V M
çĤ Ĵ
s ys
ell ular
Ġin her
eng ers
T ra
are r
Ġs outhern
æĽ´ æĸ°
Ġinj ection
Ġrough ly
F E
Ï į
åıĬ åħ¶
an th
Ġn ations
æ¼ Ĥ
Ġprint ed
Ġprofession als
tem p
Ġa ver
Ġprov en
Ġent hus
Ġdro ve
ĠW ord
uck y
Ðº Ð¸
Ġbas eline
U sing
pro file
ogen ic
b ec
æ¯Ķ ä¾ĭ
z h
Ġfil ing
Ġdem ands
test ing
ĠJ un
ush ing
Ġt mp
ĠCONDITION S
is p
ĠL im
Ġco inc
å¿ĥ æĥħ
Ġsynd rome
Ġt y
Ġas ks
ol ver
Ġdevelop ers
èĳ £
N ULL
ä¸Ĭ è¿°
Ġg am
Ġdis orders
in ator
æĤ Ł
to ols
æĪĺ äºī
Ġl anguages
Î ´
çİ Ħ
ç² ĺ
Ġinstall ation
Ġexplicit ly
Ġs essions
ĠT enn
ä¸´ åºĬ
io x
oid s
d epend
Å Ł
Ġs el
éĿ¢ åīį
Ġr ice
Ġtrans lation
ĠSy ria
Ġarbitr ary
ĠI mm
å°± èĥ½
Ġgr an
less ly
Ġfail ing
ou ter
ĠWe ek
ĠMich igan
Ġv ital
Ġcomp osed
Ġstat utory
Ġloss es
Ã ½
Ġtop ics
Ġtele phone
D oc
J ob
ĠR ub
put er
Ġd ont
D O
E P
iz abeth
Ġwork er
è®¡ç®Ĺ æľº
T V
å¥ ī
åĽŀ åĪ°
Ġorient ation
Ġfew er
Ġin equ
éĻĲ åĪ¶
Ġdel iber
Arg ument
ex port
Ġ& \\
å°ı ç»Ħ
Ġpass es
ask a
p rom
Ġar med
çĮ Ľ
is o
op ed
å°± åľ¨
Ġpr on
H i
çº ¤
D IR
è¶ ĭ
Des criptor
e very
Ġcont est
Ġ[ '
åĲĪ æł¼
ç¢ į
Ġbir ds
ä¸į åĨį
Ġre actions
ĠB u
ä¸Ģ èĩ´
åĿ ¦
Ġear ned
æµĭ éĩı
Ġd ad
Ġaddress es
pr im
å¤ª å¤ļ
Ġst ations
Ġt ent
åĳ¨ åĽ´
ĠL ie
ĠR og
çĶµ è·¯
n ut
H istory
Ġ\\ {
Ġapp end
è½¦ è¾Ĩ
Ġpresident ial
Ġcook ing
ĠB on
ĠO k
è¯ķ éªĮ
Ġm ild
Sh ow
t an
anc ial
Ġrece iver
olog ic
z i
f act
o es
n an
y o
Ġun expected
s ort
ĠB O
å®ļ ä¹ī
ĠI C
é£İ æł¼
ĠĠĠĠĠĠĠĠĠĠĠĠĠĠĠĠ ĠĠĠĠĠĠĠĠĠĠĠĠĠ
com ment
ç¾İ ä¸½
cont ains
Ġpow der
b us
w idget
æľī æīĢ
Ġact or
æĸ° éĹ»
èµĶ åģ¿
Ġt ied
ĠA sh
Ġgau ge
ro c
Ġn g
ä¾Ľ åºĶ
m other
ĠÂ ¶
Ġlik es
rep resent
Ġle ct
com fort
Ġprodu ces
ç± į
zy me
Ġcon sec
ag r
Ġl ocked
ç»Ļ ä½ł
e ared
Ġatt itude
Ġworld wide
reat ment
ãĤ Ĭ
M ed
Ġkn ock
ant o
H ello
Ġh int
ä½ĵ èĤ²
over ty
ä¹ ĥ
Ġfound ation
Ġmus ical
Ð½ Ñĭ
ĠDav is
ĠHe ad
æĽ ¹
SE T
ĠAm endment
ge x
bl ue
u um
ĠS ometimes
Ġra rely
ä¸¤ äºº
Ġconc ert
æµ ħ
Ġnam ely
S ur
S upport
ĉ Ġ
Ġm ood
ĠM inn
ĠHT ML
ol o
ç»¿ èī²
ac cept
IG N
Ġviol ent
Ġarr anged
Ġinvolve ment
è´· æ¬¾
M c
Ġtrack ing
åĢ¼ å¾Ĺ
Ġdepend ence
Hand le
t ake
ay a
un ct
Ġconst raints
ag g
Ġhead ed
Ġquant ity
èŀ º
Ġtick et
ĠBAS IS
V C
Ġh its
åİ ī
Ġcoun cil
t or
ag ain
con duct
Ġdis charge
å®ŀ åľ¨
Ġfound ed
æµģ ç¨ĭ
Ġult imate
Ġkne e
ĠCont in
é©¾ é©¶
en able
Ġro ots
æ¬¢ è¿İ
in line
ç¼ ´
Ġpul se
ĠChild ren
g reen
ä¿ Ħ
Ġinv ited
ĠF unction
e h
v s
åī ª
Ġcheck ing
fil ename
Ġ} )
Ġent ries
Ġexpect ations
Ġp ill
min us
Ġmult ip
Ġa uf
äºº åı£
Ġperson nel
Ġas semb
ĠM att
è¿ħ éĢŁ
arch y
åī ²
D ist
ĠAd am
Ġload ing
Â «
Ġlov ely
H R
æīĭ æ®µ
Ġd ir
amp ion
éĶ »
Sche ma
Ġdenomin ator
. ;
Ġcalcul ations
or ous
Ġk il
Ob j
I SE
ĠK enn
U SE
pe red
æĭ Ĵ
å·¨ å¤§
E val
æł· åŃĲ
éĵ ľ
Ġsufficient ly
D ER
æĭ ĵ
æŃ» äº¡
ĠTh rough
T im
Ch rist
Ġfrequ ent
Ġb ands
ict ure
Ġcont ributed
Ġfall s
Ġfrag ment
act ivity
Ġver dict
ĠPh ot
it Ã©
å°ĳ å¹´
åħ¬äº¤ è½¦
Ġtheoret ical
chi at
v y
st o
çĬ ¹
Ġsp ark
ĠGu ard
ĠH ash
Ġpl ur
æ² Ī
ish op
Ġremem bered
m ine
r ison
Ġt ears
es ides
_ ;
Ġg re
éĻ ª
è¸ ı
ä¸į æķ¢
Ġdismiss ed
Ġpenal ty
op her
ĠPro cess
Ġcou pled
Ġo mitted
ĠT our
Ġu buntu
d m
Ġb orrow
Ġin cl
Ġimp osed
Ġte ch
lo om
ik ip
S ch
in os
ar ry
mer ce
éĥ ģ
P ool
Ġh orm
Ġe lections
and ed
çľĭ è§ģ
A K
ĠB ible
IT E
èĩ³ äºİ
èĴ ¸
he ld
ym pt
Ġcap ac
d am
Ġ Ñĩ
Ġe en
it ical
ĠR en
Ġexp enses
Ġcell ular
d n
FF FF
ĠSw ed
S k
ĠR os
å¹´ é¾Ħ
Ġmag net
ĠLin ux
Ġthick ness
ow ed
ix els
ou ston
èĢĥ æł¸
H igh
st age
ĠHol ly
Pr int
Ġg ained
ud a
Ġpol ynom
Ġo h
be en
z one
æľī åĪ©
ick et
Ġdi verse
ç»Ļ äºĪ
èī ¾
Ġappe als
ĠIre land
Ġde als
èİ ²
appro x
ĠPalest in
sens ors
Ġpers u
A ng
sh ift
è° ±
åĬł ä¸Ĭ
Ġdis pos
ç½ĳ ç«Ļ
d agger
ef ined
çĲĨ æĥ³
Ġbes ide
ĠM iller
N C
Ġm ath
Ġr ural
Ġaim ed
ĠB razil
att ice
& \\
ĠR ome
Ġsp an
Ġrep utation
èĪ °
S Y
u ating
ce ive
ament o
Ġep it
ĠR yan
éĤ£ ç§į
æĻ ĭ
Ġdisc ount
ä»İ äºĭ
è´¢ äº§
ĠL ady
ard ed
Ġop ens
åħħ æ»¡
Ġc odes
çī ¢
Ġw ound
Ġb io
Ġn m
ä¸ĭ è½½
Ġview ed
cont ainer
ä¾Ŀ æ³ķ
Ġadj acent
Ġan ger
åľ¨ äºİ
æ¶Īè´¹ èĢħ
æĪĺ æĸĹ
ä» ĵ
æł ı
æīĢ åľ¨
Ġmount ed
Ġluck y
he art
is ition
ut y
ĠP en
Ġhydro gen
å¾Ī å¿«
Ġingred ients
Ġinter mediate
IN S
Ġreason ably
Ġa er
Ġm u
å¿ Į
ĠStand ard
Ġphilosoph y
ar ly
Ġcons pir
ãĤ ¤
è¿ŀ ç»Ń
v ideo
po on
G P
pp ers
op es
In s
Ġthe ories
Ġde ck
ĠL ow
è¯Ħ ä¼°
h d
Ġa ux
ĠM O
ĠApp lication
åĬ¨ åĬĽ
Ġtarget ed
æı ´
æĿ¥ äºĨ
æį ·
n m
Ġan ch
Ġprov iders
å§ ľ
og a
Ã ¹
am ination
Ġse ver
Ġsm oking
LE D
Ġaward ed
ĠH E
ĠE lect
çĽ ¾
m ates
Ġj ail
M ake
ĠC ook
ult y
æĿ¥ çľĭ
Ġdi agram
ikip edia
Ġbuild er
oc ytes
proto buf
ch anged
h uman
ĠB a
Ġbox es
Ġscreen ing
Gl obal
pt ic
Ġref uge
èĶ ¬
pl ugin
Ġnerv ous
ĠSp ain
ĠDes cription
Ġconvert ed
æĬķ åħ¥
Ġo w
ĠA ccess
ĠL u
Ġem otion
Ġco at
Ġf i
ess ages
ack ed
åħ¬ å¼Ģ
ĠWith out
Ġflu ores
Ġmin i
Ġrestr icted
g it
ä¸Ģ çīĩ
å¹² åĩĢ
Ġrob ust
M sg
c it
Ġm erc
æĮ ĸ
Ġdivers ity
Ġpro be
ne x
Ġover come
ç½ ²
D om
Ġimp ressive
Ġconf ident
En abled
Ġc yl
Ġmonth ly
ĠInd ust
å±ħ æ°ĳ
C ur
Ġa qu
Ġmy th
Ġkn ife
Ġsupp lies
ĠT ri
ä¸į å¤ļ
Ġins ight
Ġcolle agues
ry ing
ĠL ind
åĲĮ æĦı
Ġpar agraph
Ġgovern ments
comp onent
Ġdeb ug
Met adata
èµ ĸ
Ġsubsequ ently
çĩ ķ
è´ ¡
Ġdist urb
Ġgener ic
æ·» åĬł
av id
FI LE
Po inter
t n
Ġm unicip
Ġphr ase
Ġh ospit
G eneral
Ġd rew
Ġsur ge
æľº åĻ¨
ĠS aint
ĠC ru
Ġdis pute
Mat rix
Ġnic ht
d ra
Ġs que
Ġcl othing
Ġconf lic
Ġegg s
Ġintellect ual
Ch anged
Ġsim ulations
çļ Ĩ
éģĵ å¾·
Ġdiscuss ions
åĲ¸ æĶ¶
H L
Ġ- \\
ĠO x
ĠG i
Ġra ising
new s
! )
M ock
ĠP ot
è§Ĵ åº¦
åĩº çĶŁ
åĲİ éĿ¢
Con nect
æŃ¥ éª¤
Pl ayer
ĠL ink
Ġtim ing
Ġlib eral
IN FO
Ġmem or
che m
Ġland scape
R ad
èĥ½ éĩı
Ġoff ensive
P res
Ġj et
Ġpart ially
Ġtrans actions
Ġsch olar
Ġpil ot
ĠOffic er
Ġcorrespond s
Ġdis abled
Ġper ipher
we alth
ex cept
Ġaccess ible
Ġflow ers
py thon
ĠIsrael i
m ind
li x
çĴ ĥ
p air
Ġsupp lied
ili pp
d ers
å® ı
èľ ľ
Ġcust ody
çĶµ æ±ł
ĠPr ime
Ġut ility
Ġconcept s
Ġbacter ia
M I
M s
W orld
â ĺ
Ġ ell
ro se
ĠD at
Ø ©
Ġdiff er
ond e
b ury
on i
um my
éĴ »
çªģ åĩº
ĠĠĠĠĠĠĠĠĠĠĠĠĠĠĠĠ ĠĠĠĠĠĠĠĠĠĠ
Ġint ense
æĴ ĳ
Ġcook ies
w all
ST AT
Ġimprove ments
ä¸Ģ ä»½
D isc
St orage
å±Ģ éĥ¨
Ġclust ers
end e
ak i
çī© çĲĨ
Ġperson ality
ĠCon ference
ä¹ī åĬ¡
ÐµÐ½ Ð¸
Ġf et
æ´ ª
Ġmem ories
Ġpush ing
Ġfeat ured
ç»ĥ ä¹ł
P ay
G S
Ġcan cel
å¼Ģ æĶ¾
ä¸» ä½ĵ
Ġchild hood
ĠGeorg ia
: (
Ġgener ating
P i
çĲĨ å¿µ
Ġcomplex ity
å¹¼åĦ¿ åĽŃ
Ġcour ses
Ġref lected
ĠN ight
riv ial
åľ° ä½į
ential s
çħ ®
Ġbi ke
os ity
è½ ¨
Ġgu itar
Ġsw it
m ember
j et
Ġsure ly
å§ĭ ç»Ī
èĤ ©
Ġpos it
back ground
ĠBl ock
aug hed
ul ator
Ġvari ations
Dis play
ä¸ ²
em an
æĽ °
aw are
æķ´ çĲĨ
å¹¿ å·ŀ
s is
Ġp ounds
Ġb ull
Ġb ird
éª Ĺ
ĠH as
ĠN AS
Ġcomp ute
Ġhy brid
qu al
Ġun like
æĢ§ è´¨
Ġdiscl osed
ĠA ward
ĠSh ould
ç¦» å©ļ
Ġcere mon
å¤ º
y ard
Ġst abil
ĠA z
Ġr ating
æıĲ åīį
Ġpain ting
Ġrestr ict
Ġsymm etry
å¥½ å¥½
Â ĥ
met adata
åĲ¦ åĪĻ
Ġmer ch
T oday
Ġin ev
ĠO ption
ä¹Ł è¦ģ
b urn
e ach
form s
m ation
Ġsh ots
adv ant
e lect
Ġt ong
Ġdo zen
Ġlabor atory
S ER
Ðµ ÑĢ
on io
äº ©
å°± ç®Ĺ
ä¹¦ è®°
Ġd ownt
Ġr ab
xx x
Ġneur ons
L o
on ing
ge red
Ġcont ends
ä¸Ń éĹ´
ĠUn fortunately
Ġth rew
Ġi Phone
Ġadvant ages
ĠB ased
Ġsem icon
å®ļ æľŁ
ĠÃ ¨
S N
Ġres ist
Ġcomput ers
hold ers
Ġg el
Ġse ats
åĵª ä¸ª
èµ ¢
As ync
ĠBe ach
st ers
r ays
Ġimp ression
è· ĥ
hel ial
Ġdispl ays
St ud
con c
æ¶ ¨
Ġanal yt
c as
to o
ĠPro duct
zz le
Ġou ght
Ġpregn ancy
end ers
åĪĨ åŃĲ
Ġmed ian
Ġbr illi
ĠAss ert
Ġterrit ory
ĠC y
Ġreg ression
Ġguid ance
ĠLew is
Ġstom ach
P ub
Ġp se
IT ED
ĠAf ghan
ĠC as
ä¹ĭ å¤ĸ
å¹³ è¡¡
Ġphys ics
Ġdu plic
Ġd reams
å¥ Ķ
Ġhere in
ib ration
çŃī çº§
Ġest e
he ll
ĠN ode
Ä ħ
ĠH al
Ġse asons
Ġbl ame
æ¢ ¯
Ġcoord inates
ĠN orthern
Ġfl av
ĠCo ast
Ġqual ified
ĠP op
Ġex em
åĩ Į
ad min
Ġcomm ands
ĠR NA
B it
Ġ ip
Ġvot ing
ig ate
çĤ ī
è° Ĳ
Ġpar ad
Ġcomplet ion
Ġh ip
ä¸ĭ éĻį
s ample
ffic ients
Ġp ixel
em ic
Ġl oyal
Ġdiscrim ination
Ġstead y
ĠR ow
Ġdis ability
ĠÃ Ĺ
ĠS anta
ĠM ajor
I RE
ĠF ri
Ġde eper
F ree
Ġt ensor
Ġcor rection
åĬŀåħ¬ å®¤
ĠIr ish
g rav
èĨ ı
Ġarrang ement
Ġc aps
enc ia
Ġlet ting
ĠCons ider
B P
Ġs oph
ĠC ost
Ġar c
Ġdiv or
Ġmaint aining
Ġsynt hesis
inte gr
åĩł å¤©
C ond
Ġthe rapeutic
åĪĨ äº«
å¼Ĥ å¸¸
ure r
Ġtiss ues
ĠCent re
Eng ine
f ar
ĠMark et
Ġcorpor ation
Ġuncertain ty
w atch
æĦŁ è°¢
Ġinc hes
s chool
Ġ Ñĥ
ok er
ĠB ru
Ġag es
aps ed
ag onal
å¼º å¤§
ĠS ource
ä¸į ä½ı
å¹´ çº§
ON T
b oy
Ġsh ipping
Ġcontroll ing
Ġneigh b
ir ts
reg ion
ĠR ose
å§ Ĩ
Ġscen es
re tt
ä¸į æĥ³
ĠAs ian
Ġple a
ĠM om
åĪĨ ç±»
Ġflex ible
ĠAcadem y
w ent
Ġla pt
SE LECT
Ġarriv al
åĪĨ éħį
Ġsau ce
it age
Ġl aughed
) +
A uth
ĠT OD
å¾ª çİ¯
x s
Ġp ace
æĬ ļ
Ġsm ell
æ¡ Ĥ
Ġenc ounter
= =
Ġshould ers
Ġpath way
Ġnumer ical
Ġregist ration
Ġm ais
Ġd ial
ĠF BI
Ġval ve
Ġdi pl
Ġo cean
Ġconv in
Ġaccompan ied
E ffect
s ince
åıĤ æķ°
Ġwebs ites
Ġwa ited
Ġs aving
ap shot
get Name
çĪ± æĥħ
èĦ¸ ä¸Ĭ
un es
Ġparticip ation
ĠC ub
is ons
Ġm ater
Ġincred ible
ut ing
ĠC ore
Ġbrother s
è¿½ æ±Ĥ
ac ht
åĵ ²
olog ists
Ġprocess ed
Ġgenu ine
çĲ ´
ĠV iet
å°ı åĮº
æ»¡ æĦı
Ġul tr
ĠS W
ĠIslam ic
w rap
Ġf ract
ĠC urrent
j ar
sk y
p resent
æ Ĩ
Ġmod ules
å½ĵ åīį
Ġcr ash
åı£ æľį
Ġm useum
Ġl ux
åĲ Ĭ
åĪĨ å¸ĥ
Ġrem oving
Ġexpand ed
Ġd ump
åįĩ çº§
Ġdut ies
Ġcontem porary
ĠL A
éĻ µ
ä¹Ł å°±
RE E
is l
Ġh tml
Ġspect ra
look ing
Ï Ĩ
Ġsole ly
L INE
æĪĲ æŀľ
Ġprint ing
è§Ĵ èī²
Ġyield s
çĽ Ĩ
ateg y
ç½ĳ ä¸Ĭ
Ġlif etime
Ġ ).
ĠS upport
èµĦ æł¼
am os
Ġcoe fficient
èģĮ è´£
ä¸į èī¯
çĻ½ èī²
Ġvess el
ol is
Ġch ip
Cl ose
et c
em a
Con f
Def inition
R est
ly n
ĠP L
Ġany body
ob b
Ġn i
S n
Ġpred iction
Ġstret ch
âĨ Ĵ
ë ĭ
Ġlo ose
M eta
r ition
Ġsing ular
ĠTH IS
Th ree
ĠSe a
çĥ Ĥ
æĽ ¼
Ġm eth
ĠSov iet
ari os
Ġproceed ing
t ocol
Ġc um
M atch
ition er
Ġass ignment
ĠÎ ´
ĠN FL
ail ing
Ġvis iting
Ġmax im
åį §
Ġpack et
Ġwat ers
ff ff
ç«Ł çĦ¶
Ġsc ored
Ġst er
æĪ¿ åŃĲ
P G
ra it
çĸ ı
ĠC PU
and y
r ass
ĠH ay
æ» ļ
å¥³ åĦ¿
åıį æĺł
Ġbeg un
æľī çĿĢ
ç¨ Ģ
me an
Ġdiv isor
elf are
Ġro yal
is cal
ay ed
Ġexhib it
h pp
ĠL atin
at ile
ord inary
ĠS ix
Ġple ased
w d
is en
æĪ Ĵ
Ġloc ally
Ù ģ
vari ant
å¹¿ åĳĬ
ä¸ ¸
Ġl ig
Ġl oves
C ap
he ast
ad i
qu er
Ġav ailability
C am
åı ¹
It ems
viron ments
Ġwitness es
ut t
ç¨ ¿
Ġexp ort
äº« åıĹ
Ġs id
Ġjud icial
Ġcogn itive
D ouble
m atic
ĠE ric
St at
Ġoper ated
å¼º åĮĸ
us ers
ps y
G T
æĭ ĸ
Ġvot es
Ġwire less
itud es
ĠC aptain
att ribute
j or
Ġt urb
ĠS us
èĲ §
Ġhead ing
c ould
åĴ ³
æĴ ŀ
åĩº åı£
D U
ĠâĢ ¢
Ġheav en
necess ary
ĠF air
ç³ Ĭ
ĠInd ex
zon a
V A
äºº ä½ĵ
Ġinequ ality
Ġt ract
ĠM as
åħ· å¤ĩ
æ£Ģ éªĮ
Ġsam pling
ĠF ord
Ġam ino
ĠCon nect
ĠEx p
Ġpress ed
Ġemot ions
not ation
ĠN othing
iz ers
Ġm arijuana
Ġag ed
b age
ra ine
ĠL td
Ġsc ales
æ¸ħ æ´ģ
è®° å¾Ĺ
R C
ĉĉĉĉ ĉĉĉĉ
çĸ« æĥħ
ĠPy thon
Ġfant astic
WAR E
Ġentr ance
å±¥ è¡Į
Ġa pt
æī °
Ġwin ner
T ube
at tered
éĶ» çĤ¼
od ge
Ġmeas uring
em on
Ġmod erate
èĢĮ è¨Ģ
Ġroad s
W ill
ĠS av
Ġk m
b ad
s un
Ġmind s
M edia
Ġtreat ments
Ġburn ing
ĠColor ado
Ġgluc ose
g ov
ia h
in th
ĠE uro
æľī æĹ¶
Ġvit ro
ĠE astern
State ment
åĲ¯ åĬ¨
br anch
Ġspect ral
Ġapproxim ation
] ]
the m
ick ed
ç»ĵ å©ļ
Ġsuper v
Ġf ake
Ġsh ield
Ġconf used
éĽ ¾
è¾ ī
ç¡® è®¤
å±± ä¸ľ
çº¢ èī²
l oss
ĠL es
Ġmod ification
éĽĨ ä½ĵ
Ġg athered
FL AG
± ä¹Ĳ
Ġet t
D ay
ate ful
éĢ Ĩ
æ¶Ī åĮĸ
Î¹ Îº
Ġs ys
c u
Ġport ions
Ġbirth day
Ġw is
ĠN ick
ens ing
iment al
ĠKing dom
Ġh ill
æĬ ¹
Ġphenomen on
ed it
j ango
Ġregard ed
ro ck
ur g
ç»´ çĶŁç´ł
Back ground
D im
as hes
å¤ļ å¹´
ĠIll inois
Dat abase
Ġplur ality
Ġque ue
Ġfall en
I AL
an ol
sc opy
mod ules
Ġeff ic
art icle
Ġad verse
èĭ± åĽ½
Ġbed room
c ases
ĠF ull
L R
Ġwant ing
Ġdist ributions
ab c
ĠB oy
B ER
Ġf ought
Ġqu ote
ç¾İ å¥½
w riter
Ġf ut
The ta
Ġfunction ality
Ġcomput ed
çĦ Ĭ
è¡Ģ ç®¡
Ġalgorith ms
Ġentertain ment
ĠPr ince
Ġpetition er
Ġcon clusions
Ġcent ers
Rep ository
C RE
H C
g on
æ°´ æŀľ
ĠProfess or
éĺŁ ä¼į
Ġdest ruction
ment e
gg ed
ik es
Ġes cap
æ» ¤
è°ĥ èĬĤ
çķĻ ä¸ĭ
B en
æ³ķ è§Ħ
l anguage
Ġse eds
ij n
å¹¿ ä¸ľ
l ined
Ġsub stit
Ġear s
P erson
W R
ou ds
Que ue
â Ĥ¬
ĠSte phen
Ġstud ying
ĠPl ace
j an
ĠC ond
Ġinc idence
( @
ĠEd ward
ĠL ev
ĠK now
Ġdecl are
ĠN ic
Ġmet ast
c ourt
éĻ ¶
inn ed
St and
Ġdes ert
Ġprec ision
rie ve
exec ute
æĸ ľ
ard ing
cl ock
åĪĽ å»º
V ol
èĭ ¹
N T
Ġt ap
Ġha z
Ġac ids
ĠCh ampionship
Ġel if
ĠEl izabeth
Ð´ Ð°
äºĭ é¡¹
Ġalong side
Ġautom atic
åİ ¨
ç«ĭ åį³
Ġass et
In valid
ĠP ers
Ġvol unt
as is
åĵģ è´¨
Ġc ake
od d
ä¼ĺ åĮĸ
Ġs ie
çĹħ äºº
! '
P ublic
Ġ( @
Ġsu ck
p ur
ag a
æ¯ı å¹´
é¸ £
Ġhe aling
Ġfl our
Comp at
if iers
å¹´ ä»£
c ategory
ir atory
ĠH an
Ġyour s
he alth
ĠSimilar ly
Ġfl avor
e le
ol en
ol ving
Ġsl ot
Ġthro at
ĠHarr is
A nt
I l
Ġcon form
çĤ ®
Ġv ivo
á ½
Ġrel ating
reg ular
les h
cur sor
å¹¿ åľº
Ġs lic
Ġsub sid
ĠAn th
æ¶ī åıĬ
E A
ä¸Ģ å¼ł
com b
æģ ¨
ang ular
Ġspec ify
Ġprocess or
ĠAll en
Ġcool ing
Ġenem ies
i y
å¹¿ æ³Ľ
e cho
Ġt ension
Ġp ic
å¥¹ ä»¬
Ġf iction
çĥ ¤
å¿ §
Ġdevelop er
Ġcamp us
ogene ous
Ġc tx
un ning
W ait
id al
Ġj ew
ãĥ «
è£ħ å¤ĩ
Rep ort
Ġelectro de
res ults
Ġincorpor ated
Ġup grade
æĬ ¬
math scr
Ġhealth care
G ame
Ġh orses
ig ger
ĠC onse
ch a
ĠĠĠĠĠĠĠĠĠĠĠĠĠĠĠĠ ĠĠĊ
ft en
R et
Ġt ags
Ab stract
åħĦ å¼Ł
è£ħ é¥°
Ġattempt ing
Ġdark ness
Ġhop ed
F ull
Ġg ast
æ° Ľ
net work
ĠP ART
act ic
åĶ¯ ä¸Ģ
In v
æµ Ļ
Ġgr ace
Ġtransport ation
] \\
çłĶ åıĳ
Ph oto
Ġinstance of
Ġindepend ently
ĠK at
åĨľ æ°ĳ
ĠColumb ia
olog ically
Ġattract ive
ÃŃ t
Ġimmig ration
ĠIO Exception
D T
ĠR T
èĥ Ģ
Ġvalid ation
ç¼º ä¹ı
f ish
comm it
Ġregul atory
Ġbund le
C opy
è¡ °
vert ed
Ġcoe fficients
Ġt we
ĠTh ird
è£ħ ç½®
Ġwond ered
Ġir re
l arg
å®ŀ è¡Į
ĠÐ· Ð°
Ġconvin ced
èĭ¹ æŀľ
åĲ ¨
ä¸Ń åĮ»
æ» ĭ
Ġdeterm in
Ġcon vey
æĬ¤ çĲĨ
Ġcompar able
P erm
ĠT er
å® ħ
èµ ¤
Ġsol o
èģĶ ç½ĳ
Ġgrav ity
V ideo
let ter
Ġoption al
l as
çĶµ æºĲ
ä¿® æĶ¹
ne um
Ġair port
M us
Ñ ī
Ġv ibr
ang el
Ġinf inite
Ġp ad
Ġrul ed
In ternal
è¯Ĭ æĸŃ
Ġel der
Field s
Ġdiagn ostic
Ġconscious ness
) _
ç² ®
Ġcommun icate
Ġc ul
å¯ º
çİ» çĴĥ
Ġpro minent
est y
Ġ& =
Ġconv icted
Ġvot ed
Ġg ig
ĠB ul
ĠHol y
åĵĪ åĵĪ
Ġcoord inate
claim ed
è¯´ æ³ķ
Tr ace
Ġrestr ictions
Ä ĩ
å¦ ĸ
ä»ĸ äºº
ĠAnd erson
Ġamplit ude
mole cules
ace ut
ç»Ħ åĲĪ
Ġp ipe
Ġadjust ed
l it
Ġbe aring
ĠM P
ĠH or
åĮº åĪ«
pre ne
Ġprepar ing
ill ance
Ġsust ained
r b
Ġrec ru
éĴ Ļ
des c
ĠW ould
ound ing
pro gram
und o
å®Į æķ´
with out
çļĩ å¸Ŀ
Ġt ie
çľĭ æĿ¥
Ġcritic ism
ilib rium
. :
\\ <
oc o
Ġad mission
Ġret ain
æ¤ Ĵ
J an
ä¾ ¯
ĠIm ages
CO DE
ĠÃ ®
ĠZ eal
T ake
v c
Ġsc ar
Ġcho osing
Ġabs ent
å© ´
Ġrepeated ly
u its
RE AD
FOR M
Ġcollect ive
ass oci
Bo olean
Ġdefe at
st ic
ĠS ky
Ġsa ke
fl ags
Ġo d
ĠC at
Ġfl ags
è§Ħ åĪĻ
Ġm ile
Ġver tex
ĠPl us
je ctions
or ient
Ġbreak s
ĠAr m
U P
th ur
èĢ Ģ
b n
Ġn erve
Ġeng agement
Ġcross ed
èĶ¬ èıľ
in ical
Ġb ab
ĠTh om
Ġinter f
ĠA venue
Ġexist ed
Not Null
Ġmil it
y d
ä¸ ¢
Ġredu ces
ug g
è¾ ¨
sh ire
Ġcur rency
Ġfoc using
C B
Ġal arm
AN CE
çĨŁ æĤī
opl us
Ġcomp aring
requ ire
M ac
iz za
Ġbur st
N av
ed ef
Ġmus cles
ä¸Ģ ä¼ļ
Ġang ular
Ġroll ing
Ġex cluded
Ġcap abilities
Ù ĥ
Ġdes cript
Ġdifferent ly
ĠStud ies
Ġtit les
åĪĨ æ³Į
Ġt ang
Ġw ing
Ġgr ay
åħģ è®¸
à ´
Ġb ills
ad en
ĠS af
ex ception
Ġpregn ant
t ri
ĠN orm
å®ŀ ä¹ł
Ġbi om
Ġdriv es
æŃ£ æĺ¯
ex per
æ· ĭ
Ġden y
p ing
Ġc ub
Ġh anging
ĠC lick
æĮ ¡
ĠA ccount
ref erence
Ġexpress ions
Ġcomplic ations
Ġh an
R untime
Ġd ying
éĩĩ è´Ń
í ķ
back s
Ġut ter
Ġdomin ant
ĠE p
ĠPr inc
De lete
Ġt rem
Ġpro jection
çĽ¸ æ¯Ķ
ï ¿
ĠD ark
Ġem bar
æµ Ĩ
be an
éļ¾ ä»¥
w iki
ĠA B
æĢĿ ç»´
ç© ·
P op
ail ure
Ġprem ium
Ġabsor ption
h ang
Ġsp ell
Ġpoint ing
g reat
m ask
ĠL ive
cl osure
Ġsupp orters
Ġden ial
Ã¨ s
i ology
ph ia
Ġpol ym
Pass word
ĠChrist ians
ĠAg ency
Ġpy thon
il st
Ġde grad
Ġfr ames
åĲĦ ä½į
Ġp overty
åĬ¨ æľº
ĠA ge
Ġat oms
ĠV en
Ġconsist ently
m os
ĠM ah
Ġal ien
Ġpl ugin
è¾ĥ å¤§
Ġdoll ar
Ġsurround ed
ĠA cc
Ġv ig
ĠE urop
Ġtext ure
Ġpo inter
å¹ ½
Ġswitch ing
Ġplatform s
Ġch ocolate
ast ing
app ropri
ĠCon fig
unn y
Ġtri es
ĠH im
Ġpsych ological
at iv
ĠSp irit
Ġf illing
Ġte as
Ġdoct rine
Ġjo ining
Ġp ending
ĠK ent
Ġsp oken
Ġtrans cription
èĬ ¯
Ġpub lisher
ĠI mp
Ġleg end
sem ble
og ram
Ġread ily
Ġprof iles
Ð¾Ð ±
Ġauthor ized
Ġmig ration
Ġl ands
Ġcar cin
å¥³ åŃ©
Ġelectric ity
r ank
mark et
le e
ĠU buntu
Ġhand ed
Ġrid ic
Ġb old
ac les
ç¥ ¥
Ġbr anches
Ġlog ical
Ġnarr ative
ä½ ©
Ġsh irt
ap or
set tings
æ¶Ī éĺ²
Ġconsist ing
è¦ģ æĺ¯
ick ing
çĶµ åİĭ
èĭ± éĽĦ
N F
Ġdef ensive
å» ī
ĠA li
Ġclass ified
ä»į çĦ¶
Ġen ables
Ð» ÑĮ
pe ction
Ġcor related
Ġser vers
Em ail
OU RT
çĶµ æµģ
Ġcam eras
Ġpert urb
ĠZeal and
us et
anc el
Ġmass es
ä¸Ģ é¡¹
ä¸Ģ æĹ¦
å· ¡
å°± ä¸ļ
å¤± åİ»
Ġaccept able
ĠA C
ĠD ouble
c aps
ac co
ĠK it
å¤ļ ç§į
Ġge ometry
Ġagre ements
sche ma
Ġsemicon ductor
F loat
Ġshort ly
ĠEn vironment
èĥ½ æºĲ
æĭ Į
æĶ¶ çĽĬ
Ġcomb ine
Ġinput s
Ġtou ched
Ġrend ered
av ailable
å°½ ç®¡
Ġthreat s
æĮĩ æĮ¥
Ġstay ing
åľ° çĲĥ
g eneral
Ġst yles
Ġabandon ed
éĤ ¦
nt il
å¯ Ħ
ĠCon st
è®° å¿Ĩ
Ġsuggest ions
æĸ ĳ
ne ed
éĥ¨ ä½į
åĽŀ å®¶
ĠHot el
adel phia
b oth
Ġfarm ers
Ġor ange
Ġsepar ately
Ġassist ant
Ġb om
ĠG overn
åıĳ èĤ²
Ġbre ach
Ġcomput ing
ogen esis
Ġdesign ated
å§ ¿
LO G
Ġsleep ing
Ġappoint ment
igh ters
ĠAdminist ration
Ġconf usion
aud i
ç °
ver ter
Ġphys ically
Ġappro ached
Ġweek ly
Ġdiagn osed
f ox
ĠP sy
Ġtw elve
ĠP rom
oc key
èĢģ æĿ¿
Ġbar rier
ed ly
ion ed
Ġch ances
tr ack
å¤± è´¥
S ocket
Ã¤ t
u ction
ä¸Ĭ ä¸ĭ
Ġdef ines
ĠL O
ĠR ound
Ġass ay
Ġwarn ed
F i
Ġr if
âĢĻ .
è¾ °
åĲ¸ å¼ķ
Ġin herent
em ia
Ġacc eler
Ġmembers hip
ĠHolly wood
Ġst iff
Ġgold en
æ§ ½
ĠP ri
æĺ ¨
ag ent
Ġlimit ation
æī¹ åĩĨ
] $
per or
ress ing
å¤§ ä¼ļ
Ġinterview s
F urther
pt on
ins ic
Ġcur ious
æµģ åĬ¨
æĮĳ æĪĺ
S pace
åĪ ł
Ġbel t
t f
z ym
æĺ Ĩ
Ġoff ices
app ly
æķĻ æİĪ
Act ive
Ġpun ishment
Ġvulner able
ĠE th
Ġle ts
Ġar ise
Ġins ulin
Ġst eal
Ġconstit ute
P ad
ĠD M
Ġen vironments
å¤§ éĥ¨åĪĨ
Ġexp ense
Ġinf ected
Ġf irms
ĠH u
ĠR ather
Ġann oy
Ġroll ed
ou ri
Ġup coming
æĤ ¬
Ġu ma
ĠH A
æĪĲ çĨŁ
ĠBr ad
ä¸ Ī
Ġr hy
Ġad min
åħ¬ åĽŃ
å£ ³
ĠTor onto
Ġhoriz ontal
S equ
ĠW atch
Ġremark able
col l
Ġpolit icians
book s
Ġsc attering
avel ength
Ġconspir acy
Ġin k
çī µ
Ġfin ance
Ġsus pected
e a
ĠT itle
ĠP S
ĠB ra
çł Ĥ
é£ ĺ
Ġsw ing
bo olean
Ġcoll apse
ĠF L
Ġgener ator
Ġl ap
Ġpublic ly
è´¢ æĶ¿
Ġcl ause
En um
Ġdecl ined
ä¾Ŀ çĦ¶
Ġthreat ened
- (
Ġqu ot
ON G
çĭ ¼
og s
åįı ä¼ļ
Ġrecommend ations
Ġmix ing
Ġdesk top
b ian
qu arters
ord on
bo ost
åħį è´¹
Ġimplic ations
c ule
pl ates
comm un
ĠBro ther
effect ive
ĠD u
æĭ ³
Ġcompr ising
ĠG ames
Ġcontact s
g ate
ĠGr ant
Ġinstit ution
ä¸į å¦Ĥ
Ġfif ty
ĠS earch
Ġrestr iction
z es
ĠH ttp
ĠF if
P V
c ity
ĠB all
Ġi k
Ġlo ans
æº ª
Ġlog in
op ath
Ġmet adata
Ġup set
Ġdist ant
r f
ä¸į è¡Į
åħ³ å¿ĥ
ĠĠĠĠĠĠĠĠĠĠĠĠĠĠĠĠ ĠĠĠĠĠĠĠĠĠĠĠĠ
åľ° äº§
éĶ ¦
Ġfuck ing
Ġrec ur
Ġevery day
ear ly
Ð¾Ð ¹
Ġprogram me
çİ¯ èĬĤ
çīĪ æľ¬
Ident ifier
Ġn os
æģ °
protect ed
c ost
Ġpre lim
æ²» çĲĨ
P N
Ġst ake
ĠF oot
g roups
Ġvis its
ĠLe on
è´Łè´£ äºº
R N
ĠL oad
Det ails
åĩ ¯
Ġad hes
pro fit
Ġart ificial
Ġaff airs
ä¸Ģ åľº
Ġint ake
requ ired
Ġinhib ition
\ ]
ard o
e u
Â Į
if ice
own ed
åıĳ åĩº
çħ§ çīĩ
oc y
b ably
on ical
ĠSh ort
Un ited
Ġbase ball
ĠC u
Ġde com
Int roduction
è¯´ çļĦ
Ġref lection
Ġrespond ent
ĠBer lin
Ġtrend s
Ġf u
æ± ģ
æĦŁ åĨĴ
éĨ ī
bet ween
Ġd ella
ĠDef endants
Ġtick ets
h alf
o en
é¥ ±
ĠDef ault
å¹³æĸ¹ ç±³
Ġt ar
Ġincor rect
f p
ĠReg ister
Ġins ufficient
Ġanaly ze
ç»´ ä¿®
ĠMo ore
Ġfig ured
Ġforg otten
consc ious
ĠM ill
Ġbelie fs
ar ound
et r
ĠH ope
Ġsh ame
Ġbound ed
Ġoblig ation
Ġd ressed
ĠĠĠĠĠĠĠĠĠĠĠĠĠĠĠĠĠĠĠĠĠĠĠĠĠĠĠĠĠĠĠĠ ĠĠĠĠĠĠĠĠĠĠĠ
ĠAg reement
æ£ Ĵ
En ter
ĠNav y
ib l
de cl
Ġdistingu ish
Ġpreval ence
O pt
se par
å±ķ ç¤º
åĲĦ ç±»
Ġar ts
param eter
: #
çĽ´ åĪ°
éĺ³ åħī
Ġemerg ed
n atural
pro perties
connect ed
Trans action
Ġgalax ies
L ock
ed a
åĸ Ĭ
Ġhistor ic
å±ı å¹ķ
Ġe ager
Ġlik elihood
l arge
Ġh ub
Ġnull ptr
se a
ĠO s
Ġpl ates
åľ° éĿ¢
Ġdifficult ies
OW N
×ķ ×
Ġf Ã¼r
Ġl attice
Ġdescrib ing
Ġreve als
Ġflu ct
Ġd in
ĠDe ath
C OL
Ġret riev
requ ency
ĠCam bridge
e enth
ĠB ox
ET H
G od
S W
ĠM E
Ġdes irable
Ġinter ference
Ġfr anch
Ð» Ðµ
p b
ä» ²
ell i
def ined
ĠComm and
Ġbath room
m any
er ge
ä¸Ģ çĶŁ
Mem ory
r ices
Ġm ales
ĠN ob
Ġfr ustr
RE F
Ġsat ell
ĠÐ¿ Ð¾
t ain
z ip
æľĢ æĸ°
Ġsus cept
ĠUp date
Ġrestaur ants
Sh are
bur gh
ĠD R
ĠN az
Ġinf ections
els on
åģļ æ³ķ
æĤ ł
fe ction
ä¼ł æĴŃ
Ġer red
Ġincred ibly
i ating
Ġcomp atible
ĠSt one
wr itten
W indows
ol ves
ĠW he
Ġbur ied
Ġâ ī
p in
Ġsu icide
cl osed
man ager
æ¨¡ åŀĭ
p any
ĠT ask
ĠC ab
ĠÏĦ Î·
it arian
class es
Net work
ç¬¬ äºĶ
AS H
Ġelim inate
Ġpro pri
Ġen zyme
ä¸Ń åŃ¦
ĠÃ¤ r
Ġenorm ous
Ġcon ve
èİ· åıĸ
th row
ĠD aily
æĺ¯ æĪĳ
åŃ¦ æľŁ
Ġstri king
Ġwra pped
h ole
Ġp adding
ãģ ķ
Ġtrans f
Ġprodu cer
æĤ ¦
çıŃ çº§
es ota
ock ets
Ġrec overed
ĠDef ense
ĠP rem
ph ys
Ġpar ser
çł ĸ
de velop
ĠS ports
æıĲ ç¤º
éĥ¨ éĺŁ
Ġt unnel
äºº åĬĽ
ĠRec ord
Ġas ync
Ġsimilar ly
a ired
b es
Ġt out
ĠIn f
èµ ĭ
Ġe leg
Ġhand ler
é»ĳ èī²
Ġb reat
Ġwas h
çĽ Ĵ
è¢ Ń
åĨ³ çŃĸ
ii i
> .
B oth
AM P
ĠBro ad
Ġl on
ul ent
é«ĺ çº§
åĲ« æľī
h n
Ġam ended
ĠAn alysis
é© »
Ġattack ed
ç´§ å¼ł
Ġc oding
ĠI owa
Ġres et
åĴ ±
Ġcult iv
Ġst ops
ch t
Ġpe er
Ġpres erve
Ġsh orter
ĠUn ivers
Ġret irement
v t
in cess
al o
éĥ İ
Ġp ink
Ġf ert
ut f
Ġv a
og y
li ver
å¸¸ è§Ħ
Ġd f
ĠV ill
Ġsc roll
Ġent ities
Ke ys
Ġlift ed
âĶĢ âĶĢ
ĠX ML
enn is
FT WARE
åĲĦ ä¸ª
Ġs b
ĠH ad
Ġsy mbols
assert Equal
Ġvac uum
M iss
Ġl iv
ĠG reg
Ġmac ro
it i
éĤ »
Ġaccompl ish
o i
æ¸ ł
Ġaffect s
Ġlif estyle
Ġmark er
èį ¡
Ġm old
ãģ ı
å®ļ ä½į
ãģ Ĥ
Ġdis aster
Ġ. .
åİŁ çĲĨ
ĠJe an
n or
Ġbrief ly
Ġn Ã£o
æ¯ ģ
æ® ¿
Ġste am
Ġfem ales
d ered
åİ ĺ
Bl ack
ĠAri zona
ç±» ä¼¼
Load er
D i
och ond
å¯¹ åºĶ
sh al
t ail
Ġ{ '
P ackage
ĠN ature
ĠJ ordan
at ar
ĠT ax
é¡º åĪ©
Ġoccasion ally
ä½ĵ ä¼ļ
ä»£ çĲĨ
Ġsec ured
Ġindu ction
çĩ ¥
r ac
Ġb row
Ġdam aged
r age
åĲĪ éĢĤ
Ġweak ness
T F
em ploy
Ġtrans cript
Ġbu f
Ġaim s
Ġst ared
ĠR on
Ġman aging
æĥ³ æ³ķ
Vari able
Ġobt aining
æĸ ¤
Ġres idence
Ġdec ay
è§Ĥ çĤ¹
C ard
v ia
ent e
æ¸ ¡
å¹³ å®ī
cons in
Ġseg ments
if def
ph y
Ġver b
Ġspeak er
Ġequ ipped
æ¡Ī ä»¶
Ġencour aged
Ġvary ing
uset ts
G reat
Ġspec im
æĶ¾ å¼ĥ
çĭ ł
â ī
Ġdis advant
ä½¿ å¾Ĺ
Ġcond em
plic ity
åį´ æĺ¯
Ġapprec iated
G N
Ġret ired
Ġpull ing
Ġb other
est ab
Ġper ception
ach usetts
æĥ ĳ
å¥½ äºĨ
åŁº åľ°
Ġrefer ring
under line
Ġtum ors
ĠJac ob
ĠPro perty
æĪ¿ éĹ´
Ġc ous
Ġper ceived
åĩº è¡Ģ
è¿Ĳ èĲ¥
æĹ¥ åŃĲ
Ġhead ers
Ġgovern or
é¥ ¼
æ¬§ æ´²
Ġw ider
Ġd rain
Ġin clusion
ag u
Ġr anging
Ġcert ificate
PO ST
\\ /
on omy
ol ine
reg on
Ġelig ible
Ġre ven
ä¸Ģ éģĵ
ong o
OR S
Ġprom ising
è¯» ä¹¦
Ġdisag ree
Ġwis dom
Ġc ord
Ġbe ings
to ol
ĠV AL
æīĵ éĢł
å½ ¹
OR Y
Ñģ Ñı
ĠChe m
x mm
pl ane
ĠY eah
riv ing
çĮ ľ
åĺ Ľ
Ġmount ains
ĠF ollowing
æł¡ åĽŃ
Ġstrateg ic
Ġbasket ball
iss a
clus ively
Ġinstr uments
Ïģ Î¿
Ġmeaning ful
L im
es y
Ġind irect
Ġvirt ually
p n
Ġs ulf
Ġg ross
Ġen um
own er
Ġinf ant
o j
ĠH ouston
' $
Ġconnect ing
trans form
OL D
Ġpack ed
Trans form
Ġextract ed
Ġin cons
Ġy a
od o
ĠG ree
ĠSt ore
ç¿ ¼
Pro file
æĺ¯ ä½ł
è¿Ļ æĹ¶
èĦ ¾
Ġeffic acy
Ġg i
æ³¨ éĩį
Ġdim in
Ġcapt ain
ĠH aving
åķĨ åĬ¡
ochem ical
S imple
Ġstrugg ling
ĠI R
ur ations
ĠMan ager
Su per
S B
Ġf its
ĠR a
ĠG re
Ġab normal
çĲĨ çĶ±
Ġtong ue
ĠA k
pr ice
Ġwood en
ĠRad io
ĠK elly
çĹ ķ
Ġsl ice
ĠSe attle
ĠRes ponse
ãģ ł
Ġlog ger
Ġstra ins
æĪĸ è®¸
Ġtravel ing
ä¸Ĭ åİ»
Ġrest ore
è¶³ å¤Ł
ĠH ig
Ġtra ject
Ġmed ication
Ġembar rass
Ġal s
ĠH art
rop ic
Ġdemocr acy
M apping
v et
Ġm s
Ġestablish ment
Ġres ident
åĮ ¹
èĬ ³
ãĤ ĵ
çĨ Ĭ
r idge
Ġrep orter
Ġbank ruptcy
Ġbond s
Ġdram atic
D em
O F
Ġs lo
cond ition
Ġact ed
Ġweight s
assert Equals
ï¼ į
Ġch ap
Ġch lor
çĹ Ĵ
vis or
æĹ¢ çĦ¶
Ġconsec utive
èĩ Ĥ
å¾Ī éļ¾
Ä Ļ
åľ° çĤ¹
Ġland ing
âĦ ¢
r int
ĠC ome
åħį çĸ«
ag netic
æķĪ çĽĬ
off s
riter ia
Ġanc est
Ġr iding
ors hip
çŁ Ľ
Ġcent uries
Ġexpert ise
w ind
he x
Ġs ich
ĠW orks
åĴ ¬
ex ists
æĥħ æĦŁ
Ġcomplaint s
Ġin line
çŁ ©
ĠH R
å¥ Ī
sh ips
Ġcas ual
v ard
Ġd ip
ry ption
ener gy
Ġcompet ing
å¾ĭ å¸Ī
I ED
r ust
st ates
Ġwe igh
Ġ' /
Ġclaim ing
ĠF inal
ĠO UT
Ġw ore
Ġr ic
é«ĺ åħ´
Ġactiv ated
ĠH D
ĠD er
ä¸Ģ åĿĹ
Ġpo ison
ograp her
Ġb ounds
Ġm ol
AN G
é©¬ ä¸Ĭ
Ġfrequ encies
Des pite
Ġles ions
w edge
Ġtrans parent
ĠIn n
èĩª ä¸»
Ġsign ing
æĹ¥ æľŁ
ĠOx ford
F our
ĠL at
Ġj un
éĩį åºĨ
omorph ism
Ġsl ide
ĠInt erest
in stein
Ġdr ama
el and
Ġless ons
Ġsatisf ies
ĠC OP
ast a
è½¬ ç§»
Ġcult ures
Ġalleged ly
Ġgl ob
Ġfeed ing
Ġsav ings
Ġw ins
è® ¼
param eters
OUN D
é ĸ
Ġro d
æİ¥ çĿĢ
æŃ¤ å¤ĸ
Ġmort gage
Ġembed ded
ĠK evin
pro du
ĠT ry
ĠD ub
ä¸Ģ æĸ¹
Ġap olog
orne ys
N ESS
èĪ Į
åĪļ åĪļ
m ass
st rap
ĠD om
åĨ »
Ġantib ody
åħ± åĴĮ
Ġb arg
åĳ Ĩ
Ġequ ality
ĠS M
éĥ Ń
Ġdom ains
Ġemerg ing
iam i
M ember
Ġb ags
Ġm arch
ĠA st
Ġview ing
å´ ĩ
spe ed
Â Ĺ
in formation
Ġor b
åĴ ĸ
Ġph ones
æĥ³ è±¡
æŁ¥ çľĭ
dep th
b order
ick er
Ġident ifying
lim ited
Ġaccom pany
F in
Ġde emed
m ers
Ġfor ty
and al
Ġmy ster
ĠYou Tube
Ġgrad ually
åľ ³
Direct ory
hav ior
ĠM it
è¿ĩ æķı
Ġact ors
D iv
ä» °
all as
Ġdr unk
Ġcollabor ation
l ibrary
æİĴ éĻ¤
hand ler
N R
w alk
Ġr ings
serv ices
h ist
or o
è¡Ģ åİĭ
Ġt ear
çİ© å®¶
Ġnav igation
çĬ¯ ç½ª
yn chron
ĠOn line
Ġkey board
ĠS a
Ġhapp iness
Ġhuman ity
Ġdeg ener
O ct
Ġg host
Ã© r
ĠOr ig
e ur
ĠT y
th ink
ous es
åĳ³ éģĵ
Ġad s
çī© ä½ĵ
è¸ ª
ĠS A
ĠD ue
çī §
åķ ¥
å¼º åº¦
Ġpredict ions
Ġtim ely
Ġob sc
par ser
I con
^ *
l ay
æĶ¶ éĽĨ
æ·± åľ³
æº¶ æ¶²
o vers
in tern
Ġdis crete
view s
lin ux
Ġpurs ue
×Ļ ×
s ent
ĠSe veral
åĬł å¿«
çİ¯ ä¿Ŀ
? )
æµ ©
Ġd ar
Ġmet all
Ġinnov ation
Ġnight s
ãģ¦ ãģĦ
Ġto mat
ag ic
ĠL LC
çĽ Ī
Ġdi ver
åŁº åĽł
åħ± äº§
æ·· åĩĿ
é¼ĵ åĬ±
éĢ »
ĠÃ ¼
Ġviol ated
Pl ugin
Ġbreath ing
c ert
Ġh ired
Ġinflu enced
ĠKe ep
Ġoccup ied
ĠSO FTWARE
ul ative
å¤§ åŀĭ
éģ ¥
åŀ ĥ
umb led
F iles
Ġne ural
Ġgraph ics
âĢ ĭ
Ġcon vention
Ġ$ |
Ġsc reens
pro d
æľĪ ä»½
ĠM essage
qu ality
Ġper pet
æ³ Ħ
çŀ¬ éĹ´
d one
åı ī
St op
g al
us ive
ĠU t
Ġheart s
è¯ ±
ĠHT TP
Ġsp ray
Ġsw ord
Ġsatisf action
Ġvo ices
Ġadvent ure
Ġp ist
ĠS ure
Ġhe ating
pos itive
æ¶ µ
ĠPh ilipp
Ġo ven
ov ascular
Ġtreat ing
Fl ags
B undle
T w
Ġs ons
Ġse cre
Ġcl ip
ool s
åĽĽ å·Ŀ
ĠIndian a
and e
ose x
æľ¬ æĿ¥
Ġsuggest ion
Ġlegisl ative
èĤļ åŃĲ
Ä Ľ
Ġre aches
aterial s
ĠCol lection
ĠPar liament
ĠAlex ander
Ġr it
bs erv
mon ary
atal og
Ġo t
ĠV ideo
H D
id av
ĠC rim
Ġpart ly
miss ible
Ġdiscl osure
pie ce
åľ ¾
ĠK ong
Ġbound aries
Ġsignal ing
ĠF estival
ĠSt ock
ĠM athe
ĠB rian
Ġres erv
AT ED
co very
g row
âĢĻ 
Ġprotect ive
æ·· åĲĪ
å¯» æī¾
k k
ĠPro p
Ġhor ror
A h
Ġp ale
ĠB ang
åŁ ĭ
min ute
Ġmer ge
ed e
ĠĠĠĠĠĠĠĠĠĠĠĠĠĠĠĠ ĠĠĠĠĠĠĠĠĊ
m ount
it zer
æĿ Ń
ĠMinn esota
Ġf ishing
ĠJ ane
rit ical
put ed
å¨ ľ
é ³
Ġ ÑĤ
Ġm erg
ul us
te ch
è´¡ çĮ®
Ġposs ibilities
æłĩ å¿Ĺ
ĠArt icle
æī© å¤§
èĤ ĸ
æ¼ Ĩ
lim it
Ġs ne
å± Ī
Ġeffect iveness
Im port
ac o
è®º æĸĩ
æ¶Ī å¤±
Ġsqu ad
Ġstrict ly
Ġlapt op
åŀĥ åľ¾
ĠG irl
Ġden ying
Ġaccompl ished
ĠNever theless
Ġf ate
äºº å®¶
Ġca ption
è¯ī è®¼
X ML
ĠT ony
Ġepis odes
Ġelev ated
b usiness
at on
Ġor bit
Ġconstruct or
w ich
Ġdist inction
Ġgener ations
ĠCommon wealth
R ole
ĠD ocument
çĽ Ĺ
I mp
cur s
ä¸ĵ éĹ¨
Ġfeat uring
F unc
en um
Ġl ibraries
Ġ\\ \
ç¼ĸ åĪ¶
ĠRes ults
in ely
ĠD B
å½» åºķ
Ġlegit imate
æĹ¶ åĪ»
Ġprelim inary
è¿Ļ ä½į
Ġdist ances
éī´ å®ļ
Ġh oney
am ic
ĠS ort
cre ated
fig ure
UR I
Ed itor
Ġfurn iture
a Ã§Ã£o
Ġf ond
ad as
Ġem issions
åĤ ²
æĲŃ éħį
åľ¨ æŃ¤
rop ical
Ġpref ix
Ġcan cell
åľ° ä¸ĭ
Ġf lesh
Ġman ually
Ġac et
Ġcy cles
Ġb ones
è¾ ©
Ġtax p
é¦Ļ æ¸¯
Ġmanufacture r
Ġtr im
Ġco h
ethe less
Ġag enda
æį ķ
åĪĽ ä½ľ
Ġpr ide
Ġpath ways
Ġeng ines
ĠRev olution
E s
T erm
set s
èį Ĵ
Ġassum ptions
u j
Ġh ug
Ġacqu isition
Ãµ es
A SE
f illed
å°ı åŃ©
Ġkne es
% ;
Ġh itting
Ġve ctors
ĠPh oto
Ġreflect s
ĠA h
æĴ ¤
Ġhyper t
fol io
å¸ Ĳ
åīį éĿ¢
Ġsk ip
çº¦ å®ļ
Ġenter prise
Ġag gressive
Ġcar b
ism o
å¼º è°ĥ
ĠPar am
èĽ ĩ
ĠTOD O
\ [
/ >
Ġr am
ĠH istor
ĠPlaintiff s
ed u
ĠA F
ab ling
Ġf itting
ãģ į
ced ure
Se lected
æİ¢ ç´¢
en z
Ġto ss
pl o
Ġtox ic
ä¸» ç®¡
åĿ Ľ
Ġpan els
Ġprosec ution
b ial
f ly
Ġg reet
ir ds
Ġsp ots
åĳ¨ æľŁ
Ġdesc ending
z t
Ġen act
Ġunder t
åŁº äºİ
ĠAre a
C r
an alysis
ri ents
åĸ Ĥ
Ġign or
Ġan th
æķĻ æĿĲ
Ġsol ved
Ġdam n
C s
Ġa pi
Ġinterpret ed
ĠMuslim s
w en
Ġst ere
ĠĠĠĠĠĠĠĠĠĠĠĠĠĠĠĠĠĠĠĠĠĠĠĠĠĠĠĠĠĠĠĠ ĠĠĠĠ
Ġmay or
çĪ ½
build ing
Ġl oving
ç® Ń
AL SE
å¤§ éģĵ
å¼Ģ å¿ĥ
build er
Ġcardi ac
æĪĲ åĪĨ
ract ice
æĢ§ æł¼
f x
Ġ Ùħ
Ġh i
ĠU V
Ġcour age
Ġpost ing
è®° èĢħ
èı ²
iter ator
ä»Ķ ç»Ĩ
he rence
Ġd ot
ĠĠĠĠĠĠĠĠĠĠĠĠĠĠĠĠ ĠĠĠĠĠĠĠĠĠĠĠĠĠĠ
åıĪ æĺ¯
R eal
Ġt f
ĠM arg
Ġpro pose
init ial
Sing le
Ġgo ogle
the se
Ġju ice
Ġcalc ium
resp ons
A uto
Ġlight ing
åĮ» åŃ¦
Ġfacilit ate
ĠS em
ĠO THER
Ġvalid ity
Ġ' \\
pre p
åĽ¾ ä¹¦
èĳĹ åĲį
ru p
IN TER
ĠAtl antic
Ù Ĥ
å® ł
Ġinv asion
Com mon
X ml
g el
Ġsh apes
Ġsecret ary
Ġcompr ises
éľ ¸
ot ypes
ĠB ry
ĠÎ ²
Ġrevers ed
ĠG raph
set minus
å±ŀ æĢ§
Ġannounce ment
l ass
ĠG ab
æĮ ¤
Ġjust ify
çĵ ·
Ġconvers ations
ĠL ED
åħ¬ å®ī
Ġgrad uate
Ġc od
æĹ ¨
sw ing
ĠPat ent
ĠSar ah
Ġgr at
Ġless on
ĠEmp ire
ig ration
IC T
Ã ²
im o
ad ows
Ġ' '
Ġext ending
Ġpot ato
Ġlog ging
Ġinsert ed
Ġbrilli ant
P al
P rim
ĠĠĠĠĠĠĠĠĠĠĠĠĠĠĠĠĠĠĠĠĠĠĠĠĠĠĠĠĠĠĠĠ Ġ
ÃĲÂµ ÃĲ
Ġperipher al
Ġin cent
for ced
OR K
count ry
Ġg ifts
éĤ Ģ
æľĢ ä½³
ivers ary
sw itch
iz ard
Ġextra ordinary
ä¸ī è§Ĵ
user name
Sh ort
Ġt ends
ic he
ĠS ep
ĠF IT
pl ug
å¥³ åŃĲ
Ġhospit als
M AN
ĠW ars
æ³ķ å®ļ
çģ Į
Ġadv ised
Ġsusp ension
m akers
Ġw avelength
éľ ī
èĥ ĸ
ĠGold en
Ġfib ers
ĠB BC
Ġess ay
ĠC OURT
Ġsp ir
åĲĮ äºĭ
Ġpip eline
ä¸į èµ·
ĠV ari
az ione
Ġhost s
M IN
add y
Ġprefer ably
æĶ¹ éĢł
Ġclub s
Ġg low
ç¢ Ĺ
Ġtransform ed
åĪ Ĭ
ĠSim on
Ġd irty
Ġpr ayer
Ġprevent ion
çĺ ¦
s aid
Ġjud ges
çŃĸ çķ¥
æĻº æħ§
Ġacknow ledge
S ave
ot yp
æĢ ¨
Ġshe ets
Ġresp iratory
ĠRes pond
åı¤ ä»£
t v
w oman
is i
åįĬ å¹´
Ġtor ch
åıĳ è¡¨
ĠSystem s
d river
ç¾İ åħĥ
Ġbut tons
Ġodd s
Ġinqu iry
å®¡ æł¸
ĠW E
ĠG il
ex pr
Ġdel icious
æ··åĩĿ åľŁ
n one
{ (
Ġat om
Ġintegr ity
Sec urity
Ġreson ance
ich ael
ĠIn put
ĠV eg
Ġsee ks
Reg ister
ĠPhil adelphia
è´ ¤
subset eq
Ġtempor al
b d
ac ellular
Ġqu oted
Ġacc el
x ff
Sh ould
TR UE
Ġâ Ĥ¬
ĠA ud
qu ot
ĠD utch
sc opic
phas is
ĠHaw ai
ä¸į åľ¨
CL UD
L P
UT H
cons ider
Ġstim ulation
te chn
pos s
åįı åķĨ
Ġox ide
åŁ ĥ
è¿Ľ åİ»
et erm
Ġlaws uit
Ġle ase
æŁ¥ è¯¢
Ġscal ar
S end
Ġpro gression
ĠTur key
neg ative
B el
J ava
ount ered
Ġfil ename
UL AR
ol as
Ġpros pective
M AP
P ATH
Ġg aze
ĠL ess
Ġ{ {
.âĢĿ \
Ġbenef icial
ä»¤ äºº
ĠMass achusetts
Ġb ien
ĠT en
ap ing
Ġspeak s
Ġexcess ive
deg ree
as ive
ot ton
M ove
c op
orig inal
ĠN ations
èĤ ĥ
å½ĵ å¹´
Pro xy
h istory
k u
s ame
Ġw ise
ĠD im
ĠD IS
ĠF all
Ġgr ateful
Ġsurv iv
Ġsurve illance
æµĻ æ±Ł
` 
St ar
å¤´ åıĳ
ĠM D
ĠB ad
IN K
Ġs orts
the w
jav ascript
A ug
ol er
Ġdef ining
ä¸ĭ åįĪ
Ġpe pper
Ġint ens
Ġprov ince
ç µ
oc a
ph ant
Ar ch
Ġp aste
ĠH ong
ç»ı åħ¸
Ġsl ip
ĠP CR
äºº æķ°
Ġmo ist
Ġadapt ed
Ġn ous
Th ose
oper ation
Ġsusp ended
ph ones
çªģ çł´
Ġa us
Ġ\\ ;
æĬ Ľ
ãĥ¼ ãĥ
âķĲâķĲ âķĲâķĲ
n l
Ġthe rap
Ġhar ass
Ġrece ives
ĠL as
ĠCont ent
æ¤ İ
ĠPH P
v ens
Ø ¹
Ġun clear
Ġantib odies
Ġhe sit
B T
æĪĸ æĺ¯
ĠU r
riv acy
Ġvar ied
ĠMin istry
ĠWis consin
Ġto d
em ployment
qu estion
ment ioned
b ank
Ã «
ab ama
ĠO P
å°ı å¿ĥ
åĨħ å¿ĥ
msg id
ĠA uto
ber y
Ġprof its
ĠUS B
Ġcitiz en
Ð¾Ð² Ð°
ĠM ER
å¦ Ĩ
æµ ´
do es
PO SE
å§ »
è¡Ĺ éģĵ
Ġrac ial
ann on
éĢī é¡¹
fe ed
è¯Ń éŁ³
Ġde put
ĠU SE
ä¸» äºº
text rm
Iter ator
Ġm amm
éĺ Ķ
Ġinc ub
çº¿ è·¯
um ing
iz ar
æĪĲ éĥ½
f g
ĠL OG
æĻ ķ
Ġconstit u
âĺ ħ
Ġf mt
ri o
Ġind ices
Ġprotect ing
ĠAfghan istan
ĠO regon
Ġrec ruit
ãģ Ŀ
ç¥ Ń
Ġgl ut
ĠZ e
Ġflo ating
pat tern
ĠDig ital
S F
Ġcreat ure
Ġsh ops
ĠStud y
ĠConse qu
o ffic
Ġin sect
âĢ¦ ]
ĠB C
ĠĠĠĠĠĠĠĠĠĠĠĠĠĠĠĠ ĠĊ
Ġenerg ies
Reg istry
åİĺ ç±³
Ġb ron
Ġd it
id ate
se lected
sc ore
è¯ģ æį®
Ġinnoc ent
B N
ĠP UR
be at
c ourse
Ġg rain
ĠB arn
ĠPro position
éª Ĥ
ĠRequ est
Jo in
å®Į ç¾İ
Ġeng aging
æĴ Ĵ
Ġvir al
Ġcelebr ate
Ġiniti ative
éĢ ¼
Ġcatal og
Ġindepend ence
ĠI de
ĠC it
Ġsc aling
Ġpri est
Ġgrad ient
F ore
W atch
Ġs ql
Ġst ating
Ġfore cast
Ġthrow ing
Ġadv is
Ġw elfare
å¥³ çĶŁ
ar ms
pp y
Ġso bre
å¤§ äºİ
Su ccess
usal em
Ġj oke
éĶ Ĳ
p read
u ity
Ġal tered
åĴĮ è°Ĳ
Ġvess els
çİ Ľ
éĤ ª
Ġriv al
Ġp ixels
ĠH ub
Ġman agers
ĠScot land
S am
he et
Ġm art
ĠT otal
Ġinter vals
Ġenc ountered
Ġfro zen
gorith m
ĠCh air
ĠAr g
Ġt ender
Ġe ine
oc ard
ĠE L
oy d
åįķ åħĥ
Î¹ Î±
ĠKore an
é«ĺ ä¸Ń
ĠPr ice
Time out
msg str
Ġy ard
Ġj ack
Ġel abor
ody nam
Ġcal endar
Ġbelong s
éº» çĥ¦
Ġu pt
ĠST AT
Ġprogress ive
e clipse
l ag
Ġc md
Ġg ut
ow ski
Ġimp air
è½» æĿ¾
S V
l ar
Ġal ignment
ĠR A
Ġgu ilt
éªĮ æĶ¶
xx xx
Ġemphas is
Ġp neum
Ġd ated
ĉĉĉĉ ĉĉĉ
Ġtem pt
col on
æĺŁ æľŁ
Ġgr asp
ĠSm all
Ġgalax y
W in
Ġfound er
Ġdev iation
DE BUG
s am
Ġgen ome
Ġrepresent atives
Ġbirth s
Ġoffic ially
Ġrese mb
Ġexc use
in ent
or ious
ä¹ Ķ
Ġprom otion
Ġball s
Ġadvert is
ĠUn it
Ġreason ing
Ġindic ation
æĲ º
Ġadminist ered
Ð² Ð¸
Ġrandom ly
m ol
Ġf estival
Ġcomp ass
ather ine
Ġbr ut
æħ ķ
Ġd ent
im s
Ġg aming
am an
Ġf iscal
äºº å·¥
Ġcompet e
m ust
Ġret ro
Ġfif teen
æĬ ¼
Ġhand led
ĠBe ing
Ġconfig ured
s ized
an al
Ġed iting
Ġstatist ically
Ġ âĢĻ
Ġr anges
ph ot
ia z
Ġtrans mitted
Ġpaint ed
Ġam endment
ĠÐ ³
Ġbr ands
Ġoccas ions
f ix
Ġab ilities
åĮħ åĲ«
Ġsold ier
Ġhar vest
ç¡ ķ
ãĥ ĥ
DE FAULT
CON T
U ES
Ġv oor
est e
ĠP ur
ĠP DF
äºĭ åĬ¡
è§Ĥ å¿µ
ĠEvery thing
Ġcu ps
ç¼ĵ è§£
Ġacknowled ged
m n
Ġle ather
ĠJ ason
ĠV ery
Ġcor n
Cont act
Ġprivile ge
g ments
Ġw ides
et o
ĠS ER
Ġch ains
ĠAr ts
Ġmark ers
æĬĢ å·§
Ġmut ations
Ġfit ness
c over
Ġf ru
Ġe q
Ġout standing
åĩł å¹´
Ġbar rel
è¾Ľ è¾£
ä¸Ģ ä½ĵ
åĮħ è£ħ
å¾· åĽ½
éĿĴ æĺ¥
osc ow
f mt
ov en
ãĤ Ī
æ±Ł èĭı
åĤ ¬
z ens
er d
Ġc ried
ut her
èĩª è¡Į
Ġconstit ution
Ġlawy ers
Ġveget ables
Ġa str
ĠS imple
Ġphys ician
æħ İ
Ġto k
ex it
èħ »
Ġfem in
è¾ħ åĬ©
Ġtour nament
åħ±åĴĮ åĽ½
I Z
VER SION
Fr agment
Ġresid ual
è´¸ æĺĵ
ĠC lient
Ġad vers
ut ers
åľ° éĵģ
éŃ ı
Ġmist akes
Ġinnov ative
Ï İ
ä¸ §
id ity
ä¸Ģ éĺµ
ĠEx pl
æľīåĪ© äºİ
A bs
a que
ĠP rior
æ¡£ æ¡Ī
Ġc ant
Ġch ampion
aceut ical
F low
Å ĳ
re ck
est ions
æī ĳ
Ġinf lation
æ· ĺ
m ma
| ^
Ġto wer
Ġtrans mit
æĦı åĳ³
çĤİ çĹĩ
Ġcooper ation
ĠK h
Ġlater al
Ġcomput ation
Ġem ails
çŃī å¾ħ
Ġburn ed
Ġguarant eed
th rows
ĠR ick
ĠG ro
Ġrep ro
èĬĤ çĽ®
if eration
Ġra pe
ĠL ater
Ġatt ach
Ġgrab bed
Pl ay
å¾® ä¿¡
D an
ĠCh ange
çĪ ¬
ĠLet t
Ġoccur ring
Ġanim ation
U C
le ading
am med
ac ious
åı Ļ
stand ard
çł´ åĿı
ĠRober ts
Ġinsp iration
. $
Ġd ivid
Ġmat ched
ĠJava Script
ĠL iber
æīĭ ç»Ń
sing le
Ġdelay ed
Ġsever ity
k top
ĠF ive
ĠWalk er
Ġn ons
oc ols
æĪĳ ä¼ļ
ps on
Ġsent ences
Ġsaf ely
Ġillustr ated
L ight
av irus
çĶ¨ æĿ¥
å½ĵ ä¸Ń
åŀ «
cy cle
Ġep idem
Ġmit ochond
f actory
s ay
ĠT rib
ĠB at
Ġbl ade
h space
es see
Ġsa il
Ġsymm etric
mem ory
ĠC ould
Ġinter ventions
om eter
ap ore
ĠDis ney
Ġrecept ors
J ECT
t p
å ļ
åħ¨ ä½ĵ
ÃĲÂ º
ess ed
Ġdisapp eared
Ġvolunte ers
ĠAs sembly
Ġeas tern
kw args
Ġun necessary
Ġwarrant y
Us ers
B al
g overnment
te am
iss ue
åĿ ĳ
Ġsing ing
æĺ¾ å¾Ĺ
é¢Ħ ç®Ĺ
e an
Ġw age
Ġqu it
Ġoccur rence
æ¼Ķ åĳĺ
å®ŀéĻħ ä¸Ĭ
Ġminor ity
jack son
æĶ¾ åħ¥
Ġfac ulty
Ġdecre ases
Ġmetab olic
Â º
ĠD ick
Ġaccur ately
Ø ¨
ric ular
çŁĽ çĽ¾
ĠSt ation
å®ŀ çĶ¨
Ġmer it
S eg
Ġre nal
Ġdri ed
é¡¾ å®¢
Ġprison ers
ĠD ead
Ġreal istic
Ġresc ue
ĠD a
Ġimp rison
Th us
ro it
Ġ$ .
In formation
Ġam end
å¤© æ°Ķ
ãĤ ¯
Ġpost erior
m L
ore r
æİ¥ åı£
w riting
Ġg olf
ke ep
iv ari
Ġdefin itions
æĭĴ ç»Ŀ
M ill
Ġf right
st airs
col n
Ġpain ful
æ¦ ľ
ĠMary land
st orage
Ġr ug
ik ing
ĠCl ark
D est
Ġl ake
ĠB UT
Ġg al
amp ed
test s
ĠP ier
Ġsp ont
Ġmet rics
æİ¨ å¹¿
ĠBook s
res et
Ġsp o
Ġph ases
pro of
ç¯ ®
Ġquiet ly
Ġgather ing
Ġsoph istic
r untime
v id
w p
w t
ĠA SS
Ġen zym
Ġprevent ing
pol icy
ud ge
Ġblock ed
En vironment
Ġfe as
çŃī äºİ
Ġmyst ery
Ġind ivid
ract ed
k ed
Ġa vec
éħ ±
Ġsal ary
oles ter
s al
Ġt utor
Ġo ste
is ite
è¾ ĸ
æīĭ ä¸Ń
Ġvari ance
Ġsix th
Ġjump ed
Ġentre prene
Ġle ak
ov ie
ä¸» æĮģ
De cl
W rapper
åį ĵ
éĺ Ģ
Ġfil ters
Ġexpl aining
è¯Ń æĸĩ
R end
w indows
Ġth umb
Ġn ick
St ruct
Const ants
ĠS quare
Ġd ens
Un known
äºĴ èģĶç½ĳ
c ross
ar ity
Ġpro c
ĠP D
ĠH it
Ġj ag
W est
Ġas ympt
Ġdesign er
call back
éģµ å®Ī
W A
y cle
Ġre q
ĠM oh
ĠH om
èģ ª
Ġhun ting
B ased
Ġs ink
Ġd ense
ond s
ä»£ çłģ
New s
on ce
Ġcont ra
Ġimportant ly
ĠPat rick
Att ributes
Ġme als
Ġterm ination
re a
åı¯ è§ģ
i u
ĠW rite
per p
âĢ¦ .
Ġbr ush
X iv
Ġpass enger
W ord
Ġb ot
ĠA mb
Ġcon gress
ĠÃ ¶
br al
IC K
Ġpharm ac
s omething
Ġpre ference
Ġsent encing
äººæ°ĳ å¸ģ
Ġchalleng ed
ĠIns urance
è Ł
Ġequ ity
Ġreli ability
T L
Ġp ole
am ous
ac et
un ique
Ġsc oring
Ġref use
Ġprom oting
Go ogle
Ġmes h
ch anges
ĠB uff
ĠF arm
Ġpl acing
ĠSe lect
ĠCl oud
col lect
Ġcomb inations
Ġsens ors
ĠGu ide
Ġcharg ing
Ġdisapp ear
k an
Ġfant asy
Ġaccount ing
ĠSil ver
l ich
Ġh ire
ĠM ess
her ry
çĶŁ æĪĲ
Ġexpect ing
Ġshift ed
èĤ¿ çĺ¤
Ġsque e
Ġg ains
è° ¨
Con stant
alax y
Ġst olen
Ġas h
Ġrep ository
Ġcross ing
Ġr acing
ĠO il
con n
o a
ĠN atural
Ġexcept ions
å±ħ çĦ¶
Ġvert ices
Ġneighb ors
åŃ Ł
per m
Ġins pect
Ġdownt own
p us
ĠA I
èĭ į
Ġden otes
Ġterror ist
Ġdialog ue
appropri ate
åľ° ä¸Ĭ
Ġact ively
çĸ ¯
< ?
= [
Ġrel ate
ä¿Ŀ åŃĺ
Ġleg acy
çĹĽ èĭ¦
Input Stream
Ġafford able
F D
M art
ĠB R
Ġsatisf ying
Ġdro ps
Ġphotograph s
B et
Ġr aces
ĠSt ory
èĤ ª
Ġco pper
Ġadopt ion
Init ial
se en
ĠE ffect
æĻ °
ĠMed icine
ĠD or
const ruct
Ġcirc ular
ĠJ am
äºĭ çī©
Ġexpect ation
å¹¿ å¤§
å§Ķ æīĺ
Ġmetabol ism
Ġcan vas
çī© åĵģ
Ġpass engers
æķħ éļľ
L ife
Ġar ising
Ġdr um
fl ag
Sc ale
Ġswe at
Ġremind ed
D IS
Ġse al
åİ ¦
Ġaff idav
åĿĲ åľ¨
Ġin hab
ig ious
ug ar
ĠBo olean
ĠExec utive
Ex ample
ĠRep resent
E st
H ome
h ook
åĴ ½
èī °
çĸ ¹
Con vert
ĠC ra
å¸ ħ
Ġexper i
Ġarg uing
Ġprob able
m c
Ġcl ouds
Ġro cks
Ġob jection
ĠSc ient
IO Exception
ymmet ric
L ab
æĢ» ä½ĵ
èĦĤ èĤª
D NA
ÏĦ Î±
$ (
ta h
ä¸Ģ çľ¼
æ¬ ł
cy cl
Ġfavour ite
Ġsod ium
C reat
Ġv ascular
Ġpro xy
çĶ¨ åĵģ
ID S
Ġfavor able
al g
Ġnot ification
Ġ\ \\
Ġsystem atic
åķ ¡
åĲ« éĩı
Serv let
Ġt weet
Ġm elt
Ġsche mes
äºĴ çĽ¸
roph y
D avid
m ys
Ġc rown
Ġvalid ate
ĠM iami
ĠR oss
Ġ$ [
at om
Ġg ard
ol ute
Ġsh aft
Ġres idential
Ð½ Ðµ
è´¯ å½»
C U
l on
ĠP ow
éĢļ ä¿¡
ãĥ ª
èĨ Ģ
HT ML
èĢĮ å·²
Ġenjoy ing
è¦Ĩ çĽĸ
Ġwides pread
D ATA
am o
OM E
Ġsc ared
Ġra ises
å°Ĩ åĨĽ
ç«ĭ åĪ»
d ney
ar o
Ġint im
å·® å¼Ĥ
Ġisol ation
gener ated
ig ue
ĠN eed
å¼Ģ åħ³
è¯ģ åĪ¸
ç¿ ł
Ġacqu ire
s b
Ġs ocket
st ory
Ġst yl
PD ATE
C G
s r
Ġre vel
ĠM icro
ĠJ ay
cept ions
Ġassoci ations
LO CK
Ġarter y
ĠK ansas
ade qu
èĦ Ĩ
Ġg ym
Ġper f
åĩº åıĳ
Ġmin ing
Ġmat rices
çĿ¡ è§ī
m argin
ĠE ss
èĩª ä¿¡
Ġsett le
Ġceremon y
ĠL eb
get String
Ġcir cles
f und
t k
çĽ® å½ķ
Ġdemand ed
Rem ove
åĩ ¶
ä½ľ åĩº
Ġequ ilibrium
ĠJer usalem
om ed
Ġl umin
ers hip
Ġatt ributed
ĠMod ern
æķĮ äºº
V ICE
c ounter
á ¼
ic ion
Ġg ently
å° ¸
Ġcor ruption
Ġcount ing
g ot
ip eline
Ġimp ressed
Ġsto pping
spec ial
W ORD
Ġe uro
In tern
ç½ ¢
Ġindu ce
Ġfranch ise
Ġf itted
å·¥ åķĨ
cle an
Ġbad ly
Ġindust ries
Ġaffect ing
Ġgra ve
Ġintellig ent
ĠS ud
idd ing
Ġcorpor ations
ĠC ell
Ġquant ities
ĠWH ERE
Ġoverwhel ming
Ġc ure
Ġm ethyl
Ġet ern
å°º å¯¸
å¤§ äºº
AR K
åĬŀ äºĭ
P ower
ĠP itt
sh aped
Ġassoci ate
è¡Ģ æ¶²
Ġestablish ing
Ġutil ized
ĠKenn edy
es ity
ĠĠĠĠĠĠĠĠĠĠĠĠĠĠĠĠĠĠĠĠĠĠĠĠĠĠĠĠĠĠĠĠ ĠĠĠĠĠĠĠĠĠĠĠĠĠĠĠ
Ġinter section
Char acter
ĠF a
Ġcap ability
è¯· æ±Ĥ
et ition
å¥ ´
çĸ ²
åĽŀ åİ»
Ġtem ple
ä¼° è®¡
Ġto oth
as ia
Ġexpand ing
tw itter
Ġsubt le
 âĢĻ
èµ ļ
tr ace
Ã¤ Ã¤
fe ature
Ġpsy chiat
æĸ¹ ç¨ĭ
Ã© m
ĠConsequ ently
u cl
an ne
ĠN ation
Ġoptim ization
Ġw rap
ç» ³
æĹ º
åŁº å±Ĥ
( !
b uff
ĠP ear
Ġme ets
Ġi OS
ĠBl ood
ĠEvery one
Ġpl acement
Ġseem ingly
Ġhold er
éĢīæĭ© é¢ĺ
èľ Ĥ
ãģĻ ãĤĭ
ul pt
unt ed
åįĹ äº¬
ĠPort ug
Ġpoll ution
ĠR ules
av y
è½» è½»
Ġmal ign
ĠÑ į
Ġs ou
åħ Ķ
Ġout door
éĢ ¸
æµ ¸
bt n
Ġfund ed
Ġcompl ain
i ac
Ġpro long
ĠĠĠĠĠĠĠĠĠĠĠĠĠĠĠĠ ĠĠĠĊ
ĠO pt
å¾ ½
çĶŁ åŃĺ
åĳ½ ä»¤
Ġflow s
åģľ æŃ¢
Ġc i
reason able
Ġad oles
ĠÂ Ĺ
Ġelect rons
çŃ¾ è®¢
Gener ator
Ġscr atch
æ¼Ĥ äº®
Ġg rey
Ġcomp ression
Ġmot ions
crib e
in cre
æ» ¨
D onald
èĳ ¡
å¤« å¦»
charg ed
H older
Ġt ale
Ġt orn
Ġp ap
Ġh iding
éħ ·
è§ģ åĪ°
Ġprof ound
Ġpo etry
èĤ ¢
æľŁ éĻĲ
ĠWith in
Ġparticip ated
ÏĢ Î¿
B ind
em en
Ġsupp ress
ĠFore ign
Pat tern
er ic
ĠD ave
supp lementary
d ie
Sc roll
op ing
Ġch ampionship
æĳ ĺ
ĠCap ital
log in
ä¸¾ è¡Į
Ġwal ks
Ġf iring
ĠB esides
åİ Į
Ġem pir
part s
æĬĬ æı¡
ĠMc G
ÑĨ Ð¸
ĠC os
Ġamong st
Ġdivor ce
ur ches
ĠEx change
Ġt ons
Ġa wards
as ets
ĠG ib
Ġconst ants
ĠÃ º
Ġdiscuss ing
IP T
ĠT ree
ä¹ĭ ä¸ĭ
Ġimpro per
Ġappear ing
Ġviol ations
è¡¥ åģ¿
ĠPART IC
ĠS in
po ons
Fe ature
T om
Ġg ru
Ġam big
sh are
Ġfact ual
Ġs es
CH ANT
des ign
m itting
ed er
Ġex clusively
Ġar row
ob ic
çİ° éĩĳ
Ġprom ises
Ġred ist
ĠMount ain
F ollow
Ġt ies
Ġent ropy
ser ies
A E
m ill
èī ³
ç½Ĺ æĸ¯
Ġunf air
Ġbes ides
re ctions
ĠMar x
osp el
Ġble eding
B est
S pan
Ġst airs
in ters
ĠB ureau
Ġsu pre
ĠG P
æ¸ħ æ´Ĺ
ĠN eg
Ġpe aks
åħ³ èĬĤ
åŃĺ åĤ¨
ĠS audi
Ġres ort
Ġback up
çĥŃ æĥħ
Ġsubject ed
ä» ĩ
Ġlist ing
l ive
Ġin ch
bs ite
Ġsche ma
ä»¿ ä½Ľ
å°Ŀ è¯ķ
è¶ĭ åĬ¿
form ing
erv ing
Ġclos ure
ĠEd itor
åħ¸ åŀĭ
Ġgar age
B Y
est a
vel ope
Ġd ough
Ġshow er
let t
Ġorder ing
æĤ Ħ
ĠCommission er
h idden
or ic
Ġre ck
ex pl
Ġed ited
ĠFr ont
Ġrele ases
Ġxml ns
Ġcoll ision
ĠSpec ifically
Ġrout es
G M
T M
æī ĩ
Ġmut ual
D ES
f b
ĠT ok
Ġprevent ed
çº¤ ç»´
Ġall erg
mar ks
Ġal umin
åŃ Ŀ
çī© æµģ
Ġmanufacture rs
ĠS F
ill o
éľ ľ
æŃ¦ åĻ¨
æ£® æŀĹ
c ong
ot ox
æľĢ å¤ļ
Ġmut ation
C a
im on
ĠAl tern
an ke
ĠW ales
ĠR ail
ÑĢ Ñĥ
ter y
ĠR oom
ific ant
åĲĮ ä¸Ģ
éļ¾ éģĵ
pub lished
åĴĸ åķ¡
Ġd ining
Ġon t
Ġne u
cl uster
M apper
v d
âĢ Ĭ
ient o
ĠÐ µ
CH AR
Ġess ence
å©ļ å§»
æ¿Ģ ç´ł
Ġsustain able
Ġw ings
Ġw ished
Ġatt ending
åľº æīĢ
Ġchair man
Ġaff irmed
Ġcontrovers ial
Ġmunicip al
F ONT
is Empty
ab stract
ĠCh annel
éģĵ çĲĨ
Ġmain stream
Ġon set
ce iver
ĠK r
ĠPh ill
Ġadjust ment
ĠT am
rou te
æĭħ ä»»
Ġimag ination
Ġg rip
ĠTr ade
Ġreconst ruction
J S
å¯ ĵ
çĽĳ æµĭ
n own
ev ents
æĮĩ å®ļ
op ol
ç»Ļ ä»ĸ
work ing
è¿Ķ åĽŀ
f re
or b
Ġf ier
ut enant
Ġr s
å°ı ç¼ĸ
åĲĥ é¥Ń
T ip
th ird
åº Ļ
ä¸ª æĢ§
Ġunder went
ĠR O
ĠG ET
Ġk an
per iod
Ġcomp ly
Ġneigh bour
\ `
u et
ĠC ole
å±Ĥ æ¬¡
Ġrat ios
Ġneglig ence
B re
ĠC re
ĠP T
Res ources
Ġdeterm ines
é£Ł çĶ¨
Ġcou p
Ġnur se
S ql
leg ate
Ġvol umes
M W
N ever
n ell
éĽ ķ
Ġdev oted
omorph ic
cc a
æĸ° åŀĭ
æĲ ¬
Ġthread s
ĠB attle
æĮĩ åĩº
åı¬ å¼Ģ
re view
Ġwor ship
ĠHow ard
åıį å¤į
sk ip
Ġimpl ant
art ifact
å¤§ å¤ļæķ°
Ġvari ant
çĽ´ è¡Į
æįŁ ä¼¤
ÃĲÂµ Ãĳ
Ġp upp
Ġcan nab
Ġdes erve
amp ing
Ġtarget ing
Ðº Ð¾
OUN T
h ire
riv en
time out
Are a
Ġab ortion
EN CE
çľ¼ åīį
åł ¡
ĠAnth ony
h ind
Ä «
Ġf atal
Ġf etch
ĠC ro
Ġde leted
oc he
Ġhand ful
è¡¨ æ¼Ķ
Ġperform ances
Com ment
ĠBr idge
Ġgrav it
Ġab dom
Ġrep orters
Ġdocument ed
Ġprosec utor
Ġat omic
å®¶ äºº
åħ¬ ä¸»
Ġoper ational
è®¤ è¯ģ
Ġlab our
Ġrem arks
è§£ çŃĶ
Ġaccept ance
pol y
l ove
ĠB urn
i ol
ex ternal
ĠAl abama
ellig ence
A cc
Ġ} \\
Ġbo ards
CHANT ABILITY
y er
is che
æķ ·
Ġassert ion
Ġextra ction
Ġstraight forward
ul er
é©± åĬ¨
ĠPUR POSE
èĲ Ħ
Ġa ug
ĠRes ult
apt ure
åĿĩ åĮĢ
Ġderiv atives
Ġtend ency
Ð¾Ð³ Ð¾
/ .
ĠD uke
li est
Pro gram
div ision
Ġce iling
Ġflex ibility
N UM
Ġ$ -
å±ķ å¼Ģ
Ġemb ry
V I
Ġf oo
Ġres erve
Ġdecl aration
å®¤ åĨħ
Â ³
Ġc ats
Ġestim ation
ĠT ai
Ġconst raint
Ġfre ely
Ġscen arios
K ind
Ġ ic
ig o
B inding
S i
Ġ\\ |
éŃ ħ
hent ication
Y PE
he ro
qu ant
pe at
ĠH ans
Ġdec imal
Ġnegot iations
p d
ĠM ove
âĢĿ )
è· Į
Ġbul let
å§Ĳ å§Ĳ
Ġdepart ure
b inding
Ġd ur
ĠHe art
RE G
æĶ¶ è´¹
Ġcab in
b g
l g
and ra
au er
Ġcle ared
add le
ĠPr int
æ¢¦ æĥ³
Ġchrom os
Ġbon us
ĠH um
all ing
æľ¬ ä¹¦
èĬ ½
Ġins ights
Ġinvestig ations
Ġtoler ance
c reat
Ġt a
Ġtrans plant
Ġopp onent
Ġindic ator
Ġimm unity
augh ters
Ġhom eless
Ġgod s
Ġtransl ated
ä¸ Ļ
ĠM otion
ess a
ĠU lt
Ġins isted
Ġless er
æİ¨ åĩº
Ġprol iferation
p ire
ĠD VD
ĠViet nam
duct ive
ung en
Text ure
ing ton
æł¼ å¼ı
Ġprejud ice
Ġam id
Ã© es
å¹³ éĿ¢
åı¥ è¯Ŀ
èĳ¡ èĲĦ
N D
ĠLe vel
çĨ ¬
Ġa h
Ġb ases
Ġ[ âĢ¦]
bar a
Ġfoc uses
æ²³ åįĹ
Ġn as
ĠJ osh
AT CH
ä¼ĺ è´¨
Ġlit igation
ĠSum mer
ĠT ro
ĠC P
ill ary
air y
å¸¸ çĶ¨
åĨĽ éĺŁ
ĠPARTIC ULAR
M ath
x imate
Ġcom ic
ĠN A
Cl uster
Ġnecess ity
Ġang les
åĪļ æīį
ĠFin ancial
ust ed
ĠV ector
éĢ» è¾ĳ
v ation
ĠR oy
ĠTenn essee
w ave
èĳ ±
P ress
r and
en o
ĠM ars
åħ¶ æ¬¡
Ġthorough ly
ä¸Ĭ å¸Ĥ
ck er
as ures
æĶ¾ å¿ĥ
æŁĲ äºĽ
G H
ab ases
ä¸Ģ æ¬¾
ĠL aur
Ġins pection
ams ung
Ġstimul us
Ġm RNA
Ġim g
è¯´ æĺ¯
x sd
Ġcons ensus
Ã© d
Date Time
Per haps
_ (
n il
ĠS ie
art icles
ĠO ak
éĢĤ éĩı
Ġmax imal
Pr ice
Sum mary
Ġlad ies
ĠJ ob
Ġrepl acing
Ġto ile
ĠC ancer
æ³ķ åĽ½
Ġinst antly
Ġnow here
cont roller
Ġdr inks
ĠCount ry
Ïī Î½
Dom ain
T yp
n ational
ĠO nt
åĪĽ ä¸ļ
Ġdemonstr ates
ĠCons erv
Ġt ut
it us
ĠAng el
f are
Ġd irt
ĠC M
ist ration
ĠH ur
ä¸Ģ è·¯
Ġsub stitute
Ġr ush
ç§¯ ç´¯
Vis ible
{ {
id ays
un ge
Ġant igen
ĠLe ft
ĠMe anwhile
Ġengine er
è´§ å¸ģ
Ġinflam mation
k h
w ick
à §
og l
æıĲ éĨĴ
èĲ Ŀ
èĻ ¾
Ġlog o
sub ject
éļı æĹ¶
ĠI g
ĠP i
ä¸Ń èį¯
Ġp orn
æĪ¿ åľ°äº§
Ġaddress ing
t ensor
he nd
Ġb ol
å» ·
ĠAr thur
Com par
Ġple asant
Eng lish
or us
Ġf n
Ġb ent
Ġper o
æİ¥ è¿ĳ
ai res
UT F
Ġembod iment
Ġsid ew
Ġb ass
ĠM oon
èµ ł
ĠAn al
Ġsear ched
F ailed
Ġre ception
ul ed
us hes
Ġwor n
Ġcol lections
Ġvit amin
Ġf oss
ot or
ĠI ss
uck et
å°Ĭ éĩį
Ġathlet es
w at
se q
ĠS oc
Ġli able
Ġx e
æ¸ħ æĻ°
è·Ł çĿĢ
s ix
Â ĩ
ĠS ab
Ġco in
Ġfel ony
N I
ĠC HECK
isc hen
æī Ń
æĦı å¤ĸ
çĽ® åħī
ah oma
i ors
Ġbank ing
ud es
åŃ¦ ç§ĳ
St ill
ÏĦ Î¿
ĠGovern or
p adding
Ġhope fully
c z
d istance
st eps
ĠS now
Ġab road
Ġgu ards
Ġassert That
ze ch
Ġdebt or
ĠFore st
Ġdiscipl ine
h abil
iz ontal
Ġind ict
comp lex
Ġpred omin
èĸ ª
am az
ie re
Ġun ity
æĥ §
Ġt i
ĠM L
ĠB L
ph ase
Ġback ed
Ġret ained
ç»§ æī¿
Ġlic ensed
Ġb aking
çº ½
è¡¨ æĺİ
æĶ¶ åĪ°
ĠEx press
v able
Ġn aked
æ°ĳ ä¸»
w he
Ġsound ed
Ġarrang ements
iph one
ĠM oscow
åºĶ æĢ¥
Ġdom inated
Ġscan ning
ĠPalestin ian
Ġb ell
ĠC ass
Ġdev ast
CR IPT
ĠRec ords
Ġw ounded
Ġnot ing
è½¬ åıĺ
æ·± åĪ»
ĠFIT NESS
W elcome
ol utions
ä¿ Ĭ
æĻ Ĵ
F eb
M o
æ· Ģ
æµģ éĩı
Hel p
f u
ac ular
ĠC orn
ations hip
Ġcreat ures
Ġcateg or
Ġconven ience
g ian
à ¯
Ġb is
Ġref ere
Ġrepresent ations
ĠMor gan
CON FIG
aret te
Ġw rest
Ġm ature
ç§į æ¤į
æħ °
she ll
åĲ ĵ
Ġint u
Ġpr ay
be it
æĶ¶ èİ·
èİ ī
p aren
Ġin cur
è¿Ľ åº¦
Wh ite
object s
Ġimp ose
åıĳ è¡Į
ĠSc iences
ĠTrans port
c ia
r in
ĠP E
ĠL yn
æ° ¨
å¤ĸ éĿ¢
æĢĿ è·¯
Ġsurv ived
ĠMiss ouri
ĠFrank lin
diff erent
et e
ig a
Ġhe x
ĠB ol
ĠN ev
å¤ļ æ¬¡
ç½ ©
Ġpar as
Ġsing er
çģ« è½¦
Ġs ends
ĠS ound
Ġ( _
pl atform
ä¸ľ æĸ¹
ĠRes ource
Ġtrust ed
Bas ic
Ġslo pe
H ar
S creen
b ach
Ġcon cur
Par se
à¸ ²
Ġdemand ing
Ġrob ot
Ġr ounds
Ġshe ep
gl as
Ġparticip ating
Ġquant itative
Ġcert ified
m ir
ĠS cript
éķ¿ åº¦
Ġcar ries
å¡ ĺ
Ġpropos ition
å·® ä¸įå¤ļ
Ġcontrovers y
Ġst ats
Ġover night
P UT
ĠS L
ĠB alt
ĠG M
Co ord
ĠDie go
ĠMER CHANTABILITY
å¸ ½
æ³ µ
Ġatt orneys
Ġcrit ics
ĠIN TO
Ġbal anced
Ġkid ney
Ġtrem end
ul se
è´ º
Ġgl anced
ĠÎ ½
Ġaccording ly
åį° åº¦
L ayer
em et
Ġr anks
åĸ ī
Ġperm its
Ġenthus i
A udio
v ir
éľ į
é» İ
LO C
Ġbacter ial
ĠM ember
æĥ ¨
Sequ ence
ĠVeg as
{ }
Ø ³
ĠH ell
get Id
åĽ½ æ°ĳ
Ġinf ect
Ġsit u
Ġbit ter
Ġcontinu ously
Ġearn ings
L in
ol ph
åĲ ķ
ç®¡ éģĵ
Ġleg ally
Ġjournal ist
Down load
N ative
èµ ģ
è½ °
not es
æŃ¦ æ±ī
å§ĳ å¨ĺ
Ġgr am
ĠTur k
ä¼Ł å¤§
Ġelder ly
st ation
Ġafter wards
åĨħ åŃĺ
Ã¤ l
ĠUk raine
Ġto b
Ġh orn
Ġst ub
th y
Ġtra p
Ġes p
Ġre lied
Ġsh ifts
Ġpar liament
Ġrece ipt
eb ook
ING S
âĦ ĥ
T IME
Å £
â Ļª
Ġd ull
ĠSt ew
æ¸ Ĺ
åĲĪ æ³ķ
Se lection
æłĳ ç«ĭ
g iving
op sy
Ġsynt ax
G iven
g ie
ent a
Head ers
bold math
Ġinflam matory
Ġconflic ts
; &
äº ı
æĪĲ å°±
Ġrem ed
Ġprob ation
Ġpolynom ial
t own
Ġoutput s
èĤ¡ ç¥¨
Ġpure ly
Ġpept ide
Ġl ui
Ġthem es
Ġdiff usion
æ£ ī
hold ing
L at
å¸¸ å¸¸
ĠÃ ¥
Id s
ĠTH AT
Ġoblig ations
ĠP ack
Ġnot ation
æīĢ å¾Ĺ
Ġvac ation
s quare
Ã ¬
Ġw ages
Ġsp here
D ig
T ON
ou ver
ic ating
å®¶ æĹı
æĤ Ķ
Ġsp ite
Ġover head
å¥½ å¤Ħ
å±ħ ä½ı
nd ef
Ġmed i
Ġ` `
is ible
Ġas leep
Ġexp end
Ġtown s
Ġproceed s
ç§Ł èµģ
itud inal
L eg
Ġlist ener
å¸ĥ ç½®
ucle ar
A ust
Ġan x
åıĳ æĺİ
åı¯ çĪ±
ĠInd ians
æ¡Ī ä¾ĭ
ĠInt el
O wn
is an
ook ie
ĠĠĠĠĠĠĠĠĠĠĠĠĠĠĠĠĠĠĠĠĠĠĠĠĠĠĠĠĠĠĠĠ ĠĠ
Ġlip id
Ġg it
se cret
ç»Ĩ èĬĤ
Exp ress
Ġking dom
Ġpublish ing
V R
m ont
es c
mer cial
by e
Ġlim iting
Ġret reat
åĨĻ ä½ľ
Ġmole cule
P aul
n odes
ĠB and
ĠF uture
Ġsc ulpt
å¨ ĥ
s ync
Ġfor cing
ä¸į çĦ¶
rypt ed
Ġtime out
Ġdevelop ments
Ġfear s
ct ic
ĠC e
Ġ- .
Ġdis able
Ġar ises
Des c
è¿ Ī
un ion
ĠIn v
éĺ ģ
Ġexp ed
MO DE
ĠBuild ing
im ore
Ġselect ive
ab ad
ĠJ ess
He alth
ä¾¿ æĺ¯
= -
Ġp ued
éĹ ·
å² Ń
AP TER
Ġload s
Ġde position
ĠIn clude
æĶ¯ æĴĳ
Ġdistrict s
éĨ ĩ
ipp i
L IB
R IGHT
s il
ĠÃ© t
Ġveter an
æ¸ł éģĵ
C ould
Ġp ose
ĠM ind
Ġdis hes
æĦ ī
åĲĮ å¿Ĺ
åĵģ ç§į
arent ly
ĠS ex
ĠE conom
å°ı ç±³
ĠAr k
ĠDe ep
comm unity
R ob
ĠC SS
all a
anc ies
ext ension
é£ŀ æľº
ĠG OP
Ġ_ 
att ed
ri k
Ġcom edy
ros is
Ġsynt hetic
A X
n ia
ĠI ron
Ġblock ing
ĠPat ients
èĤ¡ ä¸ľ
ĠBit coin
ĠW ind
åĨĽ äºĭ
Ġtrad em
èĴ Ĥ
Ġel ite
ç³ ķ
state ment
b one
at isf
ig t
Ġco ating
ãĤ ¢
Ġwarm ing
ĠOption al
ort on
ä¿ ©
sh a
çĬ ¬
æĲ ħ
Ġcos m
Ġw ishes
Ġrem edy
æ°Ķ ä½ĵ
ĠMex ican
Ġconfirm ation
é¢Ĺ ç²Ĵ
n amed
p aper
ĠH ug
ĠK al
èµ· è¯ī
ãĥ ©
å¨ ±ä¹Ĳ
ç¢ ĳ
s ocial
Ġs z
Ġvacc ine
ĠD allas
set Text
æ¶ Į
éĩĳ é¢Ŀ
Ġefficient ly
L en
T AG
Ġcomp lement
ĠProte ction
s z
Ġw and
pl er
å¢ ĵ
ĠCar ter
J ack
c v
Ġs its
Ġh ack
st en
end ix
åį ľ
Ġgl ance
config uration
vari able
ĠW right
ĠF ried
Ġpart e
Ġtri ps
Ġmodel ing
ĠS om
te enth
sp in
çĮ İ
Ð´ Ðµ
çĿ¡ çľł
res ources
un ks
ä½ĵ åĨħ
æ¡ ĳ
ä»İ æĿ¥
struct or
S orry
b rew
Ġ à¦
Ġdis rupt
ä¼ļ åĳĺ
Ġill um
é¡º åºı
en za
æµ ĩ
è½¬ æį¢
Child ren
lin ks
Ġâ Ĩ
Ġabund ance
E lements
ĠL uke
åĽ¢ ç»ĵ
è ©
Ġw ip
xt y
Ġimplic it
uls ion
m ad
Â ı
ĠA bs
ĠO cean
ĠTh ings
åĬ¨ æĢģ
éĶ ¡
Ġsl ave
Ġchemical s
Ġprotest s
Ġinvari ant
F ri
ĠN ative
Ġpot ent
Ġpresent ing
Ġhost ing
Ġeth nic
s imple
ĠS omething
è½¬ åĮĸ
Ġste ep
Ġlabel ed
éļľ ç¢į
N P
ĠS I
ph an
Ġprodu cers
c ies
p it
ol k
ĠS imp
os er
Ġatt achment
å« Į
Ġdys function
CLUD ING
w estern
Ġre fr
Ġwh ilst
Ġv ic
æĹł çº¿
Ġdisappoint ed
bl ank
çĽ´ çº¿
Ġrit ual
ra ham
Ġrel uct
riv ed
import ant
dat abase
é¸¡ èĽĭ
t u
rom agnetic
èµ «
cept or
Ġprec ious
Ġap opt
Ġcru el
åįļ å£«
ĠRem ember
ĠLin coln
Ġlaugh ing
Ġappell ate
Ġan terior
ĠC F
Ġr ally
ĠTh read
Ġdirect ors
Array List
cs v
Ġd oses
A ctions
in ery
Ġm l
ĠE le
ä¸į å¤§
Ġdist ribute
å½ĵ äºĭ
Ġclin ic
Ġshel ter
Ġsatell ite
Ġaw ful
Ġbroad er
ĠLab our
Ġst aring
Ġtra uma
Ġdetect or
ĠNe ither
VAL UE
Ġthere in
li ers
ĠBl og
åħħ çĶµ
ĠRem ove
Ġcoc aine
ĠMathe mat
m outh
åīį æıĲ
ĠUp on
Ġfle et
æ¾ ³
Ġswim ming
x sl
Ġs oup
ist ical
const it
ĠPr im
ĠQu ant
ĠA RE
éļ Ļ
Ġcollect ing
Ġlux ury
R oute
ore n
uck er
åĩºçīĪ ç¤¾
Ġwhis pered
è·¯ çº¿
ta it
è£ ¤
Ġtext s
Pref ix
Ġmathemat ical
åĴ± ä»¬
B i
ĠW i
ch r
Ġrun time
å½¢ æĢģ
Ġpress ing
Ġhost ed
å¿Ĺ æĦ¿
çĭ¬ çī¹
æĹģ è¾¹
ag ine
Ġwas hed
Ġch ips
Ġfollow ers
ĠAtl anta
ĠGa ussian
Ġd ign
Th rough
å¼º çĥĪ
Ġill ust
Ġavoid ed
friend ly
i otic
Ġd ental
f red
Ġf Ã¶
Ġg n
ur bed
th ose
ĠD ifferent
èĪĴ æľį
olester ol
åħ¨ èº«
Ïĥ Î·
Ġconserv ation
Ġt rivial
est inal
un ting
ex e
å¯¹ æ¯Ķ
çª Ŀ
é¢Ħ æµĭ
Y et
ch ant
Ġad en
Ġtrans late
èī² å½©
æĬ¥ éģĵ
éĺ² æĬ¤
Ġmother s
h ill
ĠA le
å¥½ çľĭ
Pro tocol
Ġaccept ing
' \\
Ġthe ater
ĠCol on
Ġred irect
Ġcry ing
åľ° çĲĨ
ĠOther wise
Ġconj ug
Ġc ave
Ġm ud
Ġinst inct
anc ell
ĠStud io
ä¸Ģ æĬĬ
Ġrec ycl
ç¢ §
o ose
ĠS Y
åı ł
æĬ ĸ
ç»ĵ è®º
Ġold est
Tr ack
Ġliter ary
Ġun comfort
ĠV ar
Ġdifferent iation
éŁ µ
Ġactiv ists
at en
Ġsh ore
åıį èĢĮ
åįİ ä¸º
Ġspeak ers
Ġspokes man
ad der
ä¸Ģ æĺ¯
err ors
ogen ous
Ġcampaign s
Ġsh aped
ex tern
Ġob s
Ġworth y
pan el
k Null
Ġ ðŁ
Ġf ung
OS S
sa fe
h um
ol ars
Ġhar sh
Ġw er
å¼Ģ åĲ¯
ä¾¿ å®ľ
å« ģ
t ar
ĠSt aff
ĠØ ¨
Rel ated
am l
Ġrecall ed
J ames
f loor
ç¤º èĮĥ
Ġcy ber
kNull Symbol
Ġpr inter
bo ards
Ġdefect s
g irl
n ative
Ġa rom
æĬ¥ åĲį
at op
Ġp unch
Ġd ictionary
Ġl id
im ated
åı¯ éĿł
Ġsent enced
ed uc
Ġst ellar
Ġso vere
Pro p
Ġuser name
Ġann iversary
ĠSy rian
Ġc ute
Ġat he
Sh ape
Ġport s
Ġhighlight s
Ġsan ctions
Ġmotiv ated
Ġexperi encing
Ġa in
Ġc inem
Ġrel ies
ĠDel hi
ĠK a
for all
de velopment
Reg ion
Ġinstit utional
rypt o
ãģĹ ãģŁ
m art
op les
ĠE D
Ġqu otes
iss ippi
æīĵ ç®Ĺ
è®¤ å®ļ
Ġproject ed
Ġmar ry
Ġpo et
Ġconver gence
T ry
Ġf est
Ġbe ef
ĠC redit
Ġopp onents
à¤ ¾
ĠS to
ä¸Ģ ä»£
Ġqu asi
Ġend less
Ġgener ates
Col l
eral d
ĠGr id
ĠIm port
ĠEngine ering
- $
S uch
Ġ ÑĢÐ°
Ġall ies
Ġpres erved
Ġland ed
æŃĮ æĽ²
ä¼Ļ ä¼´
st ats
ĠP as
old ing
æı Ń
åı£ æ°Ķ
w i
ĠD ur
ĠD rive
å¤§ çº¦
ĠLaw rence
Ġcontribut ing
Ġcoh ort
R ound
il ia
ap a
å¼ ¥
Ġgen re
Ġhor rible
ag le
ens ively
å¿ĥ èĦı
Ġaw k
ĠEar ly
Exp and
Ġterror ism
ĠLeg isl
pow ered
{ -
Ð» Ñı
. (
W as
t ax
Ġs ab
ĠG ordon
ĠTh ink
Ġcle ver
ĠAust in
ig s
æĺ ı
Ġcur sor
Ġpan ic
Ġexception al
ĠIl legal
A x
Ġst ones
art z
è´ ¾
ĠMay or
Ġimpact s
Ġneut r
åĲ ŀ
èĢ ķ
ĠK ind
éĹ® éģĵ
ĠWh it
åİŁ æĸĻ
Ġ! [
Ð¾Ð ¶
Ġpoor ly
Ġvent ure
ĠFoot ball
M arch
ĠE ight
Ġconst ru
çĻ¾ å§ĵ
Ġass ured
ä»Ģä¹Ī æł·
Ġclick ing
éĢĲ æŃ¥
l ated
Ġp iv
ap olis
åĲ¬ è¯´
Ġauthent ication
h bar
er on
Ġp ier
ĠF ac
ä¸Ģ éĥ¨
ĠE mer
Ġmod est
åı¸ æ³ķ
ĠIs a
wh y
åĽ´ ç»ķ
Ġmotiv ation
Ġhoriz on
at omic
çº ²
Ġinvestig ating
Ġrom antic
Ġ âĢĿ
Ġf art
ĠM IT
m and
her lands
Ġsh ake
au nd
Ġconduct ing
allow ed
Ġsophistic ated
r us
Ġequ als
plic ation
Ġimplement ing
Ġexhib ited
Ġbub ble
st ick
Ġle uk
Ġconsider ably
ĠMc K
ĠPol it
ĠC NN
é¢ ĩ
åĪĨ ä¹ĭ
ä¸¤ å¹´
Ġglass es
Ġrub ber
Ġd y
st an
Ġmod er
Ġcorrect ed
i op
Ã ĺ
Ġs isters
ot ide
Ġdo zens
Ġreg ards
EN G
Ġgrow s
App ellant
ij k
à¸ Ļ
Ġhab its
Ġbab ies
Ġth ou
od a
Ġj acket
iss ance
æľ¬ æ¬¡
Ġchar ity
Ġreported ly
ĠChar lie
Ġcardi ovascular
Ġdesper ate
Ġtob acco
å¼ Ĺ
Ġinvest ments
ĠIN T
ĠHar vard
Ġagric ultural
L ondon
S cope
Ġa est
Ġp and
æ£ ĭ
v irtual
ĠM AP
åĬ Ŀ
Ġover se
Ġstream ing
ä¸Ģ åįĬ
è®¸ åı¯
ifi able
Ġf aint
st ock
ub ern
Ġgr ants
bas ic
åĵ² åŃ¦
Ġridic ulous
T EXT
t c
in ion
ĠA BC
Ġag grav
ĠSte p
P a
is ot
comp ass
AA AA
Ġbehavi ors
Ġdistingu ished
å½ĵäºĭ äºº
is se
æĹł æķ°
ache l
Ġstri kes
Ġsynt hes
V ery
å·¥ äºº
ĠĠĠĠĠĠĠĠĠĠĠĠĠĠĠĠĠĠĠĠĠĠĠĠĠĠĠĠĠĠĠĠ ĠĠĠĠĠ
Ġsol ving
æĢ» é¢Ŀ
Ġhol y
Ġven ue
G a
w al
id i
ĠThe ory
è¯ģ ä¹¦
éĵģ è·¯
HT TP
Ġalt ogether
Ġunivers ities
} [
Ä Ł
ĠC reek
ĠL IM
æĻ® éģį
ĠSen ior
Cons ider
che ll
Ġpri ze
is ations
Ġst ro
Ġmed ic
af ka
é¸ Ń
Ġsucceed ed
Ġexcit ement
F actor
ĠS elf
Ġc rop
out ube
comp lete
F ire
Ġshe d
åŃĲ å®«
Ġgar lic
Ġb orders
Ġhigh way
åĶ ĩ
Ġdro pping
éĺ´ éģĵ
Ġoccup ation
h appy
p kg
Ġv ag
Ġcont ention
ä¸Ĭ åįĩ
åĬ¨ è½¦
ĠAl an
oun cing
Ġlist ened
æ¨¡ æĭŁ
Ġdocument ary
A p
M icrosoft
st ill
ĠT yp
Ġbe ating
ĠB ab
ass ador
con sum
xt ures
app le
Ġgu ided
Ġche er
Ðµ Ð¼
åł ª
Ġens uring
ĠSen ator
char acter
åį° è±¡
Ġenhance ment
åĪł éĻ¤
ocy te
ĠN ich
æ¬ º
ĠSing apore
Ġin con
çī¹ æĢ§
Ġassert ed
Ġpen et
s ime
to x
ah l
alth ough
Ġinit iated
åĭ ĥ
Ġmer its
Ġanticip ated
s ight
Ġin verse
Ġn est
Ġpro gn
iv an
lic ations
Ġcomm e
Ġmand atory
Ġdefe ated
it ate
Ġdef ence
Ġfunction ing
ĠAn ne
Ġord in
Ġencour aging
anche ster
Ġb ail
ĠD A
Ġsp are
ç¢ ±
Ġblock chain
ĠMon te
Ke ep
Ġder ive
Ġreview ing
ĠL E
Ġsub stances
Ġqual ities
ĠCON TR
ĠInst agram
ou bt
th a
ĠF R
Ġcons olid
m k
Ġbe ans
ä¸į è§ģ
æľī æľº
Ġant agon
Ġjournal ists
Ġdepos it
Ġinvent ory
c amp
j oint
Ġw ars
ĠG T
ĠChristian ity
ĠG ard
Ġk a
ty pen
igen ous
Ġteas poon
emet ery
N othing
P F
Ġc er
ĠJ son
åİ» å¹´
èº ²
comp any
æ¶Ī æ¯Ĵ
Th ough
éĢļ éģĵ
Ġinc idents
Ġret ros
sequ ence
ĠDo ctor
Ġv ocal
out ing
ĠIt em
AL S
down load
Ġir rit
Ġv end
alk ing
cont act
èĬĤ èĥ½
ï¿ ½
) \
s pect
Ġp ens
ĠT arget
Ġne at
Ġnon linear
big g
æĦıåĳ³ çĿĢ
Ġre ass
im eter
Ġhung ry
ĠL oc
Ġca ution
ç§ĳ çłĶ
ĠÏĦ Î¿
ĠHill ary
ogg le
Eval uate
Ġd read
om p
Ġres in
æľº åľº
Ġgeneral ized
Ġg em
Ġfl ip
set up
çī© ä¸ļ
Ġtack le
è¾ ½
çĹ ĺ
Ġproduct ive
ey ond
Ġpul monary
sime q
typen ame
Ġc raw
ĠM R
Ġal igned
ĠÎ ¿
Ġ= \\
å¾Ī å°ĳ
è¡¨ æĥħ
è§£ éĻ¤
And roid
Ġdead ly
c out
ist e
Ġex clusion
ie ved
å¤© çĦ¶
æľŁ å¾ħ
Ġoper ates
unc hes
Ġforg ot
u in
Ġb ureau
Ġcomp ile
ĠUn like
Ġref eren
èĢĥ çĤ¹
åĪ« çļĦ
Ġvari ability
ĠMor ris
ç¦ģ æŃ¢
ĠW el
ĠPl ayer
åĭ ¾
or able
ic ode
Ġun cle
om it
un i
Ġexpl oring
Ġplan es
Ġprom oted
urs or
æħ Ī
vi ol
if ndef
Ġwhe els
Ġel astic
ĠAnt onio
ĠÃ® n
M ask
Ġk on
form er
Ġposition ed
Ġdisp ersion
it ance
ul ates
ĠÎ ³
ili ary
Re lease
Ġconsist ed
Ġconsist ency
Ġsort ed
ĠLa ure
èĳ£ äºĭ
åİī å®³
B ank
Ã Ĥ
ĠD ad
ĠâĢľ [
hed ral
Ġbl end
Ġinter ven
Ġtrig gered
N ING
åĴ ¸
å°ı äºİ
åĬł å¤§
Ġrest ored
æĺ¾ çĦ¶
Pl an
Ġsacr ifice
f lix
ĠM aj
Ġobject ives
æĶ¹ è¿Ľ
ĠSm art
Å ³
Ġg ri
é¢ĺ çĽ®
åľº æĻ¯
ĠHamilton ian
Ġnurs ing
Ġp ants
ĠS ite
ĠN i
akes pe
Ġtable t
ç»´ æĮģ
èĤ¡ ä»½
det ail
bul let
Y ear
iff s
Ġcook ie
Ġclim b
v r
Ġs Ã¥
Ġw it
id ade
ĠB ud
Ġthr ust
pl ess
Ġcent r
Ġvari ants
fe atures
ĠTe ch
Ġlic enses
l m
assert True
Ġbehavior al
kl ahoma
oen ix
Ġsur f
Ġhead quarters
ĠShe l
Ġeth ical
æģ ¼
åº· å¤į
Ġprot ocols
B ro
ĠS ize
un o
ĠJ enn
å¦ ¥
éĿ¢ ä¸´
Ġconsider ations
Ġimag ined
Rev iew
å¿ĺ è®°
Select or
Mult i
Ġb icy
sp ot
na ire
Ġcompan ion
I ll
èĩ Ń
çİ° æľī
eq n
åĤ ħ
Ġdegrad ation
R ich
Ġb er
om ing
ĠSand ers
Â Ĵ
ou rier
st a
st yles
ĠM and
Ġint end
è¿Ľ å±ķ
Ġport folio
cf g
Ex pr
æĺİ å¤©
Ġcirc uits
ag ged
io let
Ġtra iler
ĠAd ams
åł µ
Ġcannab is
b p
Ä Ĺ
es ian
Ġat e
æĹ© æľŁ
i able
Ġas pir
ah n
åį± å®³
P K
E q
è¯ ŀ
Ġdis pers
AR S
To String
Ġattract ed
ĠFil m
åĳĪ çİ°
ĠN ik
Ġle aned
cl er
æľĢ ä½İ
Ġincre ment
åĶ ¤
Ð¾Ð º
M OD
d ue
Ġp anc
ra f
display style
C HECK
Ġ ê
Ġt amb
as ury
ĠSe pt
cont ract
ari ans
Ġid x
è¿Ŀ æ³ķ
ĠVictor ia
B IT
P red
ĠM ach
ĠN elson
ĠE T
rit is
comp are
Ġpo em
çĽĳ ç®¡
EL D
C ourt
Ġd ass
Ġfor b
ict s
ĠÐ °
Ġemploy ers
Ġdeal t
ÏĦ Îµ
ä»ĺ åĩº
Ġb ite
æł ª
AR E
ven ile
Ġexpl oration
Ġcou ples
Ġlack ing
èĩ³ ä»Ĭ
inter pret
m il
Ġb ump
Ġd ash
ĠM Y
Ġmod ifications
âĢ¦ âĢ¦
æļĤ æĹ¶
Ġembr ace
ĠF ab
Ed ge
he res
Ġh alt
Ġtr aged
Ġdis par
ec ess
Ġrem and
Ġapproach ing
æĹ© ä¸Ĭ
æĬĵ ä½ı
Ġin adequ
Ġover r
ater n
Pro gress
co ord
Ġver ified
Ġexpress ing
met ic
Ġkick ed
~ 
Ġan k
Ġd ancing
å¤ ķ
Ġout s
Ġfr am
ä¸¾ åĬŀ
Ġt id
åĲĦ åľ°
Ġpers istent
ĠAb stract
Ġoverl ap
l ad
ev a
å£ ¤
å¤« äºº
å¸Ŀ åĽ½
ĠDown load
Ġo ri
ä¸Ģ çľĭ
å¯¹ æīĭ
æĸ° é²ľ
Ġve c
trans fer
æ¤ ħ
Ġfirm ly
ä¸įå¾Ĺ ä¸į
å¤© ç©º
Ġke en
Ġpract ically
Ġsil ly
ĠSy dney
cos ystem
èļ Ģ
C ent
al in
ĠT ed
ac cur
æŃ£ è§Ħ
Ġca us
Ġwa ist
P LE
m om
Ġdis posed
Ġinter pre
mem bers
ĠNAS A
Ġindivid ually
I gn
v n
Å Ľ
ä¸ ĺ
em b
ç½ Ĳ
struct ure
ĠRuss ell
Ġvirt ue
åľ¨ çº¿
Ġsc rap
ograph ical
map sto
Ġinhib itor
S ever
Ġs ont
ĠO cc
èĩª è§ī
ĠBru ce
g z
g ency
er os
an Ã§
äºº ç¾¤
Ġcl oth
Ġval ley
sc an
èĦ Ĭ
Ġdeliver ing
Ġminim ize
k ernel
r ams
Ġf ancy
ang les
Ġpopular ity
Me anwhile
å¿½ çĦ¶
ĠThom pson
Ġpro to
Ġev olved
è¯Ħ è®º
Ġkill er
Ġimmig rants
ĠMot or
H aving
get Value
èĬ Ŀ
pre v
æĹħ è¡Į
æĩĤ å¾Ĺ
Ġaccum ulation
u ates
Ġc el
es pecially
as a
å¤§ å¤§
Ġpublic ations
çĸ Ĩ
èµ° äºĨ
Ext ension
bour ne
ed itor
ĠS S
pe g
ĠB an
æº ĥ
Ġstre ams
å¾® ç¬ĳ
ĠCor ps
Ġselect ing
ĠDet roit
Ãª me
Ġrender ing
im b
Ġg raft
ĠT ab
Ġsu ite
Ġreal m
é¾ Ł
dat aset
INS ERT
ar in
Ġle an
åĲİ æľŁ
ä¼Ĺ äºº
h it
åĬł æ²¹
script style
k et
Ġf usion
å® Ļ
ĠG ulf
Ġqu eries
ĠSt atus
ĠAl ice
cul iar
col lection
or ia
ĠS el
Ġcon ced
ĠL am
ç» µ
as ync
è¶ħ å¸Ĥ
èĥľ åĪ©
Ġan onymous
op ter
å¥ ĳ
èĬ Ĵ
æ¶Ī èĢĹ
ful ness
. <
Ġn inet
ĠP ope
ĠH il
æĥħ å½¢
ä¿Ŀ åģ¥
Ġsk illed
Ġneg lect
ä»ħ ä»ħ
å®¡ æī¹
èĵ Ħ
Ġexhib its
ãģ¾ ãģĻ
M aster
it ated
Ġm os
ri el
æ¸ħ çĲĨ
Ġconsum ed
B u
i ency
t ok
Ġdec iding
Ġphys iological
Ġinhib itors
âĳ ł
S ample
Ġg rap
En able
éļı åĲİ
Ġnit rogen
æĿŃ å·ŀ
akespe are
en abled
ĠR ab
Ġcry stall
ĠGree ce
paren cy
lic ense
Ġob esity
R R
w rit
Ġm im
Ġd aughters
Ġl um
Ġg li
ig hed
ä¹ĭ å¤Ħ
å¦» åŃĲ
H ub
att en
Ġur ged
Ġconstit utes
Ġfat ty
u pt
ant es
Ġcomp elling
Ġar th
M a
b ie
åį ¢
Ġdiv ine
Ġrad ial
é»Ħ èī²
Ġhe lic
Ġdon or
gu ard
Ġcomprom ise
ĠR and
åĬĽ åº¦
ĠChrist opher
Ġrecommend ation
D b
ĠC ry
ĠCh ap
Ġfe ver
ĠAss istant
ĠReg ion
A pril
ag ma
è§£ æĶ¾
æ¸© æļĸ
group Id
elle es
Ġn ie
Ġhaz ard
g athered
ä¸Ģ å±Ĥ
è¯Ĩ åĪ«
Ġspecific ity
åįı åĬ©
Ġrat ings
w ant
Ġf are
Ġb ay
ĠO pp
ress es
ĠĠĠĠĠĠĠĠĠĠĠĠĠĠĠĠĠĠĠĠĠĠĠĠĠĠĠĠĠĠĠĠ ĠĠĠĠĠĠĠĠĠ
Ġreg ulated
èĥ ģ
ĠDe velop
Ġblood y
éĢĶ å¾Ħ
iat ric
V O
Ġ ions
Ġs our
Ġdou b
Ġh ind
ous ing
æ° ¢
èĩª æ²»
ç¬¬ åħŃ
ĠInt eg
Ġutil ize
èŀį åĲĪ
Ġrank ed
L ibrary
r ator
ver b
æľī æĹ¶åĢĻ
e conomic
u pload
on o
ref erences
Ġcor ners
Ġext ensions
Tr ump
è¥¿ æĸ¹
Ġwood s
Ġboot s
ĠTem ple
Ġvari eties
Ġphys icians
ĠCo oper
ä½İ äºİ
Ġdismiss al
å« ©
æĲľ ç´¢
S em
W ould
ri ors
Ġinv ite
Ġadv ances
ĠUS S
Ġfle w
support ed
et ics
æł ĵ
sc ar
return s
åĬŁ çİĩ
Ġtw ist
ot ive
iz a
An n
Ġdemocr atic
am ount
å¤§ åĬĽ
oth y
Ġquestion ed
ç©º è°ĥ
é¢ĳ çİĩ
car bon
Ġhonest ly
Ġliber ty
Ev ents
M al
ĠS ac
Ġsimilar ity
Ġdef iciency
Ġcol leg
Ã© g
Ġend orse
ä»Ĭ åĲİ
des criptor
Ġcook ed
C enter
ĠM uch
ĠU tah
big l
Ġsyn c
Ġpass ive
æµģ è¡Į
Ġalumin um
P resent
ac iones
ĠCh all
Gener ic
artifact Id
N ormal
r isk
ĠĠĠĠĠĠĠĠĠĠĠĠĠĠĠĠ ĠĠĠĠĠĊ
ä¸Ģ æľ¬
è¿ĩ äºİ
Ġperiod ic
Ġund ers
å®³ æĢķ
ĠHun ter
Ġfluores cence
A li
d an
Ġse iz
inc ing
ĠCont ract
k ar
æŁ ´
Ġtra pped
ĠCl aim
å®¢ è§Ĥ
åĪĩ å®ŀ
Ġbelong ing
Ġlegisl ature
in ement
ÏĦ Î·
vol ume
Z Z
p end
is ode
Ġcomb ining
æĿĥ çĽĬ
E ar
Å Ļ
ll a
Ġbl ast
Ġinter active
upp er
ĠVis ual
L ear
e ight
Ġsh ocked
ĠV ice
æİ ĺ
éħ ¶
Ġgl ory
ĠCon text
å¿ħ çĦ¶
Ġrig id
s us
Ġun iqu
å² ³
contin ue
Ġjust ified
ene z
Ġport ray
å¯Ĩ çłģ
çĶ» éĿ¢
ĠAuthor ity
ĠS ant
ĠP red
Ġ| \\
Ġconv ince
Ġrent al
Ġsecre ts
am y
åŃ¦ æľ¯
åı¯èĥ½ æĢ§
US ER
Ver tex
Ġa uch
Ġo ct
am on
å¸® å¿Ļ
Ġavoid ing
cor rect
FLAG S
d frac
ig m
ĠC ut
ĠG ary
Ġdis cre
åī Ĭ
Ġco aches
Ġpres cribed
Ġgener ous
Ġcount ed
èº º
åī© ä¸ĭ
Ġswit ched
t ags
ä¼ Ĳ
å· ¾
Ġ+ \\
Ġag ing
check ed
m uch
ä¸Ģ é¢Ĺ
Ġclass room
éĩį å¤į
Ġfrag ments
S ure
ĠJ en
Ġfin ishing
Ã§ Ãµes
prot ocol
ion i
ĠO liver
Ġtrans itions
Ġsm iling
Ġpay load
lev ance
Ġintrodu cing
ç§ĺ å¯Ĩ
P CR
ãģ ĳ
ma jor
Ġche aper
Ġflow er
æįŁ å®³
ĠBow l
S al
Ġp izza
ĠP O
æ¸ ´
ãĤ ¿
Ġtyp ename
Add itional
re ng
ĠBas ic
ĠFour th
Ã ¯
ĠE ve
Ġapp le
Ġmechan ics
Ġsoon er
Ġachie ving
Ġmob ility
R andom
ĠApp ell
Ġphot ography
Ġcontact ed
ĠEd ition
Ġalbum s
Ġcav ity
\ #
F ollowing
P rom
l ittle
ise ase
Ġconfig ure
Ġful fill
Ġl ane
Ġtrans it
Ġ\ 
ä¸» å¸Ń
Ġlog s
Ġautom ated
lot te
le arn
Ġu gly
Ġst ip
ĠP U
ä¸Ģ å¥Ĺ
ST ATE
ĠDemocr at
typ edef
l c
q a
Ġh ay
op a
ĠO tt
ub le
ĠIn vention
ĠNot es
Ġpropos als
F ram
Ġw ard
uck ed
åħ» æĪĲ
ä¸´ æĹ¶
ĠÐº Ð¾
S en
æľ¬ ç§ĳ
ä¿¡ ä»»
ä¸ľ åĮĹ
Ġassert s
light s
GB T
d riven
sw er
AC H
big r
Ġexhib ition
C UR
Ġp ou
ç¬ ¼
Ġdist ress
Î¼ Îµ
æ¹ĸ åįĹ
Ġcig arette
ETH OD
id os
Ġbe ars
Ġex ert
Ġ} }
enc er
æĽ´ æį¢
ĠEm ploy
Ġcab inet
Ġshout ed
Ġrif le
ĠFif th
S il
Ġo lig
al ph
Ġre ign
Ġg orge
ĠF le
Ġrest art
æļ ĳ
Ġphenomen a
s ol
æ ª
qu et
ĠD rug
ĠE li
ĠÐ »
ĠÂ °
è¶ħ çº§
Fr iday
Ġengine ers
Ġhorm one
R ender
in ar
ent i
çĽ ²
F older
ĠA gr
Ġst unning
ĠN BA
Ġdr ift
bu ilt
Ġst raw
è¿Ļ æ¬¾
ĠÐ¾ ÑĤ
C Y
Ã ®
Ġb ip
ro b
Ġpro state
æĥ³ èµ·
Ġunf ortunately
ig g
Ġal ike
Ġex clude
ĠR aj
Ġcommand er
Ġdiscl oses
Ġbuck et
Ġgovern ed
rel ation
èĤĮ èĤī
W O
f un
re pos
éĥ¨ ç½²
Ġsystem ic
Ġinstruct ed
Ġcyl inder
C ast
H y
h ma
ĠS ett
çĶ¨ èį¯
é«ĺ æł¡
ĠCom par
Pl atform
åĵ¥ åĵ¥
Å į
Ġf ires
oc on
æķ ²
Ġcar riers
çĭ ±
Ġprinc ip
ĠPark er
ĠMag azine
Ġsurprising ly
is y
ä¸ ĳ
åıĳ åĬ¨æľº
ĠÐº Ð°
P od
p icture
r ative
ul i
row able
Ġcur v
Ġexpl ored
ĠDe cl
IC AL
ĠPsy ch
E Y
Ġimp ly
Ġart ic
ID E
Ã¡ t
ij ing
Ġgraph ic
Ġdram atically
f actor
g p
l ater
Ġm ate
Ġm aj
Ġthreat ening
Ġcoron ary
L ib
P rivate
he im
as se
å¤ ¸
åħ¬ ä¼Ĺ
Ġret rieve
Ġsn ap
w ed
Ġto do
Ġwas hing
ĠH ost
With out
c mp
ĠAdd itional
Ġexerc ises
Ġtouch ing
VAL ID
Ġpolar ization
l os
Ñ Ħ
ge ant
add ed
æĳ Ĭ
ĠEm ail
Ġconj unction
Ġasc ending
m ethyl
ĠB art
ĠB loom
Âł ĠĊ
Ġproduct ivity
ç¦» åŃĲ
Ġposit ively
Ġuncomfort able
f ood
r ub
de ep
åİŁ æľ¬
ĠDe bt
DE F
do i
Ġtal ented
ĠMiss issippi
Ġinev itable
R ober
Ġb od
om on
çļ ±
Ġis ot
ĠA G
ĠM i
ĠE ver
ind a
lu x
ç»Ĩ èıĮ
Ġcontain ers
Ð¼ Ð°
ĠB ull
per ature
ç²¾ å½©
è¯ķ è¯ķ
è§Ĥ ä¼Ĺ
ĠCont act
æħ¢ æĢ§
ĠRob inson
âĸ ¬
J une
N a
m r
w hether
Ġl ord
äº Ń
uff le
Ġcomplex es
Ġcred ibility
åĪĿ æŃ¥
ĠWARRANT Y
Ġp ir
Ġto ll
ĠK y
ä¹ĭ ç±»
Ġsk ull
ç¬Ķ è®°
ĠNet herlands
èģª æĺİ
j amin
Ġt v
ag ne
Ġmet ers
Ñģ ÑĮ
Ġvi able
ici ary
Serial izer
f ail
qu in
Ġr h
ĠL anguage
Ġmarg inal
Ġp ays
Ġcomp iler
ĠTra vel
èº«ä»½ è¯ģ
m el
s ound
ĠĠĠĠĠĠĠĠĠĠĠĠĠĠĠĠĠĠĠĠĠĠĠĠĠĠĠĠĠĠĠĠ ĠĠĠĠĠĠ
ä¿Ŀ çķĻ
ä»Ĭ æĹ¥
Ġp ant
Ġst ocks
éĹ¨ åı£
ĠOther s
Ġexplos ion
A ge
C IT
ĠM ust
å¤§ åŃ¦çĶŁ
Ġlong itudinal
ĠApp ro
CL A
` .
Ġnever theless
ĠEx ample
Cl oud
Ġorg ans
Object s
| |
Ġan not
Ġd ub
âĢ ķ
ĠT E
Ġres ign
Ġcomp at
æ° ¯
ĠAn na
Ġstrugg led
Ġsli pped
ĠH em
Ġpe culiar
Ġob server
æĶ¯ åĩº
Not ification
é»Ħ éĩĳ
çĶ· æĢ§
Ġsoc cer
M ouse
M ichael
ä¸į åĬ¨
ç¡ «
det erm
Ġthe ft
ĠM os
Ġde ce
æī ®
int age
ĠBe at
ĠGra ham
_ :
Ġl ang
op ts
ĠW y
æ¿Ģ åıĳ
le b
ur u
ĠC ow
medi ated
Ġnormal ized
Ð¼ Ð¸
åģĩ å¦Ĥ
ä¸Ģä¼ļ åĦ¿
' _
A lex
C ert
ĠT B
èĬ ¬
æĭĽ æłĩ
iot ics
Ġover view
Ad v
åĤ »
K S
Ġis lands
ĠĠĠĠĠĠĠĠĠĠĠĠĠĠĠĠ ĠĠĠĠĠĠĠĊ
æĪĳ å®¶
ĠK om
Ġaff air
aut iful
D a
U ri
V P
le in
ĠB ed
å¤§ éĻĨ
åĪĨ æķ°
åħ³ éĹŃ
Ġest Ã¡
æ°Ķ åĢĻ
again st
Ġcarcin oma
Ġl amp
iv ities
ä¸į ä½Ĩ
åħļ å§Ķ
ĠAP PE
Ġconcentr ated
Ġoccas ional
W illi
re ach
ĠG er
ext ra
Col lections
rown ed
åĢº åĬ¡
Ġawk ward
B atch
d irection
ĠT ob
Ġneed le
J uly
R F
Ġe cosystem
Ġfl aw
enc ode
ĠCom pl
f ac
Ġc attle
Ġch urches
Ġrec urs
Ġlow ered
Ġund efined
Ġspect ro
Pres ident
N ational
U G
en vironment
Ġm ant
ĠH us
ak h
æµ ĳ
Ġaltern ate
Ġorb ital
Ġb os
Ġres ume
è½ ©
Ġrel atives
Ġvar ies
åĻ ª
Comp ile
Ġrespond ents
Ġmount ing
O ld
Ġcan onical
ah a
âĳ ¡
ivari ate
Ġf ighters
ic ut
åĬł éĢŁ
Ġmethod ology
Ġperform s
åĽŀ å¿Ĩ
Ġfriend ship
Ġgrant ing
èĭ¥ æĺ¯
ro st
Ġg rief
ĠC C
ĠV in
çľĭ åĩº
ç§į åŃĲ
Ġmon ster
Ġrandom ized
åĹ ½
ĠC art
St ats
ann ah
Ġarr ays
Ġaltern atives
Ġmyster ious
R ate
v or
an other
le ad
Ġn ost
Ġsh aking
Ġab used
è¯´ äºĨ
Ġworks hop
Ġintr insic
Ġreprodu ce
' (
m iddle
ĠC ert
us c
æ¡ ©
ier a
Ġtravel ed
Ġprev ents
Ġnewsp apers
ĠOlymp ics
D uration
Å «
her ic
Ġtra its
OU P
ASS ERT
Ġjun ior
n ik
is ch
æĺ Ĥ
ĠF C
Ġus eless
ond a
AD D
åĸĿ æ°´
Ġu pp
ĠN J
iz on
get Instance
RE QU
Ġconfig urations
Ġenzym es
d ark
s leep
ĠP erm
å¹¶ éĿŀ
View ById
èµ° åĲĳ
B ottom
ĠR untime
Ġsh adows
ĠO wn
con tr
ä¸Ĭ çº§
Not Found
Ġfix ing
Ġsusp icion
ĠJim my
ä¿Ħ ç½Ĺæĸ¯
Ġv ous
ĠH ung
Ġint act
ç§į ç±»
Ġz ip
å¼ķ åıĳ
Ġep ic
Ġhor r
ĠMic hel
< \\
Ġth rom
Ġv ine
ĠD omin
Ġunder go
Ġinf erence
Ġsil icon
Ġhe pat
æīĢ å±ŀ
br as
ä¿® å¤į
ha us
Ġj unction
In stall
è¾ĥ å¥½
rec ated
w x
on z
ĠN AT
ĠG arden
Ġint ensive
åĿ Ĭ
Ġhum or
Ġchem otherapy
å¥¶ å¥¶
S ync
U PDATE
Ġch unk
Ġz ones
P air
Ġo c
ĠD raw
ç» ĳ
ĠE P
åºĶ å¯¹
Ġaccommod ate
an ies
ir s
Ġcomp iled
tr l
ç¾İ æľ¯
äº¤ æį¢
ĠOr ange
æ¶Ī éĻ¤
Ġpeace ful
Ġcyt ok
m or
ong s
æİ ©
èĢĥ çĶŁ
Ġbi ology
èĥĮ åĲİ
Ġtr ash
Ġreg ret
B F
ĠB ron
pre ced
é¸ ¿
xim ity
Ġcous in
ĠRespond ent
at z
Ġit eration
ĠR s
ĠJ ere
Ġall ocation
ä¸ª ä½ĵ
æĽ´ å¤§
ĠNew ton
plic it
ä¼Ĺ å¤ļ
Ġrecip es
Names pace
p es
Ġinter rog
Ġmin istry
åĲĦ èĩª
ĉĉĉĉ Ċ
rad io
T imer
i Ã³
Ġh unt
ĠI bid
Ġbel oved
å¹² çĩ¥
AG ES
æµ ¦
ah oo
å¤ĸ éĥ¨
åį³ å°Ĩ
Ġinstall ing
Ġfasc inating
M en
x p
ou stic
ĠRes ources
Ġdress ing
æĹ¶ å°ļ
Ġback ward
å¸ĥ å±Ģ
A ST
| -
ĠS pect
ĠS eg
Ġhe ated
ra k
ra pped
æ´ Ĵ
ateg ories
Ã¤ tt
èĢģ å¹´
Ġcompl ained
Ġqual ify
Ġincons istent
Ġfru its
ĠO bserv
Ġno ble
å¯¹ å¾ħ
rec ogn
prim ary
Ġp ile
st orm
ĠC t
Ġopp osing
Ġcharacter ization
Ġspread ing
ç¥ĸ åĽ½
Supp lementary
Ġrecip ient
Ġdecom position
v ars
å µ
Ġsu cc
æ¶ ¯
Ġinflu ences
çŃĸ åĪĴ
çģµ æ´»
æ¯« æĹł
C ity
Ġ á¼
Ġslow er
Ġsac red
Ġindict ment
R aw
Ġl obby
ne ath
Ġpr icing
å¤ļ ä¹ħ
äº§ æĿĥ
Ġsu its
Ġass ass
Ġtri angle
ç© ´
ĠBe ck
æ·± åº¦
Ġwarn ings
em ale
Ġfl ed
Ġdi agonal
Ġh ated
ĠCom b
ric ulum
Î¼ Î±
K it
Ġ ÙĪ
Ġse ized
Ġcomm od
Ġend e
Ġfac ial
ĠM ut
ĠG ray
å¤© æ´¥
Ġcor rid
Ġdel ta
# :
Ġde i
ĠB uck
Ġen abling
Ġreg ener
lish ing
ĠMar ia
Error f
Des ign
Ġp ause
oc cup
Ġad sor
æľ¬ è´¨
aj o
é¦ Ī
inc ome
Ġult ra
Ġdeploy ed
Ġpse udo
associ ated
Ġm uc
est one
Ġsub mission
Ã¶ n
G reen
Ġk g
Ġtrou bles
ëĭ ¤
Ġaccompany ing
g ender
head ers
Ġlength s
mus ic
N Y
c atch
Ġp up
Ġin coming
Ġcol ored
ĠQ t
Ġpack aging
Ġagric ulture
ĠASS ERT
ĠOnt ario
Ġbatt les
Ġanch or
F IL
it ic
ä¸Ģ éĿ¢
tr ation
DE X
Ġhab ÃŃa
ĠCO VID
res olved
ĠF el
ĠE t
ĠO klahoma
Ġcl one
å¨ ĩ
Ġbar riers
pri or
äºĪ ä»¥
Ġtact ics
æ°ĳ éĹ´
opt ional
ĠMat thew
AC C
Ġspeed s
Ġjew el
& &
Ġse aled
å¯ Ĥ
Ġdef icit
å¤ļ ä¸ª
éħ ¬
ĠMar ine
Ġdiscl ose
se ed
çŃ Ĵ
text bf
è®¾ ç«ĭ
osc opic
ä¸Ī å¤«
D river
j k
in qu
Ġp ent
Ġnot able
Ġbl ur
åıĺ æĽ´
ãĢ Ģ
og an
åĳ½ è¿Ĳ
Ġmusic ians
ĠBrook lyn
i ens
he imer
al ways
ĠM obile
ä¼ ª
Ġsub section
æ¯ı æľĪ
Ã± o
åĴ³ åĹ½
Ġs or
ex pect
Ġgl obe
ĠDe an
éĺ² æ²»
æī¹ è¯Ħ
ÂłÂłÂłÂłÂłÂłÂłÂł ÂłÂłÂłÂłÂłÂłÂłÂł
J P
g if
m itt
Ġunder ground
ĠSwed en
ĠCom puter
éĺ² æİ§
âĸ¬ âĸ¬
t ip
Ġ ich
Ġto y
ro d
ĠD AM
å®¹ éĩı
æ¸Ĳ æ¸Ĳ
è´¦ æĪ·
ĠWal ter
he ne
Ġr ust
ĠW olf
Ġpl ots
Ġdat abases
å¦ĩ å¥³
Ġhighlight ed
å¼ ¦
con vert
åī ĸ
çĤ¹ å¤´
Ġlight ly
Ġident ifier
ÃŃ s
Î¯ Î±
Ġb ru
ä½ĵ ç§¯
Ġbu gs
åĳ¨ è¾¹
Int ent
IB UT
ĠOrgan ization
m icrosoft
ĠA the
Ġback ing
å¤ĸ åĽ½
å®¡ è®¡
æħ Į
ĠLouis iana
h p
ĠB ody
umn i
Ġdepend ency
pat ient
æĺ¨ å¤©
O O
ir i
Ġ\\ >
Ġres istant
å¤ļ ä¹Ī
ĠBalt imore
Ġtremend ous
S un
Ġw are
ac re
Ġthere after
Ġreg istry
Ġstr anger
Ïģ Î±
ç¼º çĤ¹
exp ression
eterm ined
Ġhe y
ess ment
rop ol
ĠMar shall
Ġeval uating
Ġrev ised
\ .
åĨ ¯
Ġsub scrib
cur ities
Ġagre es
fil m
ĠAff airs
Ġt une
ĠM RI
Ġex empt
ĠH orn
ĠR ap
Ġle mon
è´ ¼
åĪ° ä½į
Ġform ul
ser vers
Ġfoot age
Ġgraph s
Ġnovel s
ĠÎº Î±Î¹
Ġh ills
ate ur
ra ise
ĠV A
Ġworld s
èį¯ åĵģ
æŀĦ å»º
åĹ ¯
M onday
t l
ass y
é«ĺ èĢĥ
Ġdest ro
ĠWar ren
Ġchem istry
æĭ¨ æīĵ
Ġt itled
ch air
nt ax
Ġdet erior
ĠOr acle
Ġeconom ics
L ow
c ause
ĠA A
Ġcon current
Ġ\\ âĻª
ä¸Ĭ çıŃ
Ġfl ights
sc ience
å®ĺ æĸ¹
m un
m ons
Ġr amp
ĠF I
out heast
è¦ģ æľī
æľ¬ æĸĩ
Ġdist ribut
ĠSe ason
Ġprison er
Ġelim inated
Ġproport ional
Rend erer
ĠStew art
D er
b rief
ä¸į åĩº
Ã¤ m
RE T
Ġnut rition
ĠArch ives
Ġgall ery
ĠJon athan
æ°Ľ åĽ´
Ġillust rate
w ikipedia
Ġtr ab
par allel
Ch ain
List en
Ġspecial ized
Ġinvestig ators
Output Stream
Lim it
Ġcompass ion
Ġsu do
ĠG alaxy
çĶŁ èĤ²
åĢ ¡
Cont in
d og
Ġre cre
å®¶ åħ·
Ġcorrespond ence
Ġsacr ific
Anim ation
Ġempir ical
Â ĭ
ĠC ulture
ĠR ange
åį ¸
cl ub
ĠY ears
éķ¿ å¤§
ai ver
Ġtw isted
sl ant
ios ity
éĴ¢ çŃĭ
Ġpun ct
Ġanalyt ical
if est
qu o
ĠW inter
ĠR u
å¤© åľ°
æ¨¡ åĿĹ
Ġparent al
Ġpurch asing
ĠAir port
id ine
ĠN at
çĻ¾ åº¦
Ġprint f
top ic
Sp ring
éŁ© åĽ½
ä½ľ å®¶
å·¥ åİĤ
pro ps
ul o
ĠB or
ĠD ak
æĬ «
Ġsc attered
è°ĥ çĲĨ
Ġol ive
j ax
Ġc argo
ĠP ent
Ġen velope
ä¾ ł
IN ST
AP P
æĭį æĳĦ
å¥ĭ æĸĹ
Ġprohib ited
uet ooth
z illa
éļ¾ åº¦
Ġmut ant
$ ;
N odes
al ine
Ġh iring
Ġl yr
ac ies
Ġle ver
æº ¢
Ġveter ans
J ul
] =
i ative
Ġd umb
æľ ´
qu ote
Ġse ctors
all ed
Ñģ Ð¸
çħ İ
comp onents
Ġcomput ational
w ear
ì Ĺ
ä¼ĺ çĤ¹
Ġhon our
Ġprec ip
it ol
Ġch airs
com bin
Ġwhere ver
ĠApp eal
ĠSte el
g re
Ġf ait
Ġg erm
Ġun employment
s ym
ĠD ir
Ġch olesterol
Ġall a
Ġup grad
Ġsub scription
ĠHel p
h ide
æľĢ å°ı
æıĲ äº¤
EN S
å°Ĩ ä¼ļ
Ġcho pped
 %
Ġun ions
Stand ard
\\ |
on ential
ab ul
oc ur
ĠW ard
ĠSt op
Ġsim plicity
çĶ± æŃ¤
P rior
Ġt ire
al one
Ġp d
Ġexp onent
ug gest
åĪ© äºļ
Ġspecial ist
Log in
Ġrelax ed
æµĵ åº¦
Ġlin ux
S an
in vest
Ġw ounds
os ures
Ġdis se
ä¿¡ å¿ĥ
Ġprim itive
H H
T x
ĠH z
ment ed
ĠE dd
s igned
ãģ Ī
ä¸¤ æ¬¡
ÃŃ an
ĠStud ent
Ġinject ed
Y S
f requency
o ct
y g
ä¸ Ľ
id ation
ĠM ail
Ġse am
ĠN ig
ä¸Ĭ æĿ¥
æĦ ¤
åĪĨ ç¦»
Ġprov ing
der r
Ġsw ap
Ġappear ances
At tr
Ġbed s
Ass oci
Ġcontem pl
Ġvolunte er
p matrix
Ġm ang
ä¸Ģ äºº
æīĭ æĮĩ
å¤į ä¹ł
ij er
ado op
è¿Ŀ çº¦
Mon th
direct ory
T ABLE
ing ham
Ġn ap
ch at
um ble
Ġen umer
ru gged
yl er
è¯¾ æĸĩ
st als
ĠT ar
ĠH op
Ġown s
åĪ¶ åĵģ
ĠPat ri
she et
NE W
Ġdiss ent
ĠTra ining
r il
ĠA y
Ġcor rections
Ġlo ops
bor ne
åı¥ åŃĲ
å¡« åĨĻ
Ġrein force
çĩĥ çĥ§
Ġvolunt ary
L iving
Ġt at
Ġapp ellee
Ġsw ift
Ġrespons ibilities
PH P
Ġpref erences
Ġassemb led
ĠCru z
ĠSaf ety
ĠP ed
ub er
èĻ ¹
ä¹¦ éĿ¢
ĠPol and
ĠPe ace
Ġdepend encies
det ails
Ġcelebr ated
å¿ĥ æĢģ
Ex per
cont rolled
Ġphot on
Ġeduc ated
Ġpros per
l iter
à ±
Ġ\\ +
å¥½ åĲĥ
Ġmin us
ĠTe le
æĢĢ çĸĳ
ĠLog ger
= %
ĠT i
ĠR andom
Ġtri ple
Ġvill ages
Ġchart s
Ġcircul ation
c iting
Ġg aps
ĠR F
Ġenc oded
èĸ ĩ
ĠOut put
ãģĹ ãģ¦
Inst ead
Ġescap ed
S cal
d ates
l ament
Ã ī
Ġg ates
æīĢ éľĢ
net t
Ġstat utes
Ġsit uated
Ġtim estamp
Ġsear ches
M IS
c ro
Ġb ore
ac ion
ĠM anchester
res pect
In f
hat tan
è¯´ è¯´
ĠCo hen
çĶ· åŃĲ
Ġfol k
Ġeleg ant
d uring
Ġf ence
ĠCon vention
Ġcred its
Ġspecim ens
ĠVAL UES
Ġtraject ory
M esh
Ġwh ist
ens ation
Ġinter faces
åŃĲ å¥³
åĽ½ å¤ĸ
Ġpa used
éħį å¥Ĺ
Ġmanif old
w arn
æ» ŀ
cont aining
cell s
mine craft
T ell
\\ }
h ou
s an
her ical
ç¼ Ĩ
Ad min
å®¡ æŁ¥
Fl ag
p ons
p riv
Ġf lick
Ġre habil
ĠL ang
éĻ Į
pr ises
Ġabs urd
n pm
Ġw idget
op ard
ä½ľ æĪĺ
Ġref resh
Ġgirl friend
è¿Ŀ åıį
ubern etes
Ġu i
Ġbet ray
inal s
Ġbr id
ĠOR DER
Ġbuy ers
ĠMem orial
ĠS TR
Ġ- =
å°Ĩ æĿ¥
Ã¥ r
ĠQu estion
Ġdead line
Ġc athe
Ġp icks
ion ic
ĠR C
ĠE conomic
Ġport able
Ġmanufact ured
ĠMethod s
depend ency
ĠCOP Y
r ations
ĠM I
us ions
ĠL abel
Ġsupp ression
Ġhere by
Ġtri um
Ġdetect ing
çģµ éŃĤ
ĠOver all
er ce
ĠA wards
ĠY anke
é«ĺ æķĪ
Ġend point
vent ory
ç¡¬ ä»¶
s ure
Ġthe atre
ut er
qu oting
Ġr het
ell es
ie val
åħ¨ å¸Ĥ
lement ation
Ġsim ulated
æŁĲ ç§į
Ġutil izing
ìĿ ´
k ubuntu
Ġacc us
å®¶ ä¼Ļ
è¿Ľ æĿ¥
ĠNot ice
Ġparticip ant
Ġst ays
ah o
Ġtyp ing
Comp lete
person al
Ġcha os
Ġcov ari
a an
m icro
Ġv or
un ited
Ġvis itor
Ġnut s
pred ict
le en
Ġhe al
è¢ ģ
Ġp iano
ĠB ag
ĠR ES
åį³ ä¾¿
Ġple ad
Ġcorrel ations
B egin
M ON
R ot
Ġc ette
ak y
read er
Ġgrand mother
Ġwind s
ĠBet ween
P ane
ul u
Ġdis g
Ġinter rupt
Th ursday
AN S
IS A
Ġpod cast
prot otype
Ġthe at
There fore
ĠGr ace
ĠPet itioner
ĠMA X
B us
w rapper
re ne
Ġc otton
Ġd are
ĠT EST
ĠL iving
Ġwhe at
æ³ ³
Ġtrans ient
Ġerr one
ç¾İ é£Ł
Ġbuild s
Ġir regular
Ġaffidav it
ĠL ane
Ġcons iders
Ġconv ictions
Ġprem ises
èĽĭçĻ½ è´¨
tim estamp
F amily
\\ *
f ailed
an ia
ĠC V
ĠV eter
Ġi Pad
A gent
Ġh ij
Ġpol ls
Ġband width
å®ĩ å®Ļ
Ġpreced ing
Ġnurs es
M EM
Ġs ul
ĠS ave
ĠD est
ĠL D
ĠR at
ĠG it
com pl
Ġform ulation
Ġref und
æīĵ åį°
Ġur ge
ĠMed ic
å¥ĸ åĬ±
inv oke
H om
re act
Ġb ast
Ġde ployment
and um
Ġins ult
Ġadapt ation
Ġb ree
Ġl ately
ĠG row
ä¸į åıĺ
é¦ ¨
Ġclim bing
ĠØ§ÙĦ Ø
Ġsh ade
Ġme g
get s
å¥½ å¤ļ
pro xy
enc il
Ġmaint ains
Method s
N AM
[ [
le ans
ut ors
up on
éĿ¢ è¯ķ
Ð° Ð½
ç³ĸ å°¿
in valid
Ġs ag
ill es
Ġle v
ĠIn ternal
èĳ Ľ
Ġrele asing
Ġbatter ies
Ġkin ase
Ġ( \
end l
Ġear liest
Ġgl imp
åĬŁ æķĪ
fl at
Null able
Ġinhab it
u ced
é© °
ĠCon stant
Ġorgan isation
æĵ ħ
æ²³ åĮĹ
èĪĴ éĢĤ
ĠBuild er
ĠTok yo
m aker
re le
ĠN C
Test s
ĠPart ners
Ġfort une
Ġtox icity
Ġtempor arily
lab els
Aug ust
ĉĉ ĠĠĠ
å¯Ĩ åº¦
Exec ution
p he
um i
ĠL iter
åı¯ è¡Į
Ġ' <
çŁ¥ åĲį
è¾ĥ ä¸º
Ġvir uses
Ġachieve ment
å¤§ å¸Ī
éĻ ķ
Ġprov es
Ġcontribut or
Ġrank ing
Ġrelax ation
ĠÎ½ Î±
et ta
ä¸Ģ åº§
ane an
link ed
Inter val
Ġwealth y
Ġgravit ational
ç³ĸå°¿ çĹħ
ĠF isher
red uc
ĠIs lands
Ġrev ision
ĠDou glas
t bl
Ġb ust
Ġv as
ist ered
ĠD og
ĠF actor
Ġmet als
unt il
åı° æ¹¾
Ã¼ n
ades h
EM P
Ġcort ex
éĤĢ è¯·
C opyright
L anguage
è¿ĩ åº¦
Ġpat ri
æŃ¥ è¡Į
æĭĽ èģĺ
ç»¿ åĮĸ
C are
el ed
ĠP ast
Ġsu pers
å°ı æľĭåıĭ
ä¾Ŀ æĹ§
Ġtim er
run ning
Ġcelebr ation
çĸ« èĭĹ
P ers
em phasis
ĠD al
å¯¹ è¯Ŀ
ĠRead ing
Ġcoal ition
R a
f an
t m
ch anging
Ġspec ification
è·¯ ä¸Ĭ
ertain ly
æī¿ è¯º
Ag ain
' '
Ġw x
Ġg le
ĠP arent
ra ctions
ĠF ollow
æĿ¡ ä¾ĭ
IS H
Ġcomment ed
Ġrhy thm
O FF
ĠW ait
Ġref usal
LO W
Ġautom obile
Ins ert
W hether
ĠI ce
ue z
Ġreg ulate
ĠAr gent
éĵ ĥ
Ġflow ing
level and
as ound
ĠT ell
Ġcon qu
Ġup ward
æ³ »
Ġtra ins
åĸ »
èħ Ĭ
Ġl ag
ĠĠĠĠĠĠĠĠĠĠĠĠĠĠĠĠ ĠĠĠĠĠĠĊ
pt ive
èĮ İ
ç©¶ ç«Ł
; \\
p k
og ue
ĠÂ µ
M essages
Ġd w
Ġd st
st rip
æĮĩ æķ°
Ġdr agon
Ġharm ful
aud io
Ġelectro des
Ġover look
ĠBr ig
Ġpossess ed
S ometimes
Ú ©
ĠC hen
å¼ ĺ
ator ies
æģ Ń
æĹł éĻĲ
å¤ĸ è§Ĥ
æ¨¡ æĿ¿
PL IED
ĠSur vey
an ium
Ġb oring
ĠR ol
ĠG h
ĠK ings
rit ish
Ġdu ct
Ġdownload ed
Ġdepart ments
o ard
ud ed
Ġnum py
æĽ´ é«ĺ
çħ§ é¡¾
Ġscr ut
ch ief
æ¸ħ æ·¡
mult i
W ednesday
d h
e ing
Ġb a
äºº å£«
Ġcons ume
Ġche ek
amb ers
ĠAdd ress
ĠDen ver
ĠOlymp ic
Ġaggreg ate
R Y
Ġc iting
ĠC E
ab i
Ġtrans istor
PR ESS
Ġau ction
Ġincomp lete
& #
æĬ¥ èŃ¦
opt im
Ġattack ing
å¾Ģ ä¸ĭ
ĠMal ays
Ġbott les
Argument Exception
Ġla zy
Ġfun eral
Run ner
Ġhousehold s
iox id
is ol
ĠP ant
èĢ ¶
Ġem erge
Ġque en
Ġdemonstr ation
Ġlib ert
ĠRel ated
Ġpurs uit
c od
d ialog
id ency
ĠS ide
ĠH erm
å·¥ç¨ĭ å¸Ī
å£« åħµ
Ġstreng the
à¹ Ī
Ġmater nal
g ra
Ġv il
ĠR ain
Ġinf ants
Ġconf ined
å°±æĺ¯ è¯´
ĠBr and
éĩĩ çº³
gu i
ymmet ry
Ġdeput y
Ġapopt osis
m ov
Ġcar pet
èĪ Ł
æľįåĬ¡ åĻ¨
Ġhom osex
Ġens ures
Ġpal m
at um
Ġl ighter
å¤ļ æł·
ĠPort land
Ġwithdraw al
ĠHash Map
hell o
u u
ĠSt ream
å¿ĥ çģµ
Ġpow ered
process ing
ĠFin ance
Ġwal let
B ad
T X
Ġin appropriate
ĠC IA
od ox
ĠW ang
Ġun law
ren cies
çī¹ å®ļ
åħĪ åĲİ
æĿĥ åĬĽ
Sc ore
çº· çº·
ĠLink ed
k el
Ġl ined
æ¡ ¶
è± «
Ġdraw s
Ġspir its
on er
ĠM oney
å¸ ķ
ä¸º ä½ķ
tt es
Ġquestion ing
OP T
ĠQu ery
æī§ æ³ķ
Ġirre levant
Ġp ockets
ent ric
Ġr ack
Ġoff enses
Ġmin eral
pre c
ĠInd ones
Se cret
æĬĳ åĪ¶
ĠVill age
O cc
St atic
å°ı çļĦ
cur y
ĠSh akespeare
éªĮ è¯ģ
Ġabsor bed
Ã¸ r
ĠWay ne
S K
ĠT a
ĠH end
è¦ģ ç´ł
å¼Ģ åı£
Id x
è®¤ åı¯
ç½ĳ åıĭ
SS L
Ġpresum ably
amaz on
ĠJ oh
anc ouver
èİ İ
Ġpra ise
æ¬£ èµı
Jan uary
Ġtoile t
E urope
W al
Ġf ighter
ĠE lement
çĶŁ çĲĨ
å¯¹ å¤ĸ
Ġca f
Ġcrit er
Ġtw in
ĠColl ins
Ġb anned
ĠL C
ĠE M
Ġper me
åĴĮ ä½ł
ss l
æ±ĩ æĬ¥
per ial
Ġtr unk
ER Y
ref lect
è·¯ åı£
Ġimport ed
æİ¥ æĶ¶
åģľ è½¦
éĩĬ æĶ¾
çīĽ å¥¶
ĠArab ia
Ġsu ited
Ġcor rupt
ari us
æĺ¥ å¤©
ĠSam uel
Ġintr ig
ĠS R
Ġex terior
çĶŁ æĹ¥
æĦ ģ
å¤© å¤©
az ed
Add r
Ġdecl ar
Ġdim ensional
ĠBar ack
Ġevolution ary
Ġele ven
ĠJ oy
Ġqu arters
Ġdis contin
roll ing
Ġlif ting
bel ie
Ġstret ched
t om
in en
Ġh ockey
ä¸į åģľ
Ġsp ine
Ġver se
å¾® å¾®
ĠMur ray
åĲ µ
Ġest a
æī¿ åĮħ
plug ins
ar med
ĠC G
ab et
erm i
aw t
æŁ ı
ç»Ļ äºĨ
åĽ¾ å½¢
Ġdiet ary
ĠSing le
T urn
Ġp are
Ġhypert ension
m ight
r ules
Ġo der
Ġsc andal
ser ial
é£İ æĻ¯
Ġinvest ing
Un fortunately
Ġt an
Ġm M
éĢ ¢
eg u
Ġes cal
è¯» èĢħ
æī¿ è®¤
å¥ĩ æĢª
Ġtort ure
Ġre jection
ĠP AR
row ave
éģ ®
por ter
Ġcomb ust
oll ary
UR N
ĠS amsung
ch oice
Ġr ushed
åĬ £
ä¸į å¿ħ
æ² ĥ
iss on
è´¢ å¯Į
çĽĳ çĲĨ
Hash Map
Ġiniti atives
itzer land
d v
d st
s yn
æĹł äºº
Ġcent ered
Ġfail ures
æ¼ ł
Ġrespond ing
é¤Ĳ åİħ
Ġcatal yst
å¹´è½» äºº
b irth
c g
e as
Ġby pass
Ġent ers
ä¼ł éĢĴ
load er
Ġir rad
çĵ £
ĠId ent
aa aa
Ġreconst ruct
Ġpron ounced
ĠPitt s
Ġimp aired
Ġdes cent
Ġlocal ization
Ġsubject ive
ç¿ ħ
Sub ject
Ġstimul i
Ġquad r
g ement
Ġm L
il ic
æ¿Ģ åĬ±
rad ius
Ġfluct uations
Ġprolong ed
l ishes
Ġl over
un its
æµ· æ´ĭ
ĠÐ¿ ÑĢÐ¸
ch art
Ġmed ications
ĠRes erve
dec ode
ĠHA VE
T uesday
h art
Ġb rows
ke ley
ä»¥ å¤ĸ
Ġkn ocked
Pro to
Ġsimpl er
Ġinv isible
æ²¡ äºĭ
Ïģ Î¹
Ġscript s
Ġsmart phone
ĠS end
em bed
ĠPro cedure
Ġey eb
çĶ· çĶŁ
Ġhot els
Rem ote
ĠScott ish
f its
ĠC old
Ġv oy
ä¸ļ ä¸»
Ġconnect ivity
Not es
Ġterror ists
ĠSum mary
: _
h aw
ĠF er
Ġrob bery
âĢ ³
Ġg amma
am ation
ĠE mb
Ġpar ks
éĴ ®
Ġc d
å¾Ī é«ĺ
Ġsol vent
Ġtrad itions
Ġcast le
ĠMag ic
Ġtight ly
èĬ¯ çīĩ
Ġd t
Ġsh ifting
con sole
que ous
HE AD
log o
Ġexam ining
Ġd x
om ers
ĠM un
nt hesis
En v
ç¥Ŀ ç¦ı
å©´ åĦ¿
F UN
l b
Ġd op
ĠIn stit
éĢļ è®¯
Ġhol idays
Ġsurve ys
' }
ox ide
èĴ ľ
æĴŃ æĶ¾
Ġsevere ly
ĠEnvironment al
S omething
åº ŀ
è´ ª
az ines
Ġpur ple
Ġtechn ological
Ġmar ine
eal ous
Ð´ Ð¸
çīĻ é½¿
å¡ĳ æĸĻ
R ear
d w
Ġpres cription
Ġhand les
ric ane
ĠBar bara
ĠRef erence
Ġcolon ial
Ġgorge ous
C AP
pr agma
æ°´ æ³¥
Ġsl aves
æĶ¾ æĿ¾
ĠCol umn
é©¬ åħĭ
ä»¥ åħį
ÃŃ n
åıį å¯¹
N G
l ord
ol in
æľī åĬ©
æł ½
æł ĭ
å·² çŁ¥
Ġunt o
äºī åıĸ
ĠGl ass
Ġsch olars
r ar
ĠH i
og onal
Ġloc ate
Ã¤ nd
Ġart istic
åĲĳ ä¸Ĭ
Ġsl iding
Ġrecord ings
vis ible
win ning
Ġincorpor ate
it ored
ĠC our
ĠB ou
ring e
Ġlong est
load ed
urb an
ĠDat abase
Cond ition
n als
Ġa ston
ot helial
Ġu b
ind ependent
Ġtr unc
pro gress
de ath
èĬ± åĽŃ
View Controller
Ġelement ary
Ġassum es
ç£ ·
Ġmulti pl
ä»ª åĻ¨
é¡¿ æĹ¶
M or
ä¸Ĭ è¯¾
éĩį éĩı
Ġdig est
ĠFre edom
at ivity
ĠB aker
åĲ ¾
old en
Ġz e
CL ASS
Ġadequ ately
Ġj ar
èĢģ åħ¬
Ġplace bo
èŃ¦ å¯Ł
S ite
W r
ä¾ į
Ġcontract or
ĠRog er
Ġaccel eration
t al
} |
Ġpro ps
ä¸Ģ åĳ¨
ph al
åīį åĲİ
ĠAr n
Ġconf idential
ĠQu ick
Ġt anks
The me
æıĲ åĪ°
å¤Ħ ç½ļ
bre aking
Ġpolym orph
off ice
PAR AM
Y Y
Z one
Ġst ab
æľī è¶£
Ġpat ience
Ġlast ing
à¸² à¸
 [
C ursor
G EN
M ED
b ird
è ¤
Ġ iv
it err
æĢ ľ
åĬ¨ çĶ»
ix on
éĵ Ŀ
Ġappeal ed
Ġcompar isons
product s
Ġoverse as
S unday
ition ers
ĠV I
Ġwhere by
æ¸ Ĭ
Ġbr ick
pan ic
Ġappell ants
ĠHawai i
S ide
ĠS ad
åħ¬ å¼ı
Ġbu zz
èĢĮ æĿ¥
read ing
man agement
Ġconf using
æŃ¤ æ¬¡
Ġbo ats
Ġil leg
å§ĵ åĲį
ĠER R
ãģ£ ãģŁ
Ġ ÑĤÐ°
Ġf ist
Ġwe aken
ist ically
ä¸Ģ æ¬¡
ĠÃ ī
åĿļ å®ļ
ĠKent ucky
et on
Ġst adium
ind ices
vers ely
Ġfr ank
Se ptember
è¯Ĺ äºº
PT ION
ĠEN D
Ġtraged y
[ :
Ġs v
ĠD un
ĠG ate
æĸ ©
æį Ĳ
çĥŃ çĪ±
Ġrefuge es
ä¹ ¾
Ġph ilos
Ġamb ient
æİĪ æĿĥ
çļĦ ç¡®
Ġdep icted
Ġret ention
Ġmur dered
Ġscient ist
Ġdiss ip
r x
in x
ill ery
vel t
Ġimp ress
ĠSh are
ä¸ĵ çĶ¨
Ġbra ve
Ġbeat en
Ġcon n
Ġpro ximity
Ġatt itudes
å¼º åĪ¶
An alysis
æĺ¾ èĳĹ
Ġdepos ited
× Ķ
ĠF ern
ĠG B
Ġdis position
Ġstart up
Ġsk i
ãģĵ ãģ¨
S outh
d in
ĠL GBT
to ok
ĠTh or
Ġinf erior
Ġrecur rence
Sever al
B ounds
N orth
é Ħ
it ably
Sh ared
Ġconv incing
Ġintent ions
Spec ial
g em
Ġh ood
sc al
æľį è£ħ
db c
ĠEurop a
Ġthe e
ĠA aron
ĠM ock
ĠM achine
èģĶ çĽŁ
é¢Ħ è®¡
Ġabsor b
Ġadvoc ate
Ġprospect s
l ocked
Ġbe an
Ġadd iction
åħ¬ å¸ĥ
yl on
Ġbreak down
Ġhom ogeneous
Ġkid n
ĠÄ ĳ
ĠLim ited
Ġdescript ions
C red
s ocket
in ces
en h
ĠB B
Ġpre st
Ġdon ors
Ġcondition al
Det ail
H a
Ġs ans
th ought
ĠL ICENSE
ĠN ash
Ġnew er
çĸ ®
EM ENT
ĠQue ens
Ġdispl acement
RN As
Ġconve x
f uture
res olution
oc oc
åľ° åĽ¾
Ġdefin ite
bal ance
scri ber
Ġpassion ate
E F
Ġt ile
ic ator
Ġpro x
ĠH P
ĠL uther
Ġtr ucks
ĠSt adium
çĦ °
åĪ© æģ¯
å§Ķ ä¼ļ
çºª å¾ĭ
Ġclar ity
Ġsurviv ors
Ġh ollow
Ġst ance
ĠB os
ä¿ ±
eg an
è¥¿ å®ī
Ġdesign ers
åħ» èĢģ
sur face
ĠStan ley
x it
ĠTo o
Ġintegr ate
çĽĳ æİ§
é¼ İ
Ġmid night
Point s
S ep
av an
Ġfil tered
br is
ĠWh atever
èĮ Ĥ
å¤ª å¤§
Ġindic ators
Ġdat asets
æ¶² ä½ĵ
æĩ Ĵ
Ġsevent h
åİ¨ æĪ¿
l ayers
ĠU ntil
Qu ant
Ġpack ets
gener ate
Ġbright ness
material s
F uture
l p
Ã Ļ
at able
ĠP ER
ak t
åĽŀ æĶ¶
è¯Ŀ é¢ĺ
serv let
æ¯ı æĹ¥
Ġdisp atch
n r
ä¸Ģ ç¬ĳ
Ġj am
ĠBy te
ĠPhil ip
Ġcurv ature
Ġp ound
æ¯ ħ
Ġtrans verse
ĠCom ment
Ð» Ð¾
ĠÑĩ ÑĤÐ¾
Ġupt ake
ĠM B
Ġdes ires
aint ed
Ġwr ist
èĮ «
Ġnucle us
å¤ı å¤©
S at
Ġp s
ĠM M
Ġsp ouse
ĠY OUR
pro c
æŃ¤ åĪ»
Ġplan ets
Ġmag ical
èĴ ĭ
D en
l ia
ph osph
çĶ¨ äºº
ĠCom put
att ributes
ä¸ĵ é¡¹
Ġstrong est
èı Ĭ
Stack Trace
Ġp t
st ru
ac qu
us age
Ġour s
Ġval ued
ç² ¥
ç³» æķ°
ãģª ãģĦ
ropol itan
l iving
á Ĭ
il o
ä¸Ģ çº§
æŀ ¯
sh irt
ç¼ ł
IC ATION
Ġtre asure
CC ESS
Ġcoron avirus
C ounter
w c
Ġs ender
Ġl uc
ĠP aper
å® ´
åħ¨ æĸ°
function s
po inter
Ġarbit ration
Ġimpair ment
ĠLIM ITED
F inal
T ags
d ynamic
e ve
Ġp ione
æĭ ¾
ĠAl aska
Ġinvest ed
ĠMult i
Ġsp inal
Ġim pe
Ġcamp s
long rightarrow
Ġcas ino
Ġprompt ed
Ġillustr ates
åħ±äº§ åħļ
ĠâĨ Ĵ
Ġa fore
ens en
rit ic
èĬ ¦
be ans
Ð¾ ÑĢ
ĠÂ ¿
Ġwin ners
tes ters
Ġsusp icious
åį± æľº
Oct ober
F oot
ro v
Ġg riev
ind ust
set t
Ġstruct ured
Ġshall ow
Ġpurch ases
Ġarriv ing
appro ved
onom ous
i ography
k ill
ort ic
ãģ ¤
Ġir r
Ġvot er
Ġcast ing
ĠCoun sel
ĠCamp bell
Ġtok ens
a verage
è¿ĩ å¤ļ
Ġspect acular
Ġst ain
ĠP oll
ĠR ic
ĠIn cre
ov ation
çķ ı
çĭ Ĳ
log ging
å®¢ äºº
åĺ ±
ias m
Ġpu zz
is co
Ġmon etary
éĵ ¸
éŁ ¦
Set ting
ç®Ģ çĽ´
ĠPut in
k ers
Ġo un
Ġsh oe
Ã© c
Ġcost ly
Ġdesign ing
Ġconnect or
çºª å¿µ
çºł çº·
Ġc es
Ġp c
Ġis instance
Ġout line
Ġher itage
Ġunder neath
Ġent ang
Ġrest ing
Valid ator
> /
Ġt ropical
Ġl l
ĠL en
Ġres ur
j j
r ans
ĠMan hattan
ĠT ru
us b
è§ģ è¿ĩ
la unch
èĽ ®
Ġlack s
ro ve
éģ Ĥ
Ġinter rupted
AR CH
Ġboy friend
: =
n at
Ġre he
Ġg aining
ĠB erg
om eters
Ġout lined
Ġcol ours
Ġserv ant
Ġâ Ļª
Ġadm its
Ġalk yl
om at
im mer
ĠB rew
ĠF O
get Element
Con verter
Ġpost er
Ġden oted
æĮī æĳ©
ç¾¤ ä½ĵ
Ġcomment ary
Ð¾Ð» ÑĮ
D iff
ul atory
iz ens
act ual
Ġsp otted
æĭ ĺ
çĶµ åĻ¨
Ġterm inated
ED IT
ĠCent ury
Rem ember
H tml
Å ¼
ĠD ream
Ġch ick
Ġj s
æĪĲ å¹´
çĶµ éĺ»
Ġappro ximate
ffic iency
uk i
Fr ank
ĠMon th
èĶ ¡
ĠÃ¼ ber
ĠI an
ation ally
Ġam bit
Ġpe oples
ĠAl bert
Ġlim b
Ġenc ryption
r ically
Ġre levance
Ġst oring
ĠP rivate
ĠB uy
ĠE C
ĠJ u
Ġdef ending
ump y
ĠOr leans
Ġsat ur
ortun ate
èĨ Ŀ
Ġproceed ed
Ġfart her
u cc
il ization
Ġcont empt
ash i
Ġra p
ç¥ ¸
Ġdem o
Ġrespect ed
èµ° åĪ°
Ġrot ating
TER N
Ġeth ics
p aid
ĠP el
åħ¬ åĬ¡
çĥ «
è®° è½½
ĠGet ty
Ġinterview ed
Ġin effective
id ae
ĠC row
av al
åıĳ æĶ¾
ĠIM PLIED
Ġscream ing
Ġw aiver
Ġen compass
é«ĺ ç«¯
Ġpred etermined
Ġarch ive
local host
çĪ· çĪ·
Ġl am
ĠC over
der ived
pro ve
å½¢ åĬ¿
Ġur ine
åĨ¬ å¤©
Ġw ir
ch y
ble ms
Ġcompet itors
Bl ue
Ġexhaust ed
P acket
ĠS ales
Ġv apor
ĠN ag
ĠE instein
ff e
Ġcou ch
ĠCast le
å½¼ æŃ¤
ogl ob
P OS
e fficient
ĠB illy
å±ķ çİ°
Ġcompet ent
Ġmicro scopy
Ġclar ify
Ġpreced ent
Ġalloc ated
Ġanx ious
P ages
m ouse
ear ance
oun ters
ĠRe lease
mat htt
RO W
Al ignment
Ġball ot
å®Ĺ æķĻ
preced ented
/ ?
et al
Ġre con
ĠB P
ĠB us
os i
Ġor che
Ġdis reg
Ġco ins
up iter
ä½ĵ åĪ¶
r ise
he p
ĠF ly
Ġco aching
ĠSc ale
Ġreve aling
J ournal
d z
y ll
Ġa o
Ġa queous
re po
Ġins ured
Ġbas ement
çº³ ç¨İ
å¨ģ èĥģ
L i
N M
h on
Ġc v
Ġhe p
ĠM aine
ĠG as
Ġdes erves
çĤ Ń
éĢī çĶ¨
ç§ĳ çĽ®
sub mit
Ġdest ruct
l ov
ard i
åı£ èħĶ
Ð· Ð°
ĠAgr icult
B s
Ġin ability
ig ating
ver tex
ĠA uth
ri ke
comm ons
k om
Ġu mb
æŀ «
åŃ¦ èĢħ
Ġdel icate
Ġstation ary
ijer ph
U V
get Message
Ġsupp ressed
Ġinst ability
Pl ace
Ġmitochond rial
Ġt in
ĠP ok
Ø§ ÙĨ
Ġroll s
Ġgrand father
roph ic
Ġcro ps
agr ams
odynam ic
Ġrefr iger
m are
Ġa i
ia o
get Class
ob serv
Ġel le
çĶµ åĬĽ
Ġexpect s
ĠOr th
æĬķ æłĩ
Process or
ĠTai wan
Ġd ess
if acts
ĠM ade
ãĥ »
Ġdisplay ing
ç²ī ä¸Ŀ
greg ation
am en
Ġst ressed
iss ues
face book
IL D
åĿĲ æłĩ
Ñĩ Ð¸
Ġshel f
n h
Ġw anna
ĠT ower
ac ia
ĠS K
ĠM aterial
ĠN ap
Ġev ac
ov o
sh ore
Ġac res
åħ´ å¥ĭ
Ġperman ently
Ġelabor ate
æĦī å¿«
A gg
ĠĠĠĠĠĠĠĠĠĠĠĠĠĠĠĠĠĠĠĠĠĠĠĠĠĠĠĠĠĠĠĠ ĠĠĠĠĠĠĠĠ
Ġview ers
ĠGr iff
æĲ ı
à¸ Ń
Ġprot otype
Line ar
æī© å±ķ
Ġcont amination
çĽ ¯
æį ī
éĶ Ī
Ð¾ ÑĤ
èģĮ èĥ½
Ġinflu ential
ä¹¡ æĿĳ
ĠHit ler
c ame
Ġmed itation
Ġz a
Ġlink ing
ĠPol y
Ġcred entials
Look ing
Ġfoss il
b lic
v v
Ġd ots
Ġout rage
ĠChar lotte
Ġresid ue
g as
Ñ Ĭ
åĬ «
ĠG A
Ġso ap
Ġref using
çĶµ æľº
Ġgot ta
DE L
Ġexpress ly
ĠPhys ics
Ġfat igue
Post ed
STAT US
Ġinadequ ate
Ġori ented
g oto
ĠP rivacy
åĩº ç§Ł
åĪĴ åĪĨ
äº² èĩª
çŃ¾ åŃĹ
H O
ĠL arry
Ġout break
ä¹ĭ ä¸Ĭ
Ġlast ed
Ġgrad uated
ĠMark eting
Ġpaint ings
Ġju venile
Ġspont aneous
se gment
Ġv ague
ĠF low
æĸ° çĶŁ
æĿĳ æ°ĳ
De cember
et itive
th al
è¢ ĸ
æİ¢ ç©¶
Ġslic es
tain ment
C md
Ġwh ites
op rote
ĠCom merce
aj a
éĽĨ æĪĲ
Ġsex ually
ĠTurk ish
p f
ĠP or
ht m
Ġover flow
Com ments
CP P
èµ¶ ç´§
Ġdeliber ately
F B
Ġto ys
Ġn em
em ption
Ġr age
æĢ ĸ
ĠK ir
ĠAll iance
Cont ents
åŃĺ æ¬¾
tra ining
ĠRub y
ĠConnect icut
F M
Ġf al
ĠS ay
ine e
Ġref res
Ġbench mark
N eed
Ġde ed
çŃ Ľ
Ġcr ude
èĢĥ å¯Ł
çº§ åĪ«
éļı ä¾¿
Ġsle pt
é£ŀ è¡Į
Ġmist aken
ĠMarg aret
ĠW R
åŃ¦ åİĨ
Ġact ress
Ġmod ulation
æĶ¯ éĥ¨
ĠInt elligence
åģ¥ åħ¨
å®£ å¸ĥ
åĬ³åĬ¨ èĢħ
æķı æĦŁ
Ġloyal ty
Ġfeas ible
D am
R o
Ġ âĪ
res a
ke eper
é¢ ¤
è§Ħ ç«ł
Ġimper ial
Ġlect ure
chem ical
Ġwer den
f aster
i Ã©n
Ġb end
Ġu h
um m
ĠD I
ĠD oc
end ent
åĵ Ģ
Ġco il
éĥ ¡
Ð¾Ð ·
Ġcomplet ing
çĶ· åŃ©
Ġoptim ized
h z
p ark
ot ics
Ġr ated
Ġch ron
ĠCh rome
ank a
Ġaff inity
Ġt el
Ġv in
ĠB ishop
ĠW ILL
ĠR io
Ġcont ing
ĠĠĠĠĠĠĠĠĠĠĠĠĠĠĠĠĠĠĠĠĠĠĠĠĠĠĠĠĠĠĠĠ ĠĠĠĠĠĠĠĠĠĠ
pect ives
çĹ °
ä¸ī ç§į
å½¢ å®¹
èĬĤ çº¦
çĪ± å¥½
Qu estion
Ġstrength s
é¹ ¿
Ġrail way
ĠC OL
ĠL iver
æŀ ļ
ç®Ĺ æĺ¯
å´ ©
Ġeditor ial
Ġtransf ers
Ġimprison ment
C N
f older
Ġo v
Ġv endor
um atic
Ġj er
æŀ ¢
å¸¦ é¢Ĩ
ç»© æķĪ
Ġlit eral
Ġtables poons
Const raints
Ġkin etic
Ġfr ustration
Ġcreat ivity
ĠStud ents
ä¹ĺ åĿĲ
STR ING
Ac cept
A UD
Ġe rect
ĠP ET
çĶŁ æ°Ķ
éĤ ĵ
par a
çķĮ éĿ¢
åĪĿ ä¸Ń
Ġfinanc ing
N ER
ãģ ©
Ġdec is
ãĤ ģ
å½¢ çĬ¶
Ġw ie
ĠJ a
ä¸Ń å±±
Ġtest ify
ah u
Ġimpro ves
åĩı è½»
Ġnan op
Ġc ad
ĠP ic
ä¸į æĩĤ
å¤§ åĪ©
ĠAnd y
Ġra z
ST ART
èĢģ å©Ĩ
Ġadv ise
Ñĩ Ðµ
Ã± os
nc ia
ĠSus an
Ġneu rolog
g mail
Â ¹
ĠT an
ac a
ur ities
éĢ Ŀ
åĬł çĥŃ
Ġtouch down
Ġpotato es
f etch
Ġt eles
ĠH ills
ĠL l
ä¸Ĭ åįĪ
èĲ Į
br ack
ĠAn im
éĢł åŀĭ
load ing
value Of
ĠGerm ans
éģĹ ä¼ł
è®¿ éĹ®
F eed
if s
ĠJ O
ĠSt ra
ĠK an
Ġback s
mut ex
ĠI ter
ĠM ann
ĠD ES
ä¸Ģ æĹ¶
sh op
èµ· çĤ¹
RE D
èµ° è¿Ľ
ĠAct ive
FI X
æµª è´¹
C ost
` `
m is
Ġse curities
çĽ¸ ä¼¼
ron es
è§Ħ æł¼
Ġcapital ism
Ġcompr ised
ĠCurrent ly
re ed
Ġre conc
ĠS cal
ĠA my
ä¸Ģ åı£
Ġcol i
const ant
ĠAd vent
ĠSte ven
ĠEv ans
ĠBre ak
ĠÐ¾ Ð±
omit empty
es ar
ard less
Ġen rich
åħ¬ å¹³
Ġtrans parency
çľĭ æ³ķ
æŁ Ħ
æŀģ å¤§
Ġexecut ives
orient ed
f ollow
Î ¾
Ġp ine
list ed
Î½ Î¿
h arm
Ġ\\ #
pro posed
Ġdon ations
æĻ ´
ĠÐ² Ñĭ
Ġwitness ed
åĪĳ äºĭ
Cle ar
c red
Ġcon e
ä¸Ģ æī¹
Ġorgan isms
Ġconstit uted
æĽ² çº¿
åŃ£ èĬĤ
R ows
w y
Â £
Ġf als
ĠE SP
è¡Ģ ç³ĸ
é¢Ħ æľŁ
Ġcert ification
- 
op athy
Ġbut t
åİŁ å§ĭ
åħ± äº«
Ġuniform ly
Ġhero es
ĠPrem ier
Ġharass ment
C AR
n ick
Ġr outer
og ens
æī Ķ
ens itive
æĥ ©
Ġmake up
Ġgr im
ug s
Ġterm in
AN GE
åĪ© çİĩ
è®¤ çŁ¥
with in
ĠDep uty
Ġswe pt
Ġhier archy
p ull
ĠF al
éĴ ĵ
åıĮ æīĭ
Ġreflect ing
Ãº n
Ġlung s
Ġcyl ind
Ġvend ors
? _
B ag
Ġs ang
ic ates
ĠThe atre
æĻ ĥ
ĠPr incess
S aturday
ent ine
Ġg y
å¯Ĩ åĪĩ
æĭ¿ åĪ°
ĠBen jamin
i Ã¨re
Ġt ilt
ĠC hat
Ã© l
Ġ# #
æĪ¿ äº§
Ġgar bage
Ġinterf ere
k r
Ġt ast
Ġv est
Ġpl aus
ĠSt ack
ĠBe ijing
ç®Ģ ç§°
äºĴ åĬ¨
èĹ ¤
Ġresid ues
Ġpal ace
Ġclim bed
Ġmembr anes
Ġf og
ä¸į åıĬ
ge bras
æ· ®
ä¸¤ å¤©
è´Ń çī©
> )
F s
Ġc ement
Ġn ested
ac s
ĠM es
ĠF ont
æĹ¶ åħī
pro b
åħ¨ åĬĽ
OU S
inn ers
activ ation
Ġsoci eties
ĠEV ENT
Tim estamp
ĠChair man
ĠV erm
å¸Ī çĶŁ
annot ations
Ġpropag ation
Ġh ast
ell ers
æĬ Ħ
çº ±
ĠY ang
ĠUn iverse
çĶµ æ°Ķ
ãĤ ·
Ġmiss ions
Ġpsych ology
Â ħ
Ġl ol
ĠC B
èµ ´
com ed
å¹´ æĿ¥
Ġinv asive
å§ ¬
å®ī å¾½
Ġtop ological
æİĴ åĲį
éľ² åĩº
éļĲ æĤ£
Ġbrut al
Ġp ork
Ġwork place
Ġatt ain
Ġgot o
èĳ ¬
uel a
éĨ ĭ
è´§ çī©
Oper ator
Ġmand ate
èĥİ åĦ¿
ĠTurn er
estab lished
Fram ework
H ER
al ong
ud son
è° ¦
arg v
let al
ĠÃ ¡
ĠGr ad
sens itive
Non Null
ĠA qu
ĠP eters
iz en
Ġro pe
Ġfe ared
Ġz ijn
Ġexc itation
inf lam
Ġpret end
ĠReg ional
Â» .
sd k
VID ED
c ott
Ġform ally
Ġinf il
ole cular
çĪĨ åıĳ
Ġremind s
Ġchrom at
er ial
ic ol
æĺ Ń
çĶ¨ åľ°
åīį è¿Ľ
éĴ ©
æĳ Ķ
Ġfre ed
ç¼º éĻ·
é¹ °
è¾ħ å¯¼
æľīåĬ© äºİ
? \
È Ľ
Ġp ension
ing o
ur ious
ä¸Ģ çķª
å¤§ æ°Ķ
æĦı å¿Ĺ
ah r
Ġbre ed
å°ĳ æķ°
Ġpolit ically
Ġport al
Ġblog s
æ¦Ĥ çİĩ
äº¿ åħĥ
ĠLear ning
ĠMit chell
C u
Ġn s
ch lor
ict ory
Ġpat rol
çĪ µ
è¾¾ æĪĲ
Ġsal ad
åľŁ å£¤
Ġnetwork ing
W ar
c ery
j er
Ġc out
Ġh r
Ġdis charged
Ġem pire
ä½ĵ éĩį
Ġfr iction
æĽ´ ä¸º
æ·± æ·±
Ġste ering
sl ice
hy d
ĠOk ay
ĠPhilipp ines
ä¸į å¼Ģ
Ġcan cers
åİ ķ
math it
åĦ Ĵ
Ġlack ed
Ġquarter back
Ġrail road
Ġs igh
Ġd ock
æĪ Ī
ĠG arc
åĲİ æŀľ
ank ing
ä½ı æĪ¿
OUR CE
Ġett Ã¤
ĠC leveland
ĠB io
ä¸į ä¹ħ
Ġ{ \
du cer
é«ĺ æīĭ
ev es
æķħ æĦı
ili ation
æĲħ æĭĮ
ĠV ancouver
Ġmon itored
æ¢ Ĺ
æ¼Ķ è®²
amer ican
Ġt et
Ġc rap
Ġd war
ĠM C
Ġout let
Ġhand y
Ġdec ree
æīĵ åĩ»
Ġredu nd
æ¿Ģ åħī
L I
L ove
mer ge
vert is
Ġdevelopment al
Ġge ometric
parent s
Rear range
T ensor
n x
Ġf oster
Ġn ort
åħ Ĩ
ä¸į æĪĲ
Ġcar ing
Ġann ually
è¯¾ é¢ĺ
Ġpredict ive
Ġdiscl aim
Ġbelong ed
Ġmathemat ics
Ġincl ined
J apan
[ -
Ġ ib
Ġan est
Ġpl ed
ĠK ate
ĠApp ellee
ĠInt roduction
Ġpept ides
Ġduplic ate
Ġst air
per formance
are ttes
åĨ² åĩ»
Ġcriter ion
F ROM
ism iss
ĠL ock
Ġsign atures
Ġopen ly
Ġcal ibration
Ġfore ach
M aterial
d ump
y outube
ing e
ï¼ ħ
Ġe u
Ġst a
å¦ ®
Ġsi xty
Ġwild life
grad uate
ĠMem bers
ĠLI ABILITY
re b
Ġm Ã¥
om o
Ġfor ma
ĠO NE
sh adow
åĽł èĢĮ
è½¦ éĹ´
ãĥ Ĺ
Ġur gent
Text View
ä¼¼ çļĦ
Ġaver aged
Cam era
ĠLegisl ature
c art
é ł
ä¸Ģ ä¸Ŀ
Ġmid st
Am ong
æīĭ éĩĮ
Ġinf ra
åıĸ æ¶Ī
åħ± æľī
Vis ual
Ġcrypt ocur
W arning
Ġs aint
Ġcon cludes
ew ard
Ġform ats
Ġcivil ian
ĠRom ney
âĹ ı
g ium
m ia
m illion
ĠN BC
å°ı å§Ĳ
Ġaff ection
Ġgen us
ĠGu y
dis p
Ġflu or
icip ants
ĠWork ing
Serv ices
åĳµ åĳµ
h istor
Ġs ind
ch aft
Ġnot ify
ĠU P
ann o
reg ulated
ä¼ł è¯´
Ġmeant ime
Ġjuris dict
Ġsig hed
B ACK
L ower
á Ī
Ġdel ays
æķ´ æĶ¹
Ġsequ encing
Perm ission
C ross
p ine
ĠE ither
Ġmy sql
è¿Ľ åı£
Ġdisc our
Ġcalcul ating
çªĹ åı£
Ġdrag ged
d ensity
é ¥¿
em os
ĠH amp
åľ¨ å®¶
åĴĮ å¹³
Ġshe er
åĵ ¼
æĸĩ æľ¬
åıĺ å½¢
ãĢĳ ãĢĲ
pat cher
Ġblank et
P ixel
Ġth ir
ĠG ot
Ġcl ue
Ġunder going
æ¸ Ķ
Ġmed al
è¯ķ é¢ĺ
ç¿ Ķ
éĢı æĺİ
IE W
Ġbreat he
ĠCrim inal
ĠJ os
ĠV M
å¹´ åīį
Ġint imate
ç« ĸ
Ġsub group
Ġpat ches
ç¾ ŀ
å½ĵ ä½ł
br aska
ĠApp endix
Ġcop ied
Ġconsequ ently
C reated
Ġb ored
Ġan isot
Ġl aughter
Ġwh olly
Ġ\\ -
ĠVis it
e ast
j en
ma pping
å°ĳ å¥³
ç¥ŀ ç§ĺ
éħį å¤ĩ
ĠÅ ¾
ĠOper ation
A z
ĠN HL
Ġro ster
ä¼ĺ åħĪ
G ate
T ri
f ty
Ġs ar
Ġh ipp
å¦ ĥ
Ġgu ides
Ġav ait
Ġvis ibility
Ġsum mit
Î½ Î±
ĠSw iss
Ġpu zzle
g iven
çĮ ´
é»ĳ æļĹ
æ© ¡
s pl
ĠF ant
ĠE S
åĮ Ĩ
æĸĩ èīº
ĠSe an
AR G
Ġz oom
å¢ŀ åĢ¼
çĶ· å¥³
M ad
W T
ad ic
ĠC zech
ĠM ort
ĠF err
ĠG aza
rib ly
Ġchar m
äºĮ äºº
Ġcoll apsed
Ġearth qu
å»¶ éķ¿
Vol ume
èĲĿ åįľ
l est
s outh
Ġd iox
ĠC and
ĠP ad
å¦Ĥ åĲĮ
tr im
ĠSh op
è¥¿ åįĹ
ĠInd ependent
Ġclean ed
roph ys
I mm
S ound
ĠH ero
Ġab ol
Ġcourt esy
ä¸¤ ä½į
åįķ çĭ¬
Ñģ Ðµ
åŀĭ åı·
Ġposition ing
ĠJer ry
ĠÅ Ł
A IN
d ose
d ll
se g
ĠJ ake
Ġsens es
çĶ³ æĬ¥
Te am
Ġsoul s
Ġd ell
ĠC AN
ĠC rown
è¯ Ī
Ġsh rugged
Ġ\ /
èĭ ĳ
ĠJust in
Ġcatch ing
åĨ² çªģ
. âĢĶ
H or
is ure
ĠC iv
çĶ¨ æ°´
Ġass ays
Ġcount less
ek ing
sim ilar
Ġinteract ing
L uc
ĠE state
Ġno on
Ġte aches
Ġinter pol
Ġfin est
ĠÎ ¸
uer to
Ġpse ud
ht hal
è¥¿ åĮĹ
Int eg
Ġdemonstr ating
valid ate
ĠSwed ish
p her
p aste
ad just
Ġapp et
Ġass ure
ĠQ uality
AS K
Ġultr asound
Ġpneum onia
r v
ic os
se ven
ä¸Ģ æĶ¯
åĪĨ è§£
Ġdown stream
de al
Ġconsum ing
Ġappeal ing
V s
V ec
Ġen rolled
ĠCl inical
åĨį ä¹Ł
Ġsent iment
Ġeat en
c py
an on
ĠS ET
Ġare na
å· ©
Ġra pp
Pro te
Ġret ire
trans action
Ġtub es
ĠWat son
Ġdisadvant age
ul ly
ĠV e
å§ ¨
ĠTr uth
Ġsum s
Ġaud iences
gu ide
èĪª ç©º
ĠTerm s
p ages
or rh
å¤§ è¡Ĺ
ĠBut ton
åı· çłģ
åıį é¦Ī
Ġfore sts
ÑģÑĤ Ð²
W W
im i
çİ ²
oll ar
ĠÐ¿ ÑĢÐ¾
End point
ĠLear n
Lo op
Ġetern al
Ġa rose
Ġco herent
Ġproblem atic
æĿĤ å¿Ĺ
Ġpun ish
Ġhell o
A I
è¿Ľ æĶ»
çŃī äºº
åīį æľŁ
aint ies
We ight
Ġhost ile
ä¾Ŀ éĿł
Sm all
prov ider
æĹłè®º æĺ¯
ä¸īè§Ĵ å½¢
O s
ĠE PA
Ġsp y
å¤į åĪ¶
Ġver te
Ġprint s
ĠPol ish
Ġri vers
ben ch
ORD ER
ĠJeff erson
Ġmetall ic
er ie
Ġc her
ç¼ ¸
Ġlocal ized
S elf
o ons
Â ¥
á ¿
Ġc f
Ġdis put
Ġend othelial
Ġanal ytic
æĮĩ ç¤º
Ġcal ories
æģĲ æĢĸ
Ġgentle man
Ġpromot er
T B
Ġcon ject
Ġv ie
ä¸Ģ æł¹
Ġcont end
æĮ £
Ex pect
Ġstreng then
e ous
Ġl y
ä¸Ģ åĪ»
Ġcomp ress
çī ²
Ġinv oke
æĦŁ åĻ¨
éĻ¢ æł¡
b ag
Ġro de
ĠSh ar
Ġcurrent s
Ġlay ing
Ġrac ist
Ġast hma
b oss
Ġe j
ĠA TP
Ġst aining
åĲ »
ĠJ S
å½ĵ åĪĿ
land o
Ġed itors
string s
ĠSuper ior
Ġconsult ation
RES ULT
Ġexem pl
Ġchap ters
ĠLaur a
d ess
Ä ĵ
Ġd ashed
Ġn iet
un iform
Ġcl erk
ĠPro perties
Ġsl id
Ġsk etch
File Name
Ñĩ Ð°
Tem p
Ġgest ure
Ġlyr ics
B ound
L IST
j query
ĠS V
ä¸Ģ éģį
pr ising
ĠCl ay
Ġbro ker
ĠPh oenix
Ġanaly zing
opl as
ĠTR UE
Ġphosph ory
G ive
ĠT M
ĠT es
um ed
ĠH unt
ĠJohn ny
å°½ å¿«
Ġfast est
èĴĻ åı¤
A ir
G rad
U K
ans wer
Ġno vo
comp ile
Ph ot
IR ST
B ay
B order
ĠT el
pt ide
ath on
Ġad apter
å¤§ ä¾¿
bl ob
ä¼ł æŁĵ
ĠSw itzerland
ment ation
cl one
ep och
å¦ ¨
åĲĦ çº§
Ġtechn ically
ey ed
ett i
in is
Ġres erves
ĠâĢ ŀ
anc ers
alk yl
åįģ åĩł
å®¹ åĻ¨
å¹¿ æĴŃ
Ġrespons ive
Ġassess ing
æĬķèµĦ èĢħ
èĿ ¶
Ġannoy ing
m oney
ter min
Ġexp onential
ä»£ è°¢
Ġbelie ving
Ġanaly st
EG IN
ĠDev ice
Ġped est
éĥĳ å·ŀ
Ġdeleg ate
Ġow ed
Ġc erv
Ġl ingu
Ġimp ed
èĥ¶ åĽĬ
Ġpenal ties
Spe ed
j ohn
ou x
ĠG ov
ib e
sh ine
åħ¥ åı£
as ters
ĠS even
ĠC hel
ä¸į ä¸Ĭ
Ġmy ocard
è¿Ļ ç±»
ys et
Ġfl ame
Ġrot ate
Mem bers
Exec utor
Ġr im
Ġun precedented
Ġansw ering
Pl aintiff
éļı æĦı
Ġep och
Ġhydro ph
Ġmel an
_ )
r Ã©
Ġ ig
ĠR y
æľī åĬĽ
Ġcount ies
Requ ired
ĠAct ivity
ĠSer ial
Ġcontribut es
Ġreform s
æĹĭ è½¬
U B
å® ª
ĠF ast
ä¸Ģ èĤ¡
Ġj aw
ĠU l
Ġwork flow
ient e
æĦı å¤§åĪ©
èĬĤ çĤ¹
Ġign oring
Ġeth anol
Ġsan ct
Am ount
ĠCommun ications
Feb ruary
b ibr
g one
Ġw reck
am us
ch astic
ĠR oll
åİŁ åŃĲ
Ġur inary
Ġenthus iasm
iterr anean
Ġt x
Ġd ich
åı Ľ
ĠK night
æ³ķ äºº
éĽ Ģ
ik o
erc ise
Ġnic ely
qual ified
ut a
Ġher b
Ġatt raction
CA A
column s
ĠInit ial
c ry
ĠP od
Ġnot ified
Ġnot ebook
Ġrep roduction
ik h
Ġsl ides
çĭ ®
Ġbuy er
Ġhyp ot
Ġtor que
Ġreserv oir
K K
o ak
r itional
ä¸į çĶ±
Ġappro ve
Ġmet er
Ġve in
Or gan
éĿĴ å²Ľ
Ġanim ated
çİī ç±³
çŀ §
åŀĤ çĽ´
Ġgam bling
( :
G roups
d rive
it Ãł
Ġpe ers
Ġend l
ç»Ł æ²»
Ġclear ing
è¯¢ éĹ®
çİ°ä»£ åĮĸ
æĳĦ å½±
ĠGall ery
Ġtomat oes
b inary
u uid
el astic
ĠB att
å· «
ç§ ©
åĲĪ æĪĲ
Se q
ĠFl ash
o ft
ĠHe y
åħ¬ åĳĬ
RO L
Ġpred ecess
ÏĦ Î¹
æĺ¾ åį¡
æ¹ ĺ
éĩįè¦ģ æĢ§
W orks
Ġl enses
Ġy oga
int endo
Un iversity
Ġalleg es
Ġupd ating
æ¹ĸ åĮĹ
Ġequival ence
Ġtutor ial
l av
m ist
Ġfor ums
å¤§ èĦĳ
den ly
Ġsynchron ized
ï »
Ġw ires
ol ation
ĠP ref
Ġab oard
right s
æŀľ çĦ¶
Ġear ning
Ġsell er
inte ger
Ġveget able
w ild
in ic
Ġc ob
ar ith
ab b
em p
ĠB rief
çĥŃ æ°´
åİĭ ç¼©
ĠSu ccess
dra wn
H am
Ġre active
ad itional
ĠC au
au f
ob acter
å¯¹ æŃ¤
çŃī åĪ°
Ġserv ants
ĠInt ent
åŁ¹ èĤ²
Aust ral
i q
Ġl ith
åĬł çĽŁ
az y
AN K
Ġpharm aceutical
k ov
ĠS ony
ĠE lectric
ĠV R
Ġpre view
Ġi i
åį« æĺŁ
ĠPer formance
term inal
æĳĩ å¤´
Ġoxid ation
ĠS ets
Ġfor fe
å± ģ
Ġexp ose
Ġgr in
ĠSh an
ç´§ æĢ¥
ãģĭ ãĤī
ĠEgypt ian
Ġrevolution ary
Ġfrustr ated
 $
X Y
Ġe urope
ĠA th
ĠHe aven
Ġtrad itionally
urch ase
åħħ è¶³
Ġson o
ä¹° äºĨ
Ġtour ist
ipp et
Ġpert inent
Ġalgebra ic
Ġutter ly
h all
Â Ī
id as
Ġst amp
ĠL ar
Ġcur riculum
ĠEx amples
iment o
Ġaud it
pack ages
Ġment ally
Ġhe d
est o
ĠW L
ise cond
Ġinv itation
åħ¬ æ°ĳ
Ġbeh ave
Ġarr ange
Gener ated
own ers
éª Ħ
inc ial
Ġviol ate
Ġsqu ares
ogene ity
Ġcolleg es
G ui
Ġis o
Ġun stable
Ġso y
Ġins ist
æķĻ å®¤
Ġaw ake
ĠOb viously
Cons umer
Every thing
ĠRo ose
ï» ¿
M Y
Ġp ac
li o
è£ ķ
åĩł åįģ
Ġfore head
çĪĨ çĤ¸
d uration
Ġre lying
ĠP il
ä¸Ģ æĹ¥
Ġch in
ev idence
åīį å¾Ģ
å¹³ çŃī
åĥ §
æĮī éĴ®
é¼» åŃĲ
ĠCommun ist
ï¼ Ŀ
ĠT ool
ĠS ym
ID ENT
Ġdev il
Ġinj unction
æ¯« ç±³
Av ailable
ro e
ig ator
ĠT aking
ĠĠĠĠĠĠĠĠĠĠĠĠĠĠĠĠĠĠĠĠĠĠĠĠĠĠĠĠĠĠĠĠ ĠĠĠĠĠĠĠĠĠĠĠĠ
li um
éķ¿ æ±Ł
ä¸ľ åįĹ
sequ ently
å®ŀéªĮ å®¤
f at
ĠF iles
Ġrem inder
uss i
Ġpotential s
ĠNet flix
Sim ilar
Ġbra ins
Rober t
Ġp oured
ĠV enez
é¢ ģ
èĸ Ľ
nav bar
Ġm akers
ĠG PU
å· ¢
ĠCh i
Ġacc ent
æ³¨ å°Ħ
Ġmag azines
Ġinitial ize
à¹ Ģ
Str ategy
Ġun reasonable
åıĳ çĹħ
Ġtrans c
Ġdec ides
rem ote
Ġpri ests
fess ional
ĠBet ter
ĠT u
gr and
ç¬¬ ä¸ĥ
work er
Ġsex y
Ġdat etime
unk nown
Ġcrow ded
Ġinsert ion
f ixed
am ino
Ġhe els
ĠCon nection
trans lation
Ġmi R
Ġfaith ful
å¼Ł å¼Ł
Ġcompr ise
Ġaccommod ation
Ġm ush
åĮ Ļ
com ments
åı¯ æĥľ
æŀ £
ĠCh amber
Ġac oustic
bl ocks
ĠRe act
Ġbi os
Ġfort un
Ġfurn ished
à¥ ĩ
Ġcongress ional
ĠPitts burgh
Ġs perm
al bum
Ġf ame
ig uous
å·¥ ä¼¤
åħ¬ åħĥ
Ġdon ation
aj ax
Ġactiv ate
Pl us
æĭĵ å±ķ
Ġredist ribute
H ard
ri en
ĠD iff
Ġapp li
ull ivan
çķ ľ
reg istry
èĬĤ æĹ¥
åĸľ çĪ±
Ġgra ins
Ġjump ing
mind ed
Ġdign ity
he y
ĠP I
ĠD J
Ġsa fer
ren a
æł¸ ç®Ĺ
idel ity
\\ .
or ate
ĠT rial
pl acement
ache lor
Ġassert True
Ġcry stals
img ur
Sign ature
Ġundert aken
oubt edly
m ix
Ġthe sis
Ġl ou
The ir
åĸ ĺ
Ġprior ities
Ġfa ire
Ġsecret ion
EE E
èį£ èªī
r ag
s elling
Ġre wards
ĠC reated
Ġbel ly
Ġfree ze
Ġund es
hel per
ĠÏĦ Î¿Ïħ
åĨł åĨĽ
B uff
C amp
M rs
ãĢ Ķ
ĠT ib
ĠP un
ra ising
ĠW ash
pl aced
Ġext ensively
çĽ¸ åıį
Ġpost operative
èĢĲ å¿ĥ
Option al
ĠProfess ional
ĠI RS
ĠB oot
ĠN H
cl i
ç© Ĩ
ãģ¦ãģĦ ãĤĭ
Ġafore mentioned
V AR
g om
t rial
Ġ( <
ĠM all
Ġse q
Ġne c
éĥ¨ ä»¶
æľº åĬ¨è½¦
Ġinf ring
oph ys
åı« åģļ
Ġcat ast
P ars
s ided
ĠS pr
ĠM IN
å¯ ¨
Ġsens ory
ä¾ĭ åŃĲ
ç¨İ åĬ¡
Every one
ĠRoose velt
P ack
P rep
in itions
Ġn ail
Ext ra
ä¼° ç®Ĺ
ĠMem ory
Ġthy roid
Ġcompos itions
V EL
n om
t z
ĠM ission
æľī æĿĥ
Ġun conscious
ord e
str ument
æĦŁ åĬ¨
Ġconcept ual
Ġindu ces
Ġstrugg les
mut ation
Ġintention al
ĠPerson al
Ġabdom inal
D ie
W arn
r ift
Ġab st
ĠĠĠĠĠĠĠĠĠĠĠĠĠĠĠĠĠĠĠĠĠĠĠĠĠĠĠĠĠĠĠĠ ĠĠĠĠĠĠĠĠĠĠĠĠĠ
Ġlaw makers
Ġca res
Ġport rait
ĠTre asury
T or
ight ing
ä¸į å®ľ
Ġpolit ician
Ġsec ular
Ġik ke
con current
èĥ½ åĲ¦
åıª ä¸įè¿ĩ
Ġcivil ians
èĵĿ èī²
Ġhun ger
Ġbless ed
H ist
Ġc ube
Ġf t
Ġm aker
oc yt
Ġsh y
ä¹ĭ æĹ¥
ä¸» è§Ĵ
è°ĥ çłĶ
Ġphot ographer
ä¼ĺ æĥł
aid en
Ġintr acellular
ĠCle ar
ĠLook ing
Ġsurge on
L M
d g
m aps
ĠF DA
ĠL arge
å»º æĪĲ
åįķ çº¯
åĺ ¿
Ġforg ive
ĠForm at
Ġspl itting
orig in
ĠSpe ed
âĢĶâĢĶ âĢĶâĢĶ
Ġmanip ulation
Ġa an
åį ¿
æĻ Ĥ
unc her
è½¬ è®©
Ġfoc al
ĠAny one
ĠIran ian
ĠÎº Î±
Ġentreprene ur
Ġdens ities
) |
N orm
od ot
ra is
Ġk er
Ġag on
æ³ Ĭ
ĠState ment
èĲ¥ éĢł
Ġles ion
acher s
Ġcere bral
Ġâī ¥
Ġtr ay
Ġant enna
åĲ« ä¹ī
Ġproced ural
Click Listener
A ma
n ings
iv ation
Ġch uck
ect ive
AN Y
ä¼¤ åı£
ĠEm peror
Ġattend ance
Ġtrav elling
t le
Ġbe ast
çĶŁ æĦı
åıĳ å°Ħ
amp a
Ġpos ed
ĠCL ASS
Ġsuscept ible
he at
se ctions
ist rate
æī ģ
åĩ ¸
ink le
æĹ© å·²
Ġtour ists
ĠLabor atory
repos itory
åħ¨ æĸĩ
ik er
Ġtop ology
Ġsens ation
Ġdraw ings
èĦ¸ èī²
èģĬ å¤©
L F
ĠR ice
ex isting
ä¹ĭ æīĢä»¥
Ġnon etheless
ĠMil itary
ew ay
Ġsc ary
Ġmod al
Ġobserv ing
Ġcreat or
è¯į è¯Ń
èĢ³ æľµ
P et
m obile
u is
in sp
al most
Ġp ond
ow ing
un iversity
ok u
å¼ ĵ
ann ers
æķĪ åºĶ
Ġsurv iving
ç¡¬ çĽĺ
çĸĳ éĹ®
ĠBel ow
ĠAv ailable
Ġunlaw ful
Ġa le
ãĢ ķ
un al
int s
ĠK han
Ġlike wise
Ġcomm erce
ĠCh ile
ĠUn ity
ier ra
Ġstri ps
itect ure
gt k
ĠCle an
Ġsuperv ision
âĢ ħ
ĠP os
ĠD ATA
ĠJ ur
so ever
çıŃ ä¸»ä»»
æĢ¥ æĢ§
åģĩ è®¾
Ġhal o
Mus ic
Ġmoist ure
H ot
e i
å· ·
Ã¤ h
Ġdr ill
Ġunf ortunate
vas ive
Ġell ipt
D ear
F ar
F la
M ass
e lection
Ġf li
cl s
æĺİ æĺŁ
port ion
æİĴ æ°´
çĨ Ķ
activ ated
EV ENT
Ġswit ches
Ġen larg
æķ ¦
å» Ĭ
åħ¨ ç¨ĭ
Ġsl a
ãĥ ķ
ĠDr agon
Ġconcent rate
ĠRec ently
ĠHigh way
Ġassist ed
æıı åĨĻ
Ġsubstr ates
E r
N or
R U
ĠM ORE
Ġinte gers
éĵ Ń
æĪĺ å£«
à¤ °
ç¦ı å»º
ĠTw enty
ĠMad ison
uss y
ä»İ æŃ¤
Ġunderstand s
Ġbond ing
Ġham mer
N ovember
Ġa pert
ĠS olar
ĠA ld
Ġk Ã¶
éĤ£ è¾¹
ĠQ U
ĠPh ase
Ġsch iz
æģĲ æĢķ
Ġauthent ic
ĠMedic are
D irection
R ay
ĠB egin
th ick
åĬ¨ æīĭ
ç¨ »
Ġsur render
Ġve z
ÑĢ Ñĭ
Ġorig ins
yt ics
ĠIN C
valid ation
Ġintention ally
re gex
Ġd s
am ide
Ġind ul
åĽ½ åĬ¡
æ¸ £
Ġ\ <
æķ´ åĲĪ
ESS AGE
ĠPal ace
Ġconver ting
Ġtrib e
Ġanth rop
reng th
? ?
J es
Ġk o
åı¯ çĶ¨
St ates
å¥½ å¥ĩ
ĠÃ ¢
Ġant ioxid
Ġfore going
Ġmis conduct
Ġeight h
Ġfold ed
Ġpropag anda
ĠContin ue
à¹Ģ à¸
L it
c ou
ĠN am
Ġher s
Ġman eu
Ġmis under
Ġfilter ing
I ENT
W at
ĠN athan
ell en
å§ ļ
Ġfar ms
æ¾ ¡
ĠEnter tainment
Ġe cc
og rams
ib bean
ĠV el
ues e
Ġspec ulation
åĽŀ æĬ¥
Ġgen ius
Ġrad ar
ĠKar l
B ill
f ocus
r ating
ĠT ogether
ew orks
å¸ Ĩ
Ġinter cept
ĠCo al
AB EL
Ġappropri ately
è ł
Ġc c
Ġde bris
åĪ ®
Ġph p
åīį æĸ¹
Ġcivil ization
ĠÐ± Ñĭ
ĠCustom er
B ool
f lex
ĠF at
ĠG PS
ä¸º ä½ł
å°ı é¢ĺ
Ġinv ented
ĠAl ong
å¢ŀ å¤§
Ġformer ly
ĠRob in
tre ated
Ġentertain ing
Ġinher ited
Ġt ended
Ġex agger
Ġen jo
Ġmy el
å¤§ ä¼Ĺ
ĠK aren
Ġph on
è° Ĭ
åĲĪ å¹¶
Ġcharacter ize
Ġver bal
Ġweight ed
Sc ene
gener ation
Ġrenew ed
Ġexplo it
ĠBO OST
Ġrecruit ment
e lements
es ch
ĠR oute
Ġsp ac
è¾ Ĳ
path y
èŀį èµĦ
é¹ ¤
month s
Ġadvoc ates
Ġepit helial
î Ĺ
Ġy o
ä¸Ģ å¯¹
Ġcontin ually
bo ys
çľ¼ ç¥ŀ
éļı æľº
ĠBern ard
Ġtaxp ayer
B ur
D rop
Ġp ag
ĠS port
te es
Ġtr icks
pos ite
æ°Ķ æģ¯
Ġdem ographic
ä¼ł è¾ĵ
æ¢ ¨
ä½ı å®ħ
çłĶç©¶ çĶŁ
Ġcontribut ors
DI RE
Ġsubstit uted
Prim ary
B usiness
H P
Ġcon ception
æµ ı
ah an
yl um
do ing
bur se
VER T
Ġinhib ited
ĠNE W
Ġmic rowave
D ATE
K ing
R at
Â Ķ
ĠC atherine
ĠG ets
ä¸ī æĺŁ
æĹł æ¯Ķ
AT T
è®² è¿°
Ġarriv es
Ġprem ature
Exec ute
report ed
z el
è¢« åĳĬ
Ġpo ems
çĨ Ļ
ĠAb d
ĠBar ry
åİĤ å®¶
Ð³ Ð¾
sv g
A ff
v oc
le af
Ġl act
ĠS UM
Ġfor k
ĠA V
ĠP anel
Ġpar ole
è®¾ å®ļ
AT TR
Ġpa ired
Ġquestion naire
Ġorgan ize
è®° ä½ı
Ġsomet ime
Ġantib iotics
Ġdistinct ive
ĠSing h
Ġbom bs
C over
Ġd orm
am el
Ġup stream
Ġrep o
pro blem
Ñģ Ðº
ĠPl ant
Ġple aded
BA SE
Ġfet al
Ġa y
Ġm apped
ĠM erc
ĠP ick
ass ign
ail and
Ġvol atile
Sh ader
inn y
ĠSub ject
D epend
let te
Ġca ut
cer pt
Ġver ification
ĠEs pecially
Py thon
ĠDak ota
l ings
m ans
Ġn ach
Ġy arn
pe er
ĠG DP
Ġgr ades
é¦ĸ æ¬¡
ĠRed ist
ç¬¦ åı·
å¥¶ ç²ī
Ġapprec iation
Ġvent ricular
Ġpanc reat
Ġt s
Ġj Query
ast ically
ib an
äº§ éĩı
Ġcur iosity
Ġsl ots
ç¡® è¯Ĭ
ĠChar acter
ĠClass ic
Ġreven ues
b rain
ad minist
Ġle verage
form ula
ict ures
pro duction
çĽ´ å¾Ħ
ĠSo on
Ġnav igate
icular ly
îĹ ¥
L V
d it
Ġd awn
ĠP B
ĠP ap
Ġr ises
ĠJ ar
æĸĩ çĮ®
ĠAl ber
Ch art
Ñģ ÐºÐ¸
oph ren
ÏĦ Î¹Îº
ä¾Ŀ èµĸ
ĠDis play
Ġhat red
Ġble w
äºĭå®ŀ ä¸Ĭ
H I
Ġt am
Ġw oke
Ġnot ably
çĲ ³
æĸĩ æ¡£
ĠCon n
print StackTrace
G ER
il ateral
Ġpro testers
Ġne on
æ³ ¼
å·® è·Ŀ
De legate
FI ELD
H en
â Ļ
iv ia
ub ot
Pro of
Ġinc ap
mod al
Ġpul ses
èĤł éģĵ
Ġbureau cr
[...]
